<unk>	0
<s>	0
</s>	0
▁the	-3.31492
.	-3.33554
▁of	-3.37048
,	-3.42445
▁and	-3.58669
▁in	-3.93082
-	-3.97225
▁to	-4.21081
▁a	-4.42527
▁(	-4.49978
▁with	-4.66722
)	-4.81086
▁	-4.92291
▁for	-4.93002
▁was	-4.94028
s	-5.00656
▁The	-5.01584
▁were	-5.02538
▁is	-5.13198
▁that	-5.18638
▁by	-5.31614
▁on	-5.5557
▁as	-5.60989
▁patients	-5.6494
▁from	-5.68743
▁are	-5.75582
▁be	-5.84968
▁or	-5.8553
▁an	-5.90697
▁at	-5.95689
/	-6.00615
▁this	-6.03542
▁In	-6.10728
▁study	-6.19878
▁not	-6.2378
▁A	-6.24074
▁have	-6.34928
▁cells	-6.36336
▁which	-6.37752
▁between	-6.39417
▁We	-6.44023
▁than	-6.51612
).	-6.52605
2	-6.54629
;	-6.54879
),	-6.58099
▁after	-6.59658
▁This	-6.59663
▁these	-6.60266
▁we	-6.60392
▁has	-6.60513
▁been	-6.61594
▁treatment	-6.61865
1	-6.6349
▁but	-6.6966
'	-6.70104
▁using	-6.70214
▁cell	-6.71075
▁may	-6.72589
▁their	-6.73446
▁results	-6.73603
▁can	-6.74301
▁used	-6.75535
:	-6.76597
▁also	-6.79728
▁two	-6.81363
▁had	-6.82478
▁=	-6.82505
P	-6.8254
▁group	-6.82611
▁both	-6.85337
▁more	-6.8554
▁high	-6.89442
▁during	-6.90036
▁data	-6.9208
▁disease	-6.93676
▁clinical	-6.98526
▁analysis	-7.00504
▁associated	-7.0096
▁2	-7.01088
▁C	-7.01118
▁P	-7.01909
▁activity	-7.02721
▁all	-7.0393
▁increased	-7.04859
▁other	-7.05182
▁significantly	-7.0547
▁found	-7.05607
▁compared	-7.06211
▁studies	-7.06901
▁protein	-7.07323
▁significant	-7.08432
▁levels	-7.09079
▁1	-7.09591
▁different	-7.10306
▁no	-7.11612
▁expression	-7.11898
▁time	-7.13034
▁3	-7.13875
▁showed	-7.14239
p	-7.14325
▁it	-7.14849
▁one	-7.14931
▁effects	-7.15576
▁non	-7.1576
3	-7.16129
▁effect	-7.16134
C	-7.17697
▁its	-7.17756
n	-7.17803
A	-7.17867
▁use	-7.18068
▁risk	-7.19332
▁cancer	-7.19452
▁into	-7.21697
▁T	-7.225
▁well	-7.22922
▁These	-7.24697
▁years	-7.2521
▁control	-7.25462
▁most	-7.26956
(	-7.27157
▁age	-7.29601
▁patient	-7.30394
▁higher	-7.30708
▁only	-7.32896
▁such	-7.33061
▁cases	-7.33145
▁p	-7.33465
▁To	-7.34898
▁human	-7.35106
▁observed	-7.35246
▁model	-7.3551
▁present	-7.35526
▁B	-7.36332
▁rate	-7.37215
▁health	-7.37504
▁who	-7.37778
D	-7.38009
▁groups	-7.38177
▁gene	-7.40387
ing	-7.40394
▁However	-7.40856
▁when	-7.41538
▁three	-7.42068
▁low	-7.4222
▁system	-7.42244
S	-7.43263
▁factors	-7.44333
▁first	-7.44745
▁response	-7.45048
▁blood	-7.46469
▁role	-7.46572
▁those	-7.47625
e	-7.4921
a	-7.50912
-1	-7.51122
▁performed	-7.51714
▁method	-7.51814
▁development	-7.52691
▁increase	-7.52819
▁respectively	-7.53504
▁changes	-7.53997
▁total	-7.54459
▁4	-7.5461
▁could	-7.55895
▁function	-7.55964
▁new	-7.56436
▁potential	-7.56582
▁important	-7.57229
▁therapy	-7.58316
▁care	-7.59171
▁number	-7.60421
▁5	-7.60673
▁level	-7.61597
4	-7.62073
▁S	-7.62251
▁acid	-7.62327
▁among	-7.62339
▁within	-7.62951
▁including	-7.63168
▁+/-	-7.63942
▁<	-7.63945
d	-7.649
H	-7.65306
�	-7.65438
▁our	-7.66726
▁over	-7.66917
▁normal	-7.67246
▁children	-7.67541
ed	-7.67625
▁identified	-7.67878
L	-7.67907
▁It	-7.67948
T	-7.68675
▁through	-7.68901
▁lower	-7.69781
▁growth	-7.69789
ly	-7.7023
▁reported	-7.7037
▁6	-7.70579
▁each	-7.71277
R	-7.71308
▁tumor	-7.71624
B	-7.71685
▁DNA	-7.72833
▁without	-7.73333
▁women	-7.73444
▁there	-7.73493
▁less	-7.74719
▁suggest	-7.74842
▁did	-7.75175
▁type	-7.76254
▁D	-7.76377
N	-7.77276
▁based	-7.77391
▁case	-7.77418
▁findings	-7.77538
▁N	-7.78034
▁10	-7.78609
▁months	-7.78773
▁tissue	-7.79809
▁I	-7.80777
▁test	-7.81962
▁factor	-7.82224
▁specific	-7.82319
▁E	-7.82525
▁diagnosis	-7.82983
▁under	-7.83514
▁days	-7.83516
▁while	-7.83553
▁presence	-7.83691
▁L	-7.83722
▁H	-7.83737
▁evidence	-7.83825
▁species	-7.84431
i	-7.84662
▁about	-7.84726
▁M	-7.84809
▁mean	-7.84998
▁obtained	-7.8504
▁differences	-7.8544
▁mice	-7.8578
▁due	-7.86428
▁population	-7.87043
▁single	-7.87188
▁conditions	-7.87204
▁similar	-7.87214
▁some	-7.87325
▁related	-7.8745
▁genes	-7.87577
▁should	-7.87659
▁mg	-7.87876
▁proteins	-7.87898
▁reduced	-7.8818
▁primary	-7.88181
▁show	-7.88979
▁infection	-7.89116
based	-7.89362
▁review	-7.89832
▁early	-7.90133
▁There	-7.90192
▁developed	-7.90582
▁research	-7.90603
▁treated	-7.90663
▁surgery	-7.90887
I	-7.9194
▁addition	-7.92136
▁studied	-7.92708
▁they	-7.92812
▁measured	-7.9311
▁"	-7.94093
▁drug	-7.94296
▁decreased	-7.94593
▁revealed	-7.95344
▁investigated	-7.95426
▁long	-7.95549
▁receptor	-7.9557
O	-7.95731
▁included	-7.96029
▁rats	-7.966
▁positive	-7.96825
▁common	-7.96828
▁period	-7.96908
"	-7.97229
▁h	-7.97591
up	-7.98221
▁demonstrated	-7.98482
or	-7.98655
▁survival	-7.98875
▁samples	-7.99369
▁concentration	-7.99674
▁Our	-7.99708
induced	-7.99847
▁anti	-8.00055
g	-8.00266
▁determine	-8.00395
▁information	-8.00675
▁evaluated	-8.01056
M	-8.01645
▁provide	-8.01735
F	-8.02163
▁large	-8.02167
▁approach	-8.02207
▁dose	-8.02214
c	-8.02317
▁further	-8.02551
▁subjects	-8.02635
▁brain	-8.02646
▁serum	-8.02847
▁methods	-8.02973
▁examined	-8.03371
▁will	-8.03445
▁concentrations	-8.03536
r	-8.0409
▁major	-8.04114
▁process	-8.04255
▁per	-8.04467
▁binding	-8.04479
▁following	-8.04862
▁complex	-8.05747
▁whether	-8.05935
▁rates	-8.06251
▁effective	-8.06345
▁surface	-8.06417
al	-8.08086
m	-8.08172
in	-8.08258
▁liver	-8.08916
▁molecular	-8.08928
▁symptoms	-8.09046
▁G	-8.09087
▁plasma	-8.09281
▁quality	-8.09529
E	-8.0967
▁same	-8.0968
▁pain	-8.09743
▁functional	-8.09913
▁either	-8.1018
▁post	-8.10534
▁determined	-8.10648
▁before	-8.10878
▁small	-8.11004
▁8	-8.11016
▁report	-8.11147
▁7	-8.1122
▁bone	-8.11411
]	-8.11477
▁acute	-8.11873
▁various	-8.11901
▁four	-8.12455
▁shown	-8.12972
▁CD	-8.13016
▁induced	-8.13297
▁chronic	-8.1356
▁values	-8.13642
▁pressure	-8.13909
▁several	-8.14094
▁current	-8.14429
▁CI	-8.14846
▁structure	-8.14882
5	-8.15023
▁known	-8.16053
▁activation	-8.16142
▁12	-8.16296
▁against	-8.16489
G	-8.16722
▁greater	-8.16857
▁outcomes	-8.17029
▁out	-8.17867
▁follow	-8.17924
▁mechanisms	-8.18144
▁body	-8.18397
related	-8.18399
▁involved	-8.18956
▁models	-8.19121
▁stress	-8.19703
▁vs	-8.19727
▁mortality	-8.19774
▁vitro	-8.19812
▁up	-8.20086
▁evaluate	-8.20107
▁range	-8.20167
▁detected	-8.20247
▁formation	-8.20326
▁assessed	-8.20487
▁ratio	-8.20626
b	-8.2108
▁many	-8.21113
▁possible	-8.21204
▁any	-8.21216
▁multiple	-8.21478
▁medical	-8.21653
▁change	-8.21672
▁water	-8.2199
▁management	-8.22177
▁membrane	-8.22261
▁production	-8.23233
▁analyzed	-8.23579
▁beta	-8.23811
▁alpha	-8.24171
year	-8.24177
▁weight	-8.24321
▁pre	-8.24506
▁association	-8.25105
▁life	-8.2523
▁difference	-8.25409
▁exposure	-8.25495
▁whereas	-8.25519
▁novel	-8.25715
▁performance	-8.25973
▁properties	-8.26008
▁responses	-8.26317
▁reduction	-8.26345
▁support	-8.26444
▁work	-8.26586
6	-8.26677
-2	-8.26891
▁mechanism	-8.27214
▁muscle	-8.27493
▁loss	-8.27514
▁size	-8.27718
▁K	-8.27737
▁presented	-8.28088
▁20	-8.2832
▁imaging	-8.28561
▁phase	-8.28688
▁region	-8.29233
▁�	-8.29277
▁surgical	-8.29289
▁All	-8.29376
▁genetic	-8.29427
term	-8.29515
dependent	-8.29634
▁weeks	-8.29698
▁controls	-8.29792
▁Although	-8.29865
K	-8.30216
▁9	-8.30781
▁resistance	-8.31293
specific	-8.31737
▁technique	-8.32782
▁characteristics	-8.32805
▁F	-8.32885
▁identify	-8.32926
▁severe	-8.33162
▁relationship	-8.33619
▁95%	-8.33907
▁self	-8.34093
▁re	-8.34111
▁diseases	-8.34588
▁area	-8.35163
o	-8.35341
▁how	-8.3537
▁conducted	-8.35442
▁available	-8.35662
▁virus	-8.35709
▁Here	-8.35716
▁investigate	-8.35892
▁considered	-8.35903
▁parameters	-8.35964
▁assess	-8.36229
▁For	-8.36392
▁aim	-8.36446
▁contrast	-8.36514
▁outcome	-8.36525
▁syndrome	-8.36588
▁systems	-8.37055
▁being	-8.37326
▁however	-8.37845
▁vivo	-8.37862
to	-8.37953
▁indicate	-8.38031
▁lung	-8.38197
▁active	-8.38233
▁very	-8.38536
▁30	-8.38574
▁required	-8.38693
kg	-8.38707
▁described	-8.38929
▁heart	-8.38933
▁flow	-8.39048
▁R	-8.39055
▁negative	-8.39203
l	-8.39237
▁result	-8.39245
▁injury	-8.39352
▁mass	-8.39361
▁decrease	-8.39644
▁value	-8.39689
▁II	-8.40109
V	-8.40298
▁highly	-8.40535
▁because	-8.40792
▁incidence	-8.4086
▁order	-8.40885
▁reaction	-8.40903
▁followed	-8.40921
▁impact	-8.41086
▁tested	-8.41367
▁status	-8.41445
▁better	-8.4153
h	-8.41854
▁detection	-8.41872
▁form	-8.42023
▁site	-8.42136
▁therapeutic	-8.42142
▁day	-8.42381
▁previously	-8.42759
▁isolated	-8.42835
▁enzyme	-8.42956
▁types	-8.43155
▁lesions	-8.43267
▁frequency	-8.43773
▁An	-8.43986
▁family	-8.44044
▁healthy	-8.44059
▁second	-8.44149
▁complications	-8.44339
▁target	-8.44441
▁left	-8.44625
▁caused	-8.44638
▁15	-8.45277
▁general	-8.4566
▁renal	-8.45684
▁features	-8.45907
▁c	-8.45993
▁prevalence	-8.46293
▁IL	-8.46585
▁improved	-8.46624
▁received	-8.46738
▁via	-8.47109
▁influence	-8.47229
▁individuals	-8.47245
▁sensitivity	-8.4728
▁if	-8.47311
ic	-8.47322
▁cause	-8.47519
▁ability	-8.47548
▁male	-8.47565
▁standard	-8.47569
▁O	-8.48362
▁sites	-8.48435
▁need	-8.48498
▁animals	-8.48757
▁sequence	-8.48864
▁breast	-8.48965
▁immuno	-8.49045
▁hospital	-8.49054
▁correlation	-8.49221
▁inhibition	-8.4947
▁distribution	-8.49936
▁sample	-8.50079
▁combination	-8.502
▁tumors	-8.50449
▁24	-8.50589
▁often	-8.50591
▁death	-8.50708
▁V	-8.50826
▁literature	-8.5132
▁improve	-8.51651
▁overall	-8.51699
▁increasing	-8.51701
▁physical	-8.51722
▁experimental	-8.51786
▁individual	-8.52105
▁state	-8.52321
▁drugs	-8.52517
▁After	-8.52629
▁likely	-8.52673
▁expressed	-8.53123
▁No	-8.53409
▁HIV	-8.53719
▁immune	-8.53871
▁n	-8.53886
▁efficacy	-8.54168
▁where	-8.54273
▁underwent	-8.54609
▁paper	-8.54811
▁demonstrate	-8.55329
▁indicated	-8.55364
▁cardiac	-8.55367
▁assessment	-8.55485
▁administration	-8.55812
▁rat	-8.55857
▁applied	-8.55898
▁produced	-8.55908
▁evaluation	-8.5609
▁assay	-8.56108
▁X	-8.56205
t	-8.56216
▁At	-8.56401
▁content	-8.56459
▁five	-8.5653
▁cross	-8.56561
▁analyses	-8.56788
▁stage	-8.57033
▁Ca	-8.57099
▁relative	-8.57313
▁As	-8.57616
▁skin	-8.57624
▁field	-8.57697
+	-8.57746
▁participants	-8.57908
▁knowledge	-8.57993
▁recent	-8.58022
▁adult	-8.58051
▁might	-8.58076
▁disorders	-8.58361
▁failure	-8.58425
▁interaction	-8.58504
like	-8.58519
▁release	-8.58838
▁least	-8.58871
▁part	-8.58885
▁intervention	-8.58975
▁co	-8.59092
▁made	-8.59469
es	-8.59473
▁men	-8.595
▁correlated	-8.59505
▁processes	-8.59571
▁index	-8.59756
▁understanding	-8.59791
▁light	-8.59828
▁characterized	-8.59841
▁mRNA	-8.60047
▁social	-8.60077
▁techniques	-8.60145
▁procedure	-8.60172
▁cellular	-8.6055
▁end	-8.60931
er	-8.61
▁collected	-8.61105
▁average	-8.61111
▁volume	-8.61245
▁glucose	-8.6146
▁areas	-8.61497
▁RNA	-8.61526
▁g	-8.61538
▁energy	-8.61621
▁initial	-8.61731
▁proposed	-8.61769
▁would	-8.6177
▁diabetes	-8.61868
▁tissues	-8.62052
▁pathway	-8.62221
▁activities	-8.62322
7	-8.626
▁temperature	-8.62625
▁synthesis	-8.62957
▁regions	-8.63032
▁events	-8.63044
▁diagnostic	-8.63366
▁year	-8.63722
▁Furthermore	-8.63724
▁min	-8.63762
▁patterns	-8.6408
▁pattern	-8.64173
▁discussed	-8.64763
▁local	-8.65134
▁affected	-8.65481
▁given	-8.65606
▁good	-8.65627
▁useful	-8.65763
▁female	-8.65945
▁insulin	-8.66123
▁oral	-8.66236
▁strains	-8.66294
▁limited	-8.6643
▁practice	-8.66461
▁them	-8.6668
old	-8.66731
▁occurred	-8.6691
▁across	-8.66978
▁behavior	-8.66993
▁even	-8.67004
▁Patients	-8.67036
▁artery	-8.67253
▁key	-8.67469
▁measures	-8.67515
▁short	-8.67828
▁then	-8.67832
▁trials	-8.6829
▁degrees	-8.68374
▁combined	-8.68398
▁tests	-8.6844
▁receptors	-8.68472
▁regression	-8.68635
▁confirmed	-8.69119
▁stimulation	-8.69166
▁main	-8.69403
▁direct	-8.69432
▁interactions	-8.69467
▁compounds	-8.69759
▁score	-8.69763
▁m	-8.69885
▁provides	-8.69982
▁central	-8.70043
▁carcinoma	-8.70061
▁resulted	-8.70354
▁neurons	-8.70561
▁U	-8.70843
▁14	-8.70851
▁seen	-8.71202
type	-8.71235
▁suggested	-8.71491
▁right	-8.71548
▁adults	-8.71596
▁times	-8.71602
▁biological	-8.71728
▁experiments	-8.71826
▁18	-8.71955
▁history	-8.72437
(2)	-8.72862
▁16	-8.73134
▁previous	-8.73255
▁training	-8.73384
▁free	-8.73446
▁suggests	-8.73614
▁describe	-8.73656
▁11	-8.73752
▁vascular	-8.7386
▁antibodies	-8.73871
▁six	-8.74003
▁suggesting	-8.74027
▁culture	-8.74058
▁strategies	-8.74061
▁pulmonary	-8.7449
▁application	-8.74757
▁Thus	-8.75019
▁amino	-8.75081
▁complete	-8.75141
▁design	-8.75245
y	-8.75353
▁article	-8.7555
▁de	-8.75553
▁Two	-8.76121
▁containing	-8.76227
▁antibody	-8.76356
▁screening	-8.76376
▁especially	-8.76385
▁still	-8.76733
▁critical	-8.76741
▁pH	-8.76822
▁scores	-8.76881
▁established	-8.76947
▁structures	-8.76975
▁regulation	-8.77432
▁mutations	-8.77554
▁selected	-8.77657
▁mm	-8.77687
▁duration	-8.77746
▁measurements	-8.77832
▁length	-8.77884
beta	-8.779
▁baseline	-8.77938
▁density	-8.78055
▁do	-8.78314
▁proliferation	-8.78866
9	-8.78977
▁future	-8.79005
▁One	-8.79026
▁versus	-8.79084
▁essential	-8.79222
▁action	-8.79429
▁enhanced	-8.79732
▁agents	-8.80124
▁remains	-8.80132
▁increases	-8.80164
▁independent	-8.80254
▁thus	-8.80289
▁examination	-8.80377
v	-8.80662
▁play	-8.80719
▁according	-8.80936
▁basis	-8.81049
▁damage	-8.81075
▁functions	-8.81084
▁criteria	-8.81133
▁lead	-8.81162
▁disorder	-8.81177
▁secondary	-8.81178
▁rare	-8.81217
alpha	-8.81298
▁so	-8.81366
▁affect	-8.81392
▁components	-8.81409
▁signaling	-8.81573
▁provided	-8.81608
▁coronary	-8.81614
▁additional	-8.81646
▁Using	-8.81818
▁visual	-8.81959
▁reduce	-8.82058
▁5-	-8.82151
▁testing	-8.82306
▁inhibitor	-8.82465
▁inhibited	-8.82531
▁mouse	-8.8288
▁'	-8.82927
▁populations	-8.82965
▁postoperative	-8.8299
▁i	-8.83342
▁sub	-8.83524
▁side	-8.8355
8	-8.83671
▁improvement	-8.84018
cell	-8.84251
X	-8.84395
▁kinase	-8.8441
▁comparison	-8.84467
▁strain	-8.84684
▁approximately	-8.8476
▁micro	-8.85154
▁When	-8.85251
▁community	-8.85566
▁nerve	-8.85821
▁experience	-8.85901
▁50	-8.85971
OR	-8.85975
▁does	-8.86211
day	-8.8625
▁importance	-8.86326
▁diagnosed	-8.8651
▁food	-8.86581
▁signal	-8.86852
▁metabolic	-8.86984
▁sex	-8.8718
▁structural	-8.87256
▁examine	-8.87361
▁although	-8.87432
▁progression	-8.87525
▁resulting	-8.87845
▁condition	-8.88034
▁purpose	-8.88055
▁alone	-8.88116
▁molecules	-8.88305
▁infections	-8.88408
▁13	-8.88605
▁procedures	-8.88625
▁pathways	-8.8869
▁cost	-8.88979
▁series	-8.89047
▁Moreover	-8.89088
▁rapid	-8.89207
▁people	-8.89251
▁lines	-8.89302
▁differentiation	-8.89715
▁apoptosis	-8.89733
▁inflammatory	-8.90347
▁oxygen	-8.90366
▁injection	-8.90584
▁multi	-8.90713
▁transcription	-8.90722
1,	-8.90724
th	-8.90862
▁trial	-8.91199
▁defined	-8.91445
▁CT	-8.91523
▁achieved	-8.91528
▁solution	-8.91531
▁metabolism	-8.91591
mediated	-8.91651
▁safety	-8.91754
▁antigen	-8.91825
▁absence	-8.91992
▁set	-8.92036
▁develop	-8.92071
▁s	-8.92177
▁peripheral	-8.92523
▁problems	-8.92525
▁cognitive	-8.92687
▁include	-8.92714
▁x	-8.92775
▁Of	-8.92843
▁lipid	-8.92999
▁particularly	-8.93032
▁daily	-8.9312
▁d	-8.93193
▁variables	-8.93244
▁needed	-8.93339
▁cohort	-8.93455
▁delivery	-8.93576
▁hours	-8.93745
▁Both	-8.93768
▁capacity	-8.93808
▁regarding	-8.93897
▁aimed	-8.93906
▁depression	-8.93939
▁domain	-8.94088
▁poor	-8.94253
ation	-8.94255
▁older	-8.94338
▁particular	-8.94493
▁prior	-8.94556
▁Therefore	-8.94733
▁controlled	-8.94774
▁calcium	-8.94776
▁pregnancy	-8.94971
▁exercise	-8.94995
▁few	-8.95246
▁course	-8.95515
▁un	-8.95522
▁interval	-8.95524
▁degree	-8.95913
min	-8.96065
▁calculated	-8.96299
▁100	-8.96474
▁inhibitors	-8.96619
▁approaches	-8.9679
▁acids	-8.97084
▁carried	-8.97226
▁plant	-8.9745
▁products	-8.97463
▁median	-8.9753
▁adverse	-8.97546
▁compare	-8.97554
▁On	-8.97598
▁line	-8.97672
▁bacterial	-8.97687
▁markers	-8.97704
▁consistent	-8.97817
▁terms	-8.98181
▁chain	-8.98409
▁25	-8.98435
▁cycle	-8.98469
▁respiratory	-8.98633
▁host	-8.98678
▁open	-8.98681
▁40	-8.98849
▁therefore	-8.9899
▁medium	-8.99024
▁sequences	-8.99121
▁highest	-8.99121
▁derived	-8.99216
▁natural	-8.99333
▁kidney	-8.9937
MS	-8.99374
▁recovery	-8.99506
▁conventional	-8.99532
▁point	-8.99771
▁recorded	-8.9978
▁measure	-8.99804
▁variation	-8.99967
fold	-9.00383
▁chemical	-9.00405
▁uptake	-9.00496
free	-9.00504
▁chemotherapy	-9.00522
▁program	-9.00527
▁diet	-9.00695
f	-9.00699
▁elevated	-9.00945
▁cardiovascular	-9.01018
▁peptide	-9.01027
▁electron	-9.01073
▁underlying	-9.01143
▁fluid	-9.01385
▁young	-9.01596
▁statistically	-9.01609
-3	-9.01987
ml	-9.02164
▁environmental	-9.02321
x	-9.02505
▁whole	-9.02512
▁strong	-9.0252
▁doses	-9.02645
▁mutation	-9.02685
▁best	-9.02749
▁strategy	-9.02902
▁causes	-9.0299
▁environment	-9.03112
▁accuracy	-9.03146
▁Results	-9.03324
▁help	-9.03357
▁estimated	-9.0368
▁distinct	-9.03699
▁sensitive	-9.03831
▁severity	-9.03941
▁necessary	-9.0402
▁interventions	-9.04059
▁identification	-9.04207
▁relevant	-9.04383
▁component	-9.04478
▁relatively	-9.04867
▁induction	-9.04874
▁contribute	-9.04915
▁(1	-9.05155
us	-9.05214
▁lack	-9.05241
▁stable	-9.05283
▁objective	-9.05297
▁stem	-9.05337
▁occur	-9.05358
▁network	-9.05414
ity	-9.05418
▁simple	-9.05444
▁recently	-9.05474
▁reviewed	-9.05603
▁upon	-9.05682
▁much	-9.05856
▁appropriate	-9.05936
▁students	-9.05989
▁17	-9.05994
▁motor	-9.0611
▁ventricular	-9.06149
▁2-	-9.06234
▁transport	-9.06235
2)	-9.06315
▁frequently	-9.06431
▁specificity	-9.0667
▁onset	-9.06919
▁animal	-9.07013
▁authors	-9.07013
▁1,	-9.07279
▁administered	-9.07419
▁developing	-9.07493
▁Health	-9.07707
▁viral	-9.07728
▁randomized	-9.07735
▁able	-9.07792
2+	-9.08189
▁survey	-9.08197
▁60	-9.08223
▁monitoring	-9.08253
▁leading	-9.08275
2,	-9.0842
▁tool	-9.08519
▁alternative	-9.08569
▁t	-9.08599
▁nuclear	-9.08653
▁transfer	-9.08674
▁quantitative	-9.08705
▁education	-9.08765
▁amount	-9.08968
▁aged	-9.09038
▁images	-9.09046
▁extent	-9.09071
▁systemic	-9.09112
▁mainly	-9.09193
▁little	-9.09307
▁(95%	-9.09321
▁problem	-9.09333
▁learning	-9.09338
▁directly	-9.09398
II	-9.09488
▁having	-9.09502
▁hypertension	-9.09581
▁designed	-9.09801
W	-9.09813
▁radiation	-9.09952
ally	-9.10117
▁mental	-9.10197
▁stroke	-9.10219
▁indicating	-9.10314
positive	-9.10375
is	-9.10446
▁subsequent	-9.10555
▁public	-9.10719
▁selection	-9.10808
▁magnetic	-9.1085
▁along	-9.1094
associated	-9.10953
▁bacteria	-9.10986
▁treatments	-9.11057
▁inflammation	-9.11267
▁efficiency	-9.11283
▁together	-9.11382
▁laboratory	-9.11507
▁source	-9.11626
▁exhibited	-9.11829
▁repair	-9.11975
▁maximum	-9.12218
▁By	-9.12385
▁alcohol	-9.12563
▁sleep	-9.12577
▁material	-9.12612
▁prevention	-9.12754
▁poly	-9.12913
▁genome	-9.1293
▁J	-9.13104
▁During	-9.13119
▁e	-9.13216
▁With	-9.13386
▁inter	-9.13397
J	-9.13606
▁anterior	-9.13689
▁measurement	-9.13808
▁forms	-9.1384
▁dysfunction	-9.13904
▁females	-9.14134
▁position	-9.14267
▁wild	-9.1427
▁predicted	-9.14442
▁applications	-9.14566
▁appears	-9.14747
▁exposed	-9.14759
▁scale	-9.14839
▁since	-9.14977
▁shows	-9.15002
▁males	-9.1513
▁endothelial	-9.15165
▁microscopy	-9.1517
▁hyper	-9.15234
▁involvement	-9.15286
▁hand	-9.15317
▁class	-9.15418
▁Data	-9.15529
▁intra	-9.15583
▁hypothesis	-9.15717
▁21	-9.1586
▁confidence	-9.15955
▁stability	-9.16033
1)	-9.1611
▁unique	-9.16257
▁+	-9.16272
▁means	-9.16417
▁Among	-9.16623
▁double	-9.16844
▁gastric	-9.16885
▁attention	-9.16984
▁mutant	-9.17101
▁variety	-9.17403
▁linear	-9.17544
▁transplantation	-9.17596
▁must	-9.17661
▁moderate	-9.17804
▁unknown	-9.1808
▁countries	-9.18178
▁infants	-9.18195
▁advanced	-9.18335
CD	-9.18348
▁physiological	-9.18368
▁corresponding	-9.1846
▁cerebral	-9.18561
▁modified	-9.18679
▁real	-9.18794
▁intracellular	-9.18848
▁reports	-9.18899
▁toxicity	-9.19098
▁full	-9.19184
▁intake	-9.19238
▁hormone	-9.1925
▁processing	-9.19259
▁late	-9.19451
▁memory	-9.19515
▁later	-9.19555
▁3-	-9.19607
▁myocardial	-9.19611
▁secretion	-9.19639
on	-9.19711
▁published	-9.19754
▁matrix	-9.19907
▁services	-9.20049
▁commonly	-9.20466
▁focus	-9.20652
▁larger	-9.20667
▁epithelial	-9.20675
▁arterial	-9.2069
treated	-9.20896
▁composition	-9.20935
▁peak	-9.21083
▁isolates	-9.21096
▁19	-9.21223
=	-9.21253
▁generated	-9.21331
▁internal	-9.2135
▁recurrence	-9.21518
ization	-9.21559
▁accumulation	-9.21584
2-	-9.21715
▁head	-9.21889
▁half	-9.22166
▁III	-9.22189
CI	-9.22304
▁remained	-9.22306
1-	-9.22408
▁dependent	-9.22449
▁plants	-9.22546
one	-9.22747
▁stages	-9.22839
▁lesion	-9.22936
▁strongly	-9.22983
▁cm	-9.23039
10	-9.23367
▁fat	-9.23685
▁prospective	-9.23748
▁intensity	-9.23756
able	-9.23923
▁(1)	-9.2394
▁responsible	-9.24067
▁coli	-9.24135
▁resection	-9.24242
▁transmission	-9.243
▁majority	-9.24478
▁birth	-9.24514
▁infected	-9.2456
▁clinically	-9.24616
▁last	-9.24618
▁enzymes	-9.24628
▁investigation	-9.24671
▁spinal	-9.24794
▁led	-9.24839
▁malignant	-9.24984
CT	-9.25065
▁resonance	-9.25246
▁effectiveness	-9.25656
▁proportion	-9.2583
the	-9.25939
▁cortex	-9.26044
▁sodium	-9.26126
▁specimens	-9.26221
▁prognosis	-9.26313
time	-9.26478
▁reactions	-9.26487
▁image	-9.26519
▁reference	-9.26629
▁rather	-9.26767
▁yet	-9.26819
▁materials	-9.26866
▁hepatic	-9.26976
▁Three	-9.27078
range	-9.27107
▁fraction	-9.27118
▁activated	-9.27186
▁wide	-9.27242
▁become	-9.27259
▁produce	-9.27359
▁above	-9.27385
▁Further	-9.27461
▁removal	-9.27488
▁task	-9.276
▁potentially	-9.27689
▁retrospective	-9.27733
▁profile	-9.27833
▁mechanical	-9.27906
▁wall	-9.27933
▁optimal	-9.28035
▁percentage	-9.28058
▁They	-9.281
▁assays	-9.28158
▁While	-9.28167
▁prevent	-9.28205
re	-9.28228
▁longer	-9.28233
▁neural	-9.28236
▁strength	-9.28239
▁selective	-9.28246
▁dynamics	-9.28597
▁placebo	-9.28615
▁completed	-9.28836
▁induce	-9.2925
▁cholesterol	-9.29254
▁seven	-9.29254
▁taken	-9.29277
▁agent	-9.29383
mean	-9.29396
▁di	-9.29564
▁carbon	-9.29565
▁context	-9.29575
▁global	-9.29591
▁percent	-9.29658
▁widely	-9.29665
▁third	-9.29736
▁efficient	-9.29825
▁PCR	-9.2991
▁(3	-9.30101
▁consumption	-9.30172
▁mitochondrial	-9.30287
▁substrate	-9.304
▁morbidity	-9.30403
▁nature	-9.30531
▁biopsy	-9.30705
dimensional	-9.3075
▁questionnaire	-9.30907
▁interest	-9.30999
▁prostate	-9.31059
▁lymph	-9.31142
▁smoking	-9.31304
▁difficult	-9.31386
▁complexes	-9.31497
▁explore	-9.31526
▁successful	-9.316
▁undergoing	-9.31681
▁occurs	-9.31748
▁pro	-9.31896
▁power	-9.31973
▁urinary	-9.32156
▁involving	-9.32174
▁receiving	-9.32241
▁Finally	-9.32274
▁partial	-9.32307
▁relation	-9.32416
▁benefit	-9.32478
▁Most	-9.32555
53	-9.32911
▁unit	-9.3292
▁tomography	-9.32931
▁access	-9.3294
▁eight	-9.32946
-19	-9.33035
);	-9.33108
▁degradation	-9.33275
▁frequent	-9.33547
▁regulatory	-9.33561
of	-9.33615
▁detect	-9.33775
▁(2	-9.34064
▁spatial	-9.34151
▁week	-9.34226
▁inhibitory	-9.34263
▁mediated	-9.34331
▁operation	-9.34374
▁now	-9.34443
▁generation	-9.34545
▁gender	-9.34711
▁(2)	-9.34788
▁child	-9.34828
▁tract	-9.34898
▁expected	-9.34953
▁conclusion	-9.35124
▁upper	-9.35131
▁product	-9.35173
▁significance	-9.35176
▁metal	-9.35231
▁Group	-9.35263
▁old	-9.35297
▁lateral	-9.35348
▁cultures	-9.35378
▁manner	-9.35547
▁maternal	-9.35576
▁b	-9.35666
▁Despite	-9.35688
▁22	-9.35892
▁W	-9.36011
▁successfully	-9.36171
▁aspects	-9.36229
▁prepared	-9.3632
▁Na	-9.36371
▁located	-9.36499
▁r	-9.36533
▁predictive	-9.36609
▁prognostic	-9.36614
0	-9.36812
▁neuro	-9.36839
▁sexual	-9.36922
▁fluorescence	-9.37052
ers	-9.37084
▁28	-9.3714
▁discuss	-9.37172
▁here	-9.37176
▁decision	-9.37264
▁laser	-9.37341
▁abnormalities	-9.37457
▁promising	-9.37475
▁contact	-9.37498
▁MRI	-9.37608
▁predict	-9.37649
an	-9.37654
50	-9.37719
binding	-9.37747
▁fatty	-9.37793
▁oxidative	-9.3781
▁marker	-9.3784
▁relationships	-9.37873
▁cervical	-9.37877
U	-9.37913
▁bio	-9.37994
▁iron	-9.38042
▁members	-9.38221
▁certain	-9.38257
▁protocol	-9.38393
▁currently	-9.38401
▁pathogenesis	-9.38402
▁differential	-9.38434
▁way	-9.38505
▁temporal	-9.38703
▁extracellular	-9.38706
▁(5	-9.38727
derived	-9.38758
▁requires	-9.38885
▁roles	-9.38917
▁clear	-9.39023
▁phosphorylation	-9.3912
▁points	-9.39229
▁respect	-9.39244
▁liquid	-9.39299
▁needs	-9.39627
▁electro	-9.39779
▁statistical	-9.39813
▁transition	-9.3991
▁dynamic	-9.39935
ray	-9.39983
▁mild	-9.40001
▁humans	-9.40045
▁formed	-9.40136
▁remain	-9.40191
▁continuous	-9.40307
▁posterior	-9.4036
▁fetal	-9.40478
▁basal	-9.40491
▁intestinal	-9.4053
▁generally	-9.4054
▁abnormal	-9.4059
▁diabetic	-9.40627
▁phenotype	-9.40707
▁divided	-9.4075
▁anxiety	-9.41098
▁residues	-9.41192
▁challenge	-9.41223
▁conclude	-9.41259
▁external	-9.41351
▁reducing	-9.41507
▁medicine	-9.41604
▁understand	-9.41645
▁toward	-9.41651
▁variable	-9.41698
▁promoter	-9.41737
▁step	-9.41817
▁meta	-9.41842
▁consecutive	-9.41872
▁guidelines	-9.41891
▁altered	-9.41997
▁vaccine	-9.42011
▁mixed	-9.42018
▁leads	-9.42093
▁classification	-9.42212
▁elements	-9.42216
▁represent	-9.42235
▁PD	-9.42375
▁evolution	-9.4245
▁graft	-9.42492
▁layer	-9.42503
▁appear	-9.42541
▁0	-9.42565
▁living	-9.42577
▁past	-9.42602
▁around	-9.42628
di	-9.42644
▁staining	-9.42811
▁trans	-9.4288
▁usually	-9.42991
▁search	-9.43008
▁setting	-9.43095
▁migration	-9.4315
▁find	-9.43216
▁allows	-9.43233
▁neuronal	-9.43424
▁aortic	-9.43542
▁alterations	-9.43552
▁obesity	-9.43596
▁plays	-9.43891
▁targets	-9.43964
▁eye	-9.43982
▁force	-9.43988
▁throughout	-9.44099
▁trauma	-9.443
▁origin	-9.44315
▁miR	-9.4439
▁account	-9.44515
-6	-9.44537
▁accurate	-9.44674
▁35	-9.44818
▁costs	-9.44932
▁systematic	-9.44948
▁near	-9.44986
▁ion	-9.45121
yl	-9.45202
q	-9.45437
ness	-9.45451
▁rapidly	-9.45514
▁characteristic	-9.45515
▁theory	-9.45543
▁joint	-9.45584
▁programs	-9.45637
um	-9.45766
▁make	-9.45777
▁microM	-9.45801
▁48	-9.45821
▁associations	-9.4618
▁recognition	-9.46417
▁comparable	-9.46496
▁abdominal	-9.46622
12	-9.46675
▁affinity	-9.46701
▁differ	-9.46718
PCR	-9.46834
▁deficiency	-9.46875
▁ng	-9.46894
methyl	-9.47102
▁states	-9.47121
▁50%	-9.47172
▁core	-9.47236
▁technology	-9.47287
▁white	-9.47323
▁solid	-9.4735
▁soil	-9.47613
▁resolution	-9.47669
ate	-9.47694
▁air	-9.47773
▁constant	-9.47788
▁thyroid	-9.47921
▁impairment	-9.47978
▁safe	-9.48079
▁profiles	-9.48191
w	-9.48241
▁collagen	-9.48248
▁device	-9.48327
k	-9.48347
▁1-	-9.4843
▁tumour	-9.48434
▁pancreatic	-9.48442
HR	-9.48466
▁chromatography	-9.48499
▁implications	-9.48692
▁organic	-9.48699
▁dietary	-9.48746
▁estimate	-9.48795
▁employed	-9.48927
▁Based	-9.48971
▁23	-9.49056
HT	-9.49178
▁sequencing	-9.49235
▁invasive	-9.49325
▁signs	-9.49376
▁metastasis	-9.49493
▁chromosome	-9.49544
▁signals	-9.49553
▁space	-9.49564
▁experienced	-9.49622
▁occurrence	-9.49667
▁variability	-9.49773
▁domains	-9.49884
▁appeared	-9.49975
▁another	-9.50018
▁Since	-9.50087
▁grade	-9.50109
▁vitamin	-9.50198
▁recommended	-9.50253
sectional	-9.50343
terminal	-9.50375
▁impaired	-9.50419
▁pediatric	-9.50449
▁allow	-9.50494
▁success	-9.5057
▁families	-9.50588
▁sources	-9.5063
▁specifically	-9.50812
▁superior	-9.50864
▁linked	-9.50877
▁traditional	-9.50897
▁molecule	-9.50929
▁benefits	-9.51178
▁From	-9.5118
▁therapies	-9.51192
▁require	-9.51267
▁ultrasound	-9.51365
▁units	-9.51466
▁gamma	-9.5149
▁organ	-9.51555
▁basic	-9.51609
▁root	-9.51659
▁infusion	-9.51695
▁behavioral	-9.51753
▁peptides	-9.51765
▁despite	-9.51785
▁analysed	-9.51837
▁providing	-9.51845
▁cultured	-9.51947
▁elderly	-9.51986
▁eyes	-9.52034
▁location	-9.52139
▁almost	-9.52145
▁propose	-9.5234
▁yield	-9.5244
▁particles	-9.52599
▁recurrent	-9.52668
▁Twenty	-9.5267
▁cord	-9.52682
▁0.05).	-9.52736
▁channel	-9.5278
▁membranes	-9.52971
▁cortical	-9.52977
▁fully	-9.52979
▁cancers	-9.53096
▁purified	-9.53137
▁CO	-9.53395
▁final	-9.53403
▁asthma	-9.5343
▁finding	-9.53452
▁nucleus	-9.53479
▁media	-9.53485
▁completely	-9.53532
▁NO	-9.53555
▁injuries	-9.53754
▁biochemical	-9.53877
▁physicians	-9.54119
▁issues	-9.54203
▁ratios	-9.54333
▁fracture	-9.54353
▁defects	-9.54436
▁diameter	-9.54518
▁recombinant	-9.54669
▁gel	-9.54672
▁urine	-9.5477
▁motion	-9.54906
▁noted	-9.54911
▁enhance	-9.54914
▁heat	-9.54959
▁kg	-9.54993
at	-9.55045
▁absorption	-9.5507
▁base	-9.55085
en	-9.55273
▁potent	-9.55293
▁towards	-9.55409
▁gas	-9.555
▁indicates	-9.55568
▁Overall	-9.5557
line	-9.55571
▁implementation	-9.55688
▁until	-9.55776
ized	-9.55871
▁presentation	-9.559
▁home	-9.5602
▁fusion	-9.5615
▁26	-9.56287
▁Clinical	-9.56309
▁like	-9.56419
▁RT	-9.56433
▁plus	-9.56474
▁marrow	-9.56559
▁variants	-9.5663
▁dogs	-9.56638
▁movement	-9.56721
▁determination	-9.56731
▁tools	-9.57074
▁minutes	-9.57134
▁challenges	-9.57153
▁numbers	-9.57184
▁computed	-9.57185
▁unclear	-9.57216
▁45	-9.57251
▁experiment	-9.57291
▁morphology	-9.57352
▁stimuli	-9.57442
and	-9.57492
▁observations	-9.575
▁IgG	-9.57594
▁framework	-9.57664
▁diversity	-9.57702
▁probably	-9.57796
mg	-9.57821
▁close	-9.57872
▁compound	-9.57917
▁optical	-9.58016
SD	-9.58121
▁bleeding	-9.58149
▁ovarian	-9.58151
▁lymphocytes	-9.58257
month	-9.58311
▁nursing	-9.58336
▁algorithm	-9.58456
▁healthcare	-9.58556
▁distal	-9.58643
▁randomly	-9.58775
▁red	-9.58933
▁Because	-9.59106
▁analyze	-9.59154
▁32	-9.59232
▁marked	-9.59315
▁agreement	-9.59382
▁platelet	-9.59731
▁neck	-9.59745
▁susceptibility	-9.59751
▁extraction	-9.59796
▁IV	-9.59879
▁resistant	-9.59983
-4	-9.59993
▁preoperative	-9.60001
▁spectrum	-9.60001
▁great	-9.60009
▁January	-9.60039
▁dental	-9.60115
▁reconstruction	-9.60225
▁center	-9.60231
risk	-9.60286
▁hepatitis	-9.60333
negative	-9.60376
▁nm	-9.60411
▁Co	-9.60524
▁routine	-9.60596
▁donor	-9.60604
ion	-9.60712
▁adolescents	-9.60795
▁preparation	-9.60817
▁developmental	-9.6099
▁event	-9.61007
▁every	-9.61026
▁contained	-9.61088
▁communication	-9.61159
▁seems	-9.61295
▁whose	-9.613
▁complication	-9.61524
▁inhibit	-9.61831
3,	-9.61837
▁emergency	-9.61843
▁medication	-9.61896
▁(4	-9.61962
▁MS	-9.62003
▁mM	-9.62004
resistant	-9.62053
▁ligand	-9.62075
▁tolerance	-9.62113
▁far	-9.62207
▁suitable	-9.62265
et	-9.62268
▁excellent	-9.62337
▁bladder	-9.62428
▁oxide	-9.62465
▁possibility	-9.62606
▁database	-9.62757
▁achieve	-9.62766
▁COVID	-9.62899
▁pathological	-9.62914
▁extensive	-9.63028
▁US	-9.63078
▁down	-9.6313
▁genomic	-9.63146
11	-9.63153
▁nervous	-9.63162
▁middle	-9.63168
▁adhesion	-9.63188
▁apparent	-9.63315
co	-9.63337
▁ml	-9.63365
▁reliable	-9.63462
▁targeted	-9.63616
▁27	-9.63679
▁Hospital	-9.63686
▁psychological	-9.63775
▁4-	-9.63789
▁hospitals	-9.63808
▁ATP	-9.63821
IL	-9.6383
▁synthesized	-9.63979
▁address	-9.64019
▁prediction	-9.64077
▁situ	-9.64361
▁Recent	-9.64381
▁existing	-9.64391
▁protection	-9.64413
▁school	-9.64481
▁spectroscopy	-9.64529
(-1)	-9.64669
▁varied	-9.64696
▁nor	-9.64871
▁Several	-9.64897
▁United	-9.64912
▁showing	-9.65023
▁crucial	-9.65051
▁endogenous	-9.65116
▁what	-9.65164
▁curve	-9.65178
▁sp	-9.65231
▁nurses	-9.6528
3)	-9.65281
ated	-9.65392
▁illness	-9.65492
▁nano	-9.65583
▁photo	-9.65602
▁gain	-9.65603
▁stimulated	-9.65715
▁infarction	-9.65734
▁delayed	-9.65826
▁thickness	-9.65831
▁prolonged	-9.65919
▁primarily	-9.66024
▁ischemia	-9.66035
▁spontaneous	-9.66053
▁promote	-9.66141
▁polymerase	-9.66145
▁distance	-9.66168
▁36	-9.66185
▁enrolled	-9.6628
▁metastatic	-9.66305
▁choice	-9.66426
▁intact	-9.66433
▁working	-9.66502
▁observation	-9.66588
▁macrophages	-9.66598
▁venous	-9.66643
▁protective	-9.66667
14	-9.6672
▁done	-9.66734
▁(10	-9.66821
▁bilateral	-9.66854
▁comprehensive	-9.66879
mL	-9.66902
▁behaviors	-9.66907
▁fractures	-9.66964
▁growing	-9.67215
▁extract	-9.67221
▁intravenous	-9.67239
Ca	-9.67329
▁classified	-9.67347
▁maintenance	-9.67374
▁channels	-9.67577
▁(6	-9.67624
▁random	-9.67708
▁mode	-9.67715
▁diverse	-9.67744
▁localization	-9.67816
▁intermediate	-9.67845
▁records	-9.67977
▁smaller	-9.68029
▁National	-9.68054
RT	-9.68211
▁benign	-9.68339
▁his	-9.68372
▁block	-9.68385
▁serious	-9.68569
▁failed	-9.68705
▁proximal	-9.68712
▁nine	-9.68749
▁typical	-9.68795
mm	-9.68825
OH	-9.68968
▁recognized	-9.68979
st	-9.68982
▁view	-9.69139
-5	-9.69276
▁practices	-9.69315
▁synthetic	-9.69326
▁replication	-9.69508
▁devices	-9.69554
▁37	-9.69731
▁service	-9.6977
▁mutants	-9.69829
▁largely	-9.69884
▁Only	-9.69941
▁man	-9.70003
40	-9.70052
▁antibiotic	-9.70193
group	-9.70204
▁invasion	-9.70234
▁node	-9.70262
▁Chinese	-9.703
ine	-9.70404
▁extracted	-9.70413
▁improving	-9.70447
▁replacement	-9.7054
▁progressive	-9.7058
▁deep	-9.70609
▁below	-9.70729
▁repeated	-9.70911
▁added	-9.70937
▁comparing	-9.70952
▁sufficient	-9.70996
▁understood	-9.7102
▁targeting	-9.71029
ase	-9.71107
▁oxidation	-9.71108
▁concluded	-9.71166
▁establish	-9.71269
▁(8	-9.71299
▁parents	-9.71308
▁term	-9.71398
▁ischemic	-9.71439
▁American	-9.71671
▁focused	-9.71684
▁subject	-9.71714
▁knee	-9.71849
PD	-9.71851
▁exhibit	-9.71883
▁making	-9.71889
▁represents	-9.71938
▁goal	-9.71984
▁perceived	-9.71992
▁minimal	-9.72044
▁closely	-9.72218
▁shape	-9.7223
▁Treatment	-9.72243
▁retinal	-9.7227
▁others	-9.72335
▁wound	-9.72448
▁transient	-9.72452
▁describes	-9.72586
▁place	-9.72633
▁AT	-9.72802
▁maintained	-9.72855
▁influenced	-9.7287
▁explored	-9.73002
▁partially	-9.73004
▁pathology	-9.73267
▁substantial	-9.73354
▁networks	-9.73536
▁reveal	-9.73597
▁discharge	-9.73703
▁31	-9.73764
▁0.5	-9.73781
▁oil	-9.73804
▁ranged	-9.73845
▁periods	-9.7405
▁latter	-9.74081
▁obtain	-9.74093
▁milk	-9.74098
▁intervals	-9.7413
▁(3)	-9.74218
▁bound	-9.74258
▁rise	-9.74318
▁resources	-9.74404
▁initiation	-9.74575
▁treat	-9.74602
▁markedly	-9.74612
▁fast	-9.74632
▁CA	-9.74645
▁variations	-9.74727
▁independently	-9.74728
▁logistic	-9.74759
▁questions	-9.74869
id	-9.74967
▁Re	-9.75076
de	-9.75093
ol	-9.75096
▁nanoparticles	-9.75165
▁month	-9.75225
▁national	-9.75338
▁Western	-9.75397
▁soft	-9.75401
▁New	-9.75427
▁effectively	-9.75503
▁contribution	-9.75652
▁beneficial	-9.75663
▁amounts	-9.75698
▁2,	-9.75712
▁limit	-9.75753
▁microg	-9.75754
▁6-	-9.75822
▁facilitate	-9.7587
▁regional	-9.76045
▁solutions	-9.76047
▁Scale	-9.76055
▁reverse	-9.76059
gamma	-9.76071
▁workers	-9.76099
level	-9.76112
▁regulated	-9.76153
▁Additionally	-9.76213
▁balance	-9.76219
▁necrosis	-9.76262
▁Four	-9.76287
▁shift	-9.76347
▁vein	-9.76364
▁antigens	-9.76385
▁feeding	-9.76503
▁sampling	-9.76515
▁genotype	-9.76558
▁date	-9.76691
▁sensory	-9.76694
▁hundred	-9.76708
16	-9.76766
▁colon	-9.76784
▁consequences	-9.7683
▁%	-9.76845
▁neurological	-9.76945
▁died	-9.76985
▁AD	-9.77012
▁matter	-9.77211
gastrointestinal	-9.77288
▁example	-9.77363
▁hip	-9.77432
▁80	-9.77496
▁occurring	-9.77538
▁reactive	-9.77573
▁States	-9.77579
▁error	-9.77611
▁MR	-9.77643
(3)	-9.77645
▁extended	-9.77652
▁affecting	-9.77727
▁ethanol	-9.77855
▁earlier	-9.77867
▁allowed	-9.77892
▁validated	-9.77933
▁metabolites	-9.7802
▁29	-9.7802
▁slow	-9.78048
▁equal	-9.78084
▁positively	-9.78087
▁cannot	-9.78162
3-	-9.78179
▁behaviour	-9.78211
▁explain	-9.78271
▁radical	-9.78293
▁remaining	-9.78381
▁threshold	-9.78436
▁recommendations	-9.78492
▁identical	-9.78538
▁localized	-9.78637
ii	-9.78651
▁fibrosis	-9.78652
▁valve	-9.78672
ia	-9.78757
▁except	-9.78808
▁90	-9.78999
▁metastases	-9.79006
characterization	-9.79066
▁Some	-9.79136
▁neonatal	-9.79165
▁concept	-9.79207
▁admission	-9.7924
▁fed	-9.79348
▁poorly	-9.79364
▁f	-9.79425
▁vessels	-9.79508
▁introduced	-9.79584
▁estimates	-9.79608
▁conserved	-9.79613
dose	-9.79626
▁modification	-9.79795
▁back	-9.79872
▁newly	-9.79899
▁native	-9.79934
▁et	-9.79947
▁transcriptional	-9.79955
▁defect	-9.80034
▁predictors	-9.80088
▁hydrogen	-9.80263
▁satisfaction	-9.80269
▁parallel	-9.8028
▁intensive	-9.80365
▁burden	-9.80389
▁morphological	-9.80555
▁us	-9.80567
-10	-9.80593
▁persons	-9.80632
▁fish	-9.80709
▁enhancement	-9.80772
▁multivariate	-9.80781
▁clearly	-9.80812
▁magnitude	-9.80859
▁risks	-9.80949
▁Compared	-9.81031
▁adequate	-9.81053
▁consisted	-9.811
age	-9.8118
▁psychiatric	-9.81196
▁diffusion	-9.81265
▁presenting	-9.81265
▁velocity	-9.81269
▁aims	-9.81277
▁electronic	-9.8149
▁(7	-9.81523
▁whom	-9.81614
▁University	-9.81628
▁symptom	-9.81726
▁fibers	-9.81744
▁histological	-9.81854
▁presents	-9.81859
4,	-9.81937
▁skeletal	-9.81965
▁dominant	-9.82051
z	-9.82052
▁al	-9.82063
▁settings	-9.82137
CO	-9.82169
▁organs	-9.8217
▁childhood	-9.82268
57	-9.82347
-8	-9.82363
▁perform	-9.82376
▁Cu	-9.82429
ating	-9.82518
▁70	-9.82547
▁characterize	-9.82556
▁healing	-9.82585
▁contain	-9.82621
▁nucleotide	-9.82649
▁Fe	-9.82651
▁thought	-9.82684
▁encoding	-9.8271
▁confirm	-9.82911
▁act	-9.82935
u	-9.83001
18	-9.83036
▁antagonist	-9.83066
▁atrial	-9.83104
▁SD	-9.83185
▁affects	-9.83275
▁detailed	-9.83326
▁Mean	-9.83432
▁thermal	-9.83543
▁assigned	-9.83577
▁perfusion	-9.83577
▁contains	-9.83639
▁v	-9.83643
▁probe	-9.83653
▁world	-9.83701
▁viruses	-9.83709
SS	-9.83766
III	-9.83842
▁leukemia	-9.84023
▁measuring	-9.84036
▁suppression	-9.84104
▁HR	-9.84105
▁ions	-9.84138
▁decreases	-9.84221
DM	-9.84228
▁broad	-9.84276
▁muscles	-9.8435
▁load	-9.84367
▁colorectal	-9.84432
▁decline	-9.8458
containing	-9.84606
▁0.001).	-9.84611
▁face	-9.84681
▁nitrogen	-9.84731
▁monoclonal	-9.84741
▁stimulus	-9.84878
▁China	-9.84937
▁RA	-9.84977
▁maximal	-9.85019
▁33	-9.85088
IV	-9.8514
▁slightly	-9.85178
▁exchange	-9.85293
▁storage	-9.85328
▁injected	-9.85338
▁lymphoma	-9.85369
▁airway	-9.85402
▁10%	-9.85414
▁appearance	-9.8552
▁articles	-9.85523
▁residual	-9.85581
▁accompanied	-9.85704
▁organisms	-9.8572
▁reproductive	-9.85786
▁fiber	-9.85862
control	-9.85863
▁separation	-9.85909
▁radiotherapy	-9.85993
scale	-9.86055
▁200	-9.86296
▁34	-9.86346
▁phosphate	-9.86455
as	-9.8646
▁placed	-9.86557
▁planning	-9.86563
▁acquired	-9.86575
inflammatory	-9.86583
▁matched	-9.86647
▁serve	-9.86689
▁trend	-9.86723
▁Analysis	-9.86744
years	-9.86796
rs	-9.86823
▁theoretical	-9.86856
▁mono	-9.86897
▁congenital	-9.86966
▁subunit	-9.86969
▁antioxidant	-9.86975
▁spectra	-9.87056
19	-9.87103
▁capable	-9.87121
▁admitted	-9.87192
▁antibiotics	-9.87245
▁feature	-9.87277
week	-9.87287
▁arteries	-9.87323
analysis	-9.87357
▁HLA	-9.87381
▁vector	-9.87402
▁emotional	-9.87421
▁toxic	-9.87463
▁displayed	-9.875
▁pregnant	-9.87581
▁Many	-9.87705
▁0.05)	-9.87723
▁angle	-9.87783
ous	-9.87796
▁extracts	-9.87805
▁policy	-9.87824
▁validity	-9.87825
▁experiences	-9.8792
▁retrospectively	-9.87941
(+)	-9.87958
▁biomarkers	-9.87959
▁mammalian	-9.88002
phase	-9.88068
▁l	-9.88077
▁efforts	-9.88091
▁shock	-9.88111
infected	-9.88139
▁surfaces	-9.88216
▁controlling	-9.88331
▁Study	-9.88377
▁smooth	-9.88387
▁micrograms	-9.88409
sensitive	-9.88412
▁inclusion	-9.88478
amino	-9.88493
▁persistent	-9.88564
▁tuberculosis	-9.88638
▁sperm	-9.88648
▁sustained	-9.88662
▁microbial	-9.88799
▁background	-9.8882
▁longitudinal	-9.88842
▁clinic	-9.8887
▁output	-9.88937
▁irradiation	-9.88971
protein	-9.89028
▁progress	-9.89143
▁considerable	-9.89211
▁skills	-9.89216
▁scanning	-9.89225
▁transplant	-9.89276
▁numerous	-9.89322
▁deaths	-9.89322
▁chest	-9.8935
stage	-9.89375
▁implant	-9.89389
▁integrated	-9.8941
13	-9.89434
▁original	-9.89541
▁documented	-9.89596
▁polymorphism	-9.89602
▁stay	-9.89668
▁High	-9.89768
▁supported	-9.89797
▁allele	-9.89831
▁receive	-9.89841
▁fact	-9.89849
▁separate	-9.89852
▁odds	-9.89876
▁derivatives	-9.90015
▁substrates	-9.90023
linked	-9.901
▁demonstrates	-9.90268
▁conversion	-9.90356
▁yeast	-9.90397
▁clearance	-9.90552
NO	-9.90595
▁mothers	-9.90672
▁spectrometry	-9.90704
▁limitations	-9.90721
▁determining	-9.90757
▁economic	-9.90765
▁fixation	-9.90826
▁Medical	-9.90855
▁emission	-9.90891
EC	-9.90931
▁simultaneously	-9.90984
▁amplitude	-9.9102
▁correlations	-9.91136
▁includes	-9.91174
▁reliability	-9.91182
▁staff	-9.91203
un	-9.91319
▁methyl	-9.91371
▁peri	-9.91382
▁identifying	-9.91392
%	-9.91413
▁qualitative	-9.91435
▁kinetics	-9.91447
▁ten	-9.91451
▁dependence	-9.91509
▁hypo	-9.91584
▁investigations	-9.91638
▁cluster	-9.91665
▁aging	-9.9168
▁younger	-9.91715
38	-9.91716
▁special	-9.91721
▁limb	-9.91745
▁possibly	-9.91793
▁traits	-9.91829
▁saline	-9.91842
▁transformation	-9.91941
▁simulation	-9.91953
▁regulate	-9.92082
▁removed	-9.92263
▁More	-9.92304
▁bias	-9.9235
▁minor	-9.92436
▁variant	-9.92482
▁tyrosine	-9.92506
▁assessing	-9.92531
▁rehabilitation	-9.92536
hydroxy	-9.92546
▁implantation	-9.9255
▁explained	-9.92566
▁European	-9.92584
▁availability	-9.92607
▁functioning	-9.92671
▁ER	-9.92759
▁frequencies	-9.92761
▁cytokines	-9.92774
▁coupled	-9.92782
▁coefficient	-9.92874
regulated	-9.92938
▁probability	-9.92974
▁induces	-9.93015
▁Thirty	-9.93208
▁fixed	-9.93273
▁count	-9.9332
▁Participants	-9.93432
▁segment	-9.93528
▁infectious	-9.9354
ta	-9.9358
▁December	-9.9359
20	-9.93596
im	-9.93616
(2+)	-9.93755
▁reached	-9.93894
▁advances	-9.9393
▁42	-9.93958
-7	-9.93974
▁dual	-9.94001
▁ranging	-9.9402
▁nasal	-9.94053
RA	-9.94057
▁melanoma	-9.94175
▁modulation	-9.94297
▁treating	-9.9441
▁extra	-9.94417
▁users	-9.94435
▁cent	-9.94535
▁thereby	-9.94647
▁advantages	-9.94699
▁consider	-9.94722
▁delay	-9.94869
▁TNF	-9.94876
4)	-9.95053
▁height	-9.95058
▁gland	-9.95135
▁fragment	-9.95137
▁generate	-9.95174
▁immediately	-9.95179
▁0.1	-9.9521
▁semi	-9.95225
▁constructed	-9.95227
▁OR	-9.95351
▁increasingly	-9.95371
▁vaccination	-9.95476
▁incubation	-9.95712
▁exist	-9.95728
▁subsequently	-9.95749
pro	-9.95773
▁woman	-9.95817
▁tasks	-9.95819
▁substance	-9.96003
▁IFN	-9.96023
▁modeling	-9.96061
▁involves	-9.96122
CA	-9.96132
▁hearing	-9.9618
▁suppressed	-9.96217
▁recruited	-9.96269
▁38	-9.96315
▁mid	-9.96387
▁changed	-9.96393
▁implicated	-9.96399
▁issue	-9.96415
▁computer	-9.96422
▁UV	-9.96569
▁Escherichia	-9.96576
▁retention	-9.96596
▁salt	-9.96632
▁subjected	-9.96703
-9	-9.96785
▁pharmacological	-9.9679
▁spread	-9.96897
▁soluble	-9.96901
▁concerning	-9.96992
ST	-9.96994
▁steps	-9.96996
▁65	-9.97015
ment	-9.97038
▁worldwide	-9.97054
▁phenomenon	-9.97063
▁dopamine	-9.97063
▁catheter	-9.97069
▁entire	-9.9708
▁nodes	-9.97335
▁suspected	-9.97339
▁PI	-9.97422
▁regard	-9.97454
▁methylation	-9.97487
▁stenosis	-9.97593
▁symptomatic	-9.97627
▁proved	-9.97701
▁bi	-9.97768
▁carotid	-9.97789
▁reflect	-9.97815
▁adherence	-9.97851
▁element	-9.97906
no	-9.97923
▁interviews	-9.97966
▁noise	-9.97989
▁isolation	-9.97996
▁language	-9.98015
▁collection	-9.98038
state	-9.98057
▁dementia	-9.98107
▁reporting	-9.98155
AP	-9.98265
▁ST	-9.98276
▁tri	-9.98309
▁bovine	-9.98345
PA	-9.98346
▁direction	-9.98391
▁barrier	-9.98404
▁0.01)	-9.98446
▁utilization	-9.98502
▁speed	-9.98554
▁practical	-9.98559
▁personal	-9.98605
▁arthritis	-9.98624
▁correct	-9.98721
▁lowest	-9.98771
▁organization	-9.98793
▁sections	-9.98855
15	-9.98877
▁scientific	-9.98901
▁perception	-9.98926
▁actin	-9.99027
▁72	-9.99037
▁distributed	-9.99086
▁1)	-9.99106
▁cDNA	-9.99268
▁mature	-9.99277
▁pairs	-9.99306
▁schizophrenia	-9.99428
27	-9.99473
am	-9.99487
▁electrical	-9.99544
▁catalytic	-9.99545
▁taking	-9.99568
▁communities	-9.99582
▁hybridization	-9.99586
▁initially	-9.99652
▁heterogeneity	-9.99835
▁circulating	-9.99857
▁ED	-9.99861
▁own	-9.99871
▁rest	-9.99929
▁depending	-10.0013
▁polymer	-10.0014
▁LC	-10.0016
▁epithelium	-10.0032
▁aqueous	-10.0034
▁BMI	-10.0035
30	-10.0037
17	-10.0038
▁cytokine	-10.0063
▁depends	-10.0066
▁centers	-10.0067
▁simulations	-10.0071
▁define	-10.0074
▁bowel	-10.0077
▁physician	-10.0077
▁databases	-10.0081
▁2.5	-10.0081
▁tube	-10.0081
▁disability	-10.0092
▁fragments	-10.0093
▁candidate	-10.0097
▁referred	-10.0097
▁fields	-10.0104
▁varying	-10.0104
▁20%	-10.0115
▁femoral	-10.0123
▁valuable	-10.0123
▁evaluating	-10.0139
▁Such	-10.0143
▁software	-10.0152
▁consisting	-10.0153
▁question	-10.0174
▁maintain	-10.0178
▁pathogens	-10.0179
▁take	-10.0185
▁composed	-10.0185
▁adjusted	-10.0186
70	-10.0194
▁highlight	-10.0199
▁minimum	-10.0202
▁pulse	-10.0204
▁hospitalization	-10.0209
▁Five	-10.0211
▁options	-10.0214
▁sets	-10.0218
▁PC	-10.0219
▁anesthesia	-10.0222
21	-10.0222
▁variance	-10.0224
▁medial	-10.0226
▁give	-10.0227
▁fractions	-10.023
▁shorter	-10.0234
▁murine	-10.0243
▁monitored	-10.0247
▁errors	-10.0248
RS	-10.0249
▁scan	-10.0252
▁band	-10.0252
▁segments	-10.0255
▁fluorescent	-10.0265
▁endoscopic	-10.0267
▁insights	-10.0271
▁(9	-10.0277
▁wave	-10.0278
▁occlusion	-10.0282
▁though	-10.0289
▁urban	-10.0295
▁100%	-10.0297
▁cycles	-10.0297
▁feedback	-10.0298
▁rural	-10.0316
▁Studies	-10.0323
▁arm	-10.0323
▁surveillance	-10.0325
▁utilized	-10.0328
▁heavy	-10.0336
▁albumin	-10.0339
▁actions	-10.0341
▁adaptation	-10.0344
▁demographic	-10.0357
▁robust	-10.0366
▁mixture	-10.0366
▁interface	-10.0375
▁gradient	-10.0377
▁challenging	-10.0378
▁antimicrobial	-10.0382
▁categories	-10.0386
▁crystal	-10.0389
▁alter	-10.0391
▁depressive	-10.0393
▁BP	-10.0398
▁equivalent	-10.0404
▁If	-10.0405
IC	-10.0408
▁predominantly	-10.0409
▁influenza	-10.0414
▁biology	-10.0417
▁fibroblasts	-10.0417
CH	-10.0421
▁negatively	-10.0421
▁barriers	-10.0423
▁offer	-10.043
▁immediate	-10.0431
▁extremely	-10.0442
▁African	-10.0449
▁tumours	-10.0449
▁professional	-10.045
▁Each	-10.0455
▁released	-10.0455
▁1.5	-10.0463
▁Hg	-10.0464
▁adjacent	-10.0466
BP	-10.0475
▁viability	-10.048
▁became	-10.0483
activated	-10.0492
▁coupling	-10.0497
▁phases	-10.0501
25	-10.0504
▁utility	-10.0514
▁emerging	-10.0515
▁mucosa	-10.0528
▁ex	-10.0531
▁prevented	-10.0532
OL	-10.0551
RR	-10.0555
▁once	-10.0556
▁HPV	-10.0572
▁professionals	-10.0573
▁mostly	-10.0574
▁always	-10.058
▁zone	-10.0581
▁expansion	-10.0585
▁deletion	-10.0587
▁hybrid	-10.0591
▁TB	-10.0599
▁immunity	-10.0608
▁bind	-10.0611
▁laparoscopic	-10.0613
▁operative	-10.0617
▁reasons	-10.0621
▁particle	-10.0622
▁easily	-10.0622
two	-10.0624
▁adsorption	-10.0636
▁residents	-10.064
▁attributed	-10.0645
less	-10.0647
▁HCC	-10.065
IR	-10.0651
▁operating	-10.0651
▁axis	-10.0655
▁facial	-10.0659
▁composite	-10.0663
▁blot	-10.0664
▁75	-10.0673
▁complement	-10.0674
▁parameter	-10.0681
▁episodes	-10.0687
▁ring	-10.069
cm	-10.0698
▁met	-10.0711
▁regimen	-10.0722
▁clusters	-10.0724
▁Previous	-10.0725
▁standardized	-10.0728
▁methodology	-10.0733
▁fever	-10.0733
▁polymorphisms	-10.0734
▁obese	-10.0739
▁recipients	-10.0741
▁embryos	-10.0745
Cl	-10.0748
▁causing	-10.0748
▁putative	-10.0754
▁bile	-10.0757
▁her	-10.0764
▁bypass	-10.0785
▁insight	-10.0786
▁integration	-10.0794
▁untreated	-10.08
▁mellitus	-10.0801
▁implemented	-10.0804
▁recovered	-10.0804
ER	-10.0806
▁clinicians	-10.0807
▁donors	-10.0808
▁dorsal	-10.081
▁charge	-10.0813
▁250	-10.0816
ar	-10.0817
▁HCV	-10.0818
▁ventilation	-10.0827
▁synaptic	-10.0834
▁agonist	-10.0839
▁insertion	-10.0839
▁temperatures	-10.0844
▁blocked	-10.0844
▁greatly	-10.0848
▁depth	-10.0849
▁Research	-10.0854
▁improvements	-10.0856
man	-10.0868
▁placement	-10.0872
▁39	-10.0873
▁feasibility	-10.0876
▁obstruction	-10.0877
▁systolic	-10.0878
ive	-10.0879
▁2)	-10.0882
▁loading	-10.089
▁nuclei	-10.0895
ant	-10.0898
▁reduces	-10.0899
],	-10.0901
▁cytotoxic	-10.0907
▁excretion	-10.0915
▁live	-10.0924
▁overexpression	-10.0939
▁commercial	-10.0941
▁sought	-10.0967
▁color	-10.0975
▁hypothesized	-10.0982
rich	-10.0987
ur	-10.0987
▁volunteers	-10.0988
▁cartilage	-10.0993
ac	-10.1001
▁embryonic	-10.1004
▁arrest	-10.1004
100	-10.1005
▁epilepsy	-10.1013
▁distress	-10.1015
AD	-10.1033
▁typically	-10.1041
▁regulating	-10.1052
▁55	-10.1056
▁GH	-10.106
▁continued	-10.1065
▁infant	-10.1066
▁expressing	-10.1066
▁asymptomatic	-10.1074
▁providers	-10.1085
▁nearly	-10.1086
90	-10.1088
▁predicting	-10.1091
▁Recently	-10.1092
▁cavity	-10.1095
▁requiring	-10.1098
(1)	-10.1101
▁pharmacokinetic	-10.1101
▁abuse	-10.1102
▁deficits	-10.1105
il	-10.1106
US	-10.111
▁extension	-10.1111
▁requirements	-10.1114
▁restriction	-10.1115
▁introduction	-10.1116
▁angiography	-10.1117
▁ligands	-10.1126
▁already	-10.1129
OS	-10.1136
IP	-10.114
▁He	-10.1143
▁detectable	-10.1146
▁autoimmune	-10.1147
▁simultaneous	-10.1154
▁mitochondria	-10.1154
▁IGF	-10.116
▁zinc	-10.116
▁educational	-10.1168
▁protocols	-10.1172
▁lacking	-10.1173
▁excess	-10.1175
▁spine	-10.118
▁pigs	-10.1182
▁acquisition	-10.1184
▁fundamental	-10.1185
▁hypoxia	-10.1192
▁input	-10.1209
▁deposition	-10.1218
▁called	-10.1231
-2-	-10.1232
▁maturation	-10.1235
▁items	-10.1239
▁nutritional	-10.1244
▁GC	-10.1245
4-	-10.1246
▁cytoplasmic	-10.1247
▁k	-10.1248
▁curves	-10.1254
▁trends	-10.1256
▁10-	-10.1258
▁locus	-10.1262
▁para	-10.127
▁indices	-10.1272
2/	-10.1273
▁bond	-10.1274
ism	-10.1276
ability	-10.1282
▁Human	-10.1283
-1)	-10.1283
▁twice	-10.129
▁indicators	-10.131
▁adaptive	-10.1311
▁sulfate	-10.1322
▁dry	-10.1326
-1,	-10.1336
▁cleavage	-10.1337
▁undertaken	-10.1339
▁discovery	-10.134
▁medications	-10.1342
AS	-10.1347
▁restricted	-10.1357
▁reviews	-10.1371
▁limits	-10.1372
▁PET	-10.1397
▁indirect	-10.1398
ent	-10.1398
▁De	-10.1399
24	-10.1403
▁predictor	-10.1403
▁sera	-10.1412
▁avoid	-10.1413
▁hemorrhage	-10.1415
▁heterogeneous	-10.1423
ary	-10.1424
▁influences	-10.1431
▁he	-10.1431
▁existence	-10.1431
▁43	-10.1433
histochemistry	-10.1435
▁rabbit	-10.1441
▁participation	-10.1442
▁counts	-10.1447
▁NF	-10.1451
PI	-10.1457
▁translation	-10.1458
▁cyclic	-10.1465
▁advantage	-10.1465
▁sinus	-10.1466
▁pathogenic	-10.1467
▁regular	-10.1479
▁aggregation	-10.1482
▁manifestations	-10.1482
▁express	-10.1486
▁0.001)	-10.1489
HA	-10.149
▁teeth	-10.149
▁correction	-10.149
tri	-10.1496
▁next	-10.1496
▁fewer	-10.1502
▁gap	-10.1502
▁comparative	-10.1502
▁classes	-10.1505
reported	-10.1507
60	-10.1509
off	-10.1517
45	-10.1519
▁implants	-10.1521
▁separated	-10.1523
ex	-10.1525
▁attenuated	-10.1531
▁created	-10.1539
▁department	-10.1542
▁aggressive	-10.1557
▁yielded	-10.1559
▁technologies	-10.1561
▁90%	-10.1563
▁drinking	-10.1567
▁loci	-10.1567
▁consensus	-10.1574
▁spectral	-10.158
▁homeostasis	-10.1583
▁assembly	-10.159
▁pathogen	-10.1592
▁decreasing	-10.1596
▁perspective	-10.1599
▁prevalent	-10.1606
▁coverage	-10.1608
▁phenotypes	-10.1614
▁Also	-10.1619
physiological	-10.1621
▁terminal	-10.1628
▁abundance	-10.1629
▁seem	-10.163
▁surrounding	-10.1632
life	-10.1648
▁focal	-10.1649
▁awareness	-10.1653
▁room	-10.1654
▁adjuvant	-10.1655
▁reactivity	-10.1658
▁NMR	-10.1665
deficient	-10.1667
▁Cancer	-10.167
▁display	-10.1672
▁guide	-10.1673
▁pneumonia	-10.1675
▁estrogen	-10.1675
▁remission	-10.1676
▁estimation	-10.1677
▁interleukin	-10.1684
▁movements	-10.1686
▁South	-10.1687
▁regeneration	-10.1688
▁mL	-10.1688
▁relapse	-10.1689
▁synthase	-10.1692
▁environments	-10.1694
▁elevation	-10.1697
▁Six	-10.1699
▁44	-10.17
▁susceptible	-10.1701
▁PA	-10.1704
▁neutral	-10.1712
▁preparations	-10.1718
▁absolute	-10.1728
▁modifications	-10.1734
▁pretreatment	-10.1735
ED	-10.1736
▁adenocarcinoma	-10.1739
▁correlate	-10.174
ian	-10.1752
▁beyond	-10.1752
▁offers	-10.1763
DNA	-10.1766
▁evident	-10.1769
▁Serum	-10.1771
▁1.0	-10.1777
▁incorporation	-10.1781
▁etiology	-10.1785
▁Following	-10.1791
▁injections	-10.1792
-12	-10.1805
▁researchers	-10.1806
▁lipoprotein	-10.1814
▁differed	-10.1826
▁orientation	-10.1828
▁electrophoresis	-10.184
▁(20	-10.1843
▁46	-10.1854
▁toxin	-10.1854
▁true	-10.1855
▁complexity	-10.1858
▁concerns	-10.1864
▁mapping	-10.187
▁respond	-10.1871
▁concern	-10.1873
▁5%	-10.1874
▁cold	-10.1875
▁relaxation	-10.1877
▁radio	-10.1879
▁weak	-10.1886
▁layers	-10.1886
▁dehydrogenase	-10.1894
▁genotypes	-10.1898
▁differentiated	-10.1902
▁validation	-10.1904
▁parent	-10.1905
▁green	-10.1907
▁version	-10.1907
▁vessel	-10.1908
▁undergo	-10.1909
▁analytical	-10.191
▁Over	-10.1914
▁precursor	-10.1924
▁potentials	-10.1926
▁cytochrome	-10.1931
▁auditory	-10.1934
▁participated	-10.1937
▁precise	-10.1937
▁allowing	-10.1944
▁30%	-10.1947
▁80%	-10.1951
▁delta	-10.1952
treatment	-10.1953
▁intrinsic	-10.1959
▁LPS	-10.1969
▁fatigue	-10.1972
▁aureus	-10.1972
▁Non	-10.1977
▁vesicles	-10.1977
▁carcinomas	-10.1977
▁team	-10.198
grade	-10.1999
tic	-10.2001
+/-	-10.2003
▁examinations	-10.2009
▁decades	-10.2021
▁option	-10.2026
▁delivered	-10.2028
PE	-10.2034
▁thrombosis	-10.2039
▁itself	-10.2041
▁0.01).	-10.2042
▁Other	-10.2047
operative	-10.2047
28	-10.2059
▁coding	-10.2059
le	-10.2061
ial	-10.2065
▁mobility	-10.2073
▁spleen	-10.2077
▁3,	-10.2077
▁interpretation	-10.2077
histochemical	-10.2079
▁cutaneous	-10.2086
▁squamous	-10.2092
▁corneal	-10.2096
▁screened	-10.21
▁supporting	-10.21
▁41	-10.2104
▁repeat	-10.2109
▁tobacco	-10.2109
▁inner	-10.2109
all	-10.212
ectomy	-10.2132
▁Al	-10.2132
▁Forty	-10.2133
▁malignancy	-10.2134
▁thin	-10.2135
▁contributes	-10.2137
▁voltage	-10.2141
▁labeled	-10.2141
▁ELISA	-10.2142
▁gold	-10.2149
▁pelvic	-10.215
▁dialysis	-10.215
▁gut	-10.2151
▁online	-10.2151
▁substances	-10.216
▁inhibits	-10.2163
CSF	-10.2164
▁bodies	-10.2166
▁thoracic	-10.2174
▁supplementation	-10.2174
▁project	-10.2175
▁chloride	-10.2184
▁gave	-10.2191
PC	-10.2198
▁detecting	-10.2199
▁identity	-10.2208
▁parts	-10.2209
it	-10.221
▁technical	-10.2211
▁none	-10.222
▁120	-10.2224
DR	-10.2225
per	-10.2227
▁biopsies	-10.223
▁cytotoxicity	-10.2234
▁emerged	-10.2235
▁kDa	-10.2235
▁2000	-10.2235
▁lumbar	-10.2237
▁malaria	-10.224
▁Their	-10.2241
▁attitudes	-10.2243
▁Immuno	-10.2247
BL	-10.2249
▁visits	-10.2255
▁frontal	-10.226
me	-10.226
▁inferior	-10.2266
▁relevance	-10.2271
▁plasmid	-10.2275
▁substantially	-10.2278
▁NK	-10.2279
▁mucosal	-10.2279
▁Pro	-10.2292
▁HA	-10.2295
▁concomitant	-10.2296
▁anatomical	-10.2296
▁subset	-10.2301
▁excluded	-10.2309
four	-10.2339
ical	-10.2344
▁stent	-10.2345
▁pandemic	-10.2349
▁decisions	-10.2354
1/	-10.2372
itis	-10.2381
▁scales	-10.2384
stimulated	-10.2387
▁MMP	-10.2395
▁lost	-10.2398
▁evolutionary	-10.2398
▁consists	-10.2406
▁biosynthesis	-10.2407
▁rarely	-10.2412
▁ensure	-10.2412
▁LV	-10.2417
▁amplification	-10.2418
▁contents	-10.2426
▁situation	-10.2427
▁potassium	-10.2435
▁array	-10.2442
▁parental	-10.2446
▁gestation	-10.2452
▁preventing	-10.2458
▁glutathione	-10.2462
▁international	-10.2465
▁respondents	-10.2468
▁resource	-10.2468
▁similarity	-10.2469
ra	-10.247
▁diffuse	-10.2471
▁Pre	-10.2472
▁CP	-10.2482
▁simulated	-10.2484
▁embryo	-10.2485
▁permeability	-10.2486
▁feasible	-10.2495
▁pseudo	-10.2496
out	-10.25
▁dimensions	-10.2502
▁exists	-10.2503
▁LDL	-10.2506
▁seizures	-10.2511
▁transgenic	-10.2516
▁positions	-10.2517
▁adjustment	-10.2522
▁classical	-10.2523
MT	-10.2526
▁degeneration	-10.2534
▁grown	-10.2535
▁subjective	-10.2541
▁nitric	-10.2547
SE	-10.2547
▁turn	-10.2549
▁pituitary	-10.2551
▁rabbits	-10.256
▁contraction	-10.2571
▁circulation	-10.2573
▁ocular	-10.2574
▁neither	-10.2575
▁ways	-10.2575
▁compression	-10.2576
▁rs	-10.2579
▁Th	-10.2581
▁transcripts	-10.2589
▁spin	-10.2594
▁clones	-10.2598
lo	-10.2606
▁widespread	-10.2608
▁52	-10.2608
▁sepsis	-10.2613
for	-10.2613
▁Con	-10.2616
▁link	-10.2625
▁pure	-10.2628
ad	-10.263
5,	-10.2631
▁artificial	-10.2634
▁dissection	-10.2635
▁digital	-10.2636
▁enable	-10.2637
▁auto	-10.264
▁likelihood	-10.2644
▁flap	-10.2646
▁section	-10.265
ling	-10.2652
▁entry	-10.2652
▁difficulties	-10.2665
PS	-10.2671
▁ablation	-10.2673
▁complicated	-10.2679
con	-10.2682
▁speech	-10.2688
▁CS	-10.2692
▁observational	-10.2693
▁VEGF	-10.2701
▁dis	-10.2708
▁construct	-10.2714
▁Ni	-10.2724
▁EC	-10.2725
▁academic	-10.2729
▁calculations	-10.2738
▁directed	-10.2738
regulation	-10.2745
▁phosphatase	-10.2753
▁prospectively	-10.276
five	-10.2763
▁nutrition	-10.2766
▁subtypes	-10.278
care	-10.2788
▁combinations	-10.2798
▁monitor	-10.28
▁ongoing	-10.28
▁column	-10.2805
▁47	-10.2806
▁40%	-10.2813
▁film	-10.2813
▁interact	-10.2824
na	-10.2827
▁vaccines	-10.2828
▁epidemiological	-10.2839
▁SP	-10.2842
▁raised	-10.2845
▁reach	-10.2848
▁chains	-10.2851
▁determinants	-10.2852
▁attempt	-10.2859
▁subunits	-10.2861
▁supports	-10.2866
▁leaf	-10.2869
▁reversed	-10.2871
▁proven	-10.2871
▁proper	-10.2872
▁ET	-10.2874
4+	-10.288
▁glutamate	-10.2883
ter	-10.2886
▁12-	-10.2886
▁consistently	-10.289
▁mmol	-10.2894
▁representative	-10.2895
▁sensor	-10.2904
▁interference	-10.2905
▁kinetic	-10.2906
▁lipids	-10.2908
▁log	-10.2911
▁fungal	-10.2914
▁depletion	-10.2922
23	-10.2925
▁hair	-10.2925
▁accurately	-10.293
▁opioid	-10.2931
▁ages	-10.2933
▁LH	-10.2947
▁enzymatic	-10.2948
▁quantum	-10.2949
▁leaves	-10.2956
▁attachment	-10.2958
▁overcome	-10.2964
▁Under	-10.2967
▁indications	-10.2971
▁portion	-10.2976
▁Significant	-10.2978
▁duct	-10.2982
▁steroid	-10.2998
▁copper	-10.3
matched	-10.3
max	-10.3001
▁uterine	-10.3007
▁false	-10.3007
▁timing	-10.301
▁chromatin	-10.3014
izing	-10.3019
▁lymphocyte	-10.3023
▁residue	-10.3038
▁steady	-10.3039
ir	-10.3041
▁makes	-10.3045
CR	-10.3045
▁involve	-10.3045
▁addressed	-10.3046
AR	-10.3052
▁sizes	-10.306
▁adenosine	-10.3062
▁actual	-10.3062
▁aid	-10.3064
▁compliance	-10.3068
▁discrimination	-10.3073
▁maintaining	-10.3077
▁Interestingly	-10.308
▁Ag	-10.3083
▁AF	-10.3086
▁0.2	-10.309
te	-10.3091
▁elucidate	-10.3094
▁beginning	-10.3096
▁According	-10.3099
▁person	-10.3101
by	-10.3104
▁girls	-10.3108
ca	-10.3124
▁reading	-10.3127
▁alleles	-10.3128
test	-10.3128
▁Mg	-10.3133
▁questionnaires	-10.3135
▁evoked	-10.3136
▁starting	-10.3137
▁nM	-10.3141
▁CR	-10.3146
▁intraoperative	-10.3152
non	-10.3155
▁vary	-10.3165
▁overview	-10.3178
independent	-10.3182
▁teaching	-10.3184
▁unusual	-10.3188
▁annual	-10.3191
▁downstream	-10.3193
LC	-10.3193
▁producing	-10.3195
▁closure	-10.3196
▁heparin	-10.3198
▁diagnoses	-10.3206
▁OS	-10.3211
ene	-10.3212
▁quantify	-10.3215
▁initiated	-10.3225
▁computational	-10.3228
▁million	-10.3231
▁quantified	-10.3234
▁esophageal	-10.3236
▁fall	-10.3241
▁shared	-10.3244
▁cAMP	-10.3245
▁locations	-10.3246
▁deviation	-10.3248
▁cut	-10.3252
▁hr	-10.3253
▁platform	-10.3258
▁solvent	-10.3261
▁effort	-10.3271
▁adrenal	-10.3271
▁antagonists	-10.3273
▁pronounced	-10.3276
▁CSF	-10.3277
▁namely	-10.3277
▁favorable	-10.3282
▁grafts	-10.3284
▁fine	-10.3285
▁excision	-10.3285
▁consequence	-10.3286
▁Alzheimer	-10.3292
▁phenotypic	-10.3299
▁lip	-10.3302
▁regardless	-10.3303
▁percutaneous	-10.3307
▁preliminary	-10.3309
▁Japanese	-10.3309
oid	-10.331
▁outer	-10.3314
▁supply	-10.3322
▁instability	-10.333
▁56	-10.3331
▁Cl	-10.3331
▁plate	-10.3335
▁infiltration	-10.3337
▁outpatient	-10.3344
▁lactate	-10.3349
▁tertiary	-10.335
▁DM	-10.3352
▁start	-10.3357
▁absent	-10.3359
amine	-10.3362
▁Blood	-10.337
-3-	-10.3378
▁blue	-10.3378
▁500	-10.3384
▁recruitment	-10.3386
▁considering	-10.3387
▁aneurysm	-10.3389
▁hemoglobin	-10.3397
▁faster	-10.3407
▁June	-10.341
▁hippocampus	-10.3412
▁inactivation	-10.3424
▁greatest	-10.3427
▁testosterone	-10.3434
▁Ten	-10.3436
ve	-10.3436
ne	-10.3438
▁8-	-10.3438
▁scans	-10.3447
▁allergic	-10.3447
▁ear	-10.345
▁49	-10.3451
AC	-10.3454
▁member	-10.3455
▁outside	-10.3458
▁changing	-10.3462
▁lens	-10.3463
▁PM	-10.3465
▁occupational	-10.3472
three	-10.3473
▁0.05	-10.3474
▁51	-10.3475
SO	-10.3478
ised	-10.3481
▁AP	-10.3483
▁protease	-10.3485
▁efficiently	-10.3487
▁First	-10.3488
▁demonstrating	-10.3488
▁unchanged	-10.3498
▁representing	-10.3501
▁pylori	-10.3508
▁vital	-10.3508
34	-10.3509
▁Type	-10.3512
▁regimens	-10.3517
▁mmHg	-10.3517
NP	-10.3534
▁coefficients	-10.3534
▁unilateral	-10.3538
▁promoting	-10.3539
▁exogenous	-10.3543
▁parasite	-10.3556
▁Children	-10.3558
▁performing	-10.3559
▁searched	-10.3559
MI	-10.3561
▁rotation	-10.3568
PR	-10.3569
▁aorta	-10.3587
▁video	-10.3591
assisted	-10.3593
▁beam	-10.3594
▁foot	-10.3602
ist	-10.3603
median	-10.3604
▁edema	-10.3607
▁sessions	-10.3608
6,	-10.3611
▁uses	-10.3614
▁rejection	-10.3615
▁electrode	-10.3616
▁indicator	-10.3618
▁panel	-10.3624
▁hormones	-10.3631
▁acceptable	-10.3633
▁reveals	-10.3633
1),	-10.3634
▁preferred	-10.3637
▁summary	-10.3639
▁largest	-10.364
▁MI	-10.364
SR	-10.3641
CS	-10.3642
▁represented	-10.3643
▁March	-10.3644
▁apoptotic	-10.3646
▁participate	-10.3651
▁DC	-10.3654
▁Doppler	-10.3662
▁EEG	-10.3662
▁principles	-10.3667
NS	-10.3668
▁highlights	-10.3671
os	-10.3671
▁vision	-10.3672
▁suffering	-10.3679
ul	-10.3682
▁interferon	-10.3682
▁plan	-10.369
▁labeling	-10.3694
▁cyst	-10.3695
35	-10.37
adjusted	-10.3702
▁plaque	-10.3706
▁hydrolysis	-10.3706
▁150	-10.3706
▁DA	-10.371
▁resting	-10.3711
▁NP	-10.3712
▁translocation	-10.3716
▁instrument	-10.3716
▁differentially	-10.3721
▁improves	-10.3727
▁Index	-10.3727
▁country	-10.3729
▁consideration	-10.373
▁gestational	-10.373
▁map	-10.373
▁abundant	-10.374
SP	-10.375
▁powerful	-10.3752
▁peritoneal	-10.3754
▁surgeons	-10.3767
▁precision	-10.3771
▁off	-10.3774
▁films	-10.3779
▁Cd	-10.3781
▁mineral	-10.3786
▁screen	-10.3792
▁pilot	-10.3793
▁contamination	-10.3797
▁genus	-10.3799
44	-10.3799
▁modalities	-10.3812
ium	-10.3816
ide	-10.3824
▁dosage	-10.3824
▁assessments	-10.3824
(4)	-10.383
▁closed	-10.3837
osis	-10.3837
▁survivors	-10.3837
CoV	-10.384
▁subgroup	-10.3842
�=�	-10.3847
▁loop	-10.3849
▁yields	-10.3867
2).	-10.3868
▁probes	-10.387
▁International	-10.387
▁hypertensive	-10.3872
▁route	-10.3873
ted	-10.3875
est	-10.3879
▁Early	-10.3881
controlled	-10.3882
▁integrity	-10.3883
▁diets	-10.3884
▁caspase	-10.3888
2),	-10.3889
MD	-10.3889
▁300	-10.3891
▁diastolic	-10.3892
▁mother	-10.3897
▁oxidase	-10.3905
AT	-10.392
▁discovered	-10.392
wide	-10.3921
end	-10.3922
▁elimination	-10.3928
chain	-10.3932
▁hippocampal	-10.3934
▁creatinine	-10.3935
▁CH	-10.3938
▁cytometry	-10.3938
▁somatic	-10.3938
▁Cell	-10.3944
▁managed	-10.3948
▁forces	-10.3951
▁adolescent	-10.3953
▁principal	-10.3953
▁sclerosis	-10.3958
▁equilibrium	-10.3959
▁IC	-10.3959
▁atypical	-10.3961
▁smokers	-10.3965
▁correlates	-10.3976
▁onto	-10.398
isation	-10.3983
▁modulate	-10.4
▁capillary	-10.401
▁IR	-10.4011
▁experimentally	-10.4016
▁just	-10.4028
▁readily	-10.4039
▁54	-10.4043
▁60%	-10.4046
▁vaginal	-10.4053
▁volumes	-10.4054
▁disc	-10.4057
▁prominent	-10.406
▁tension	-10.4061
six	-10.4062
▁cumulative	-10.4062
▁responded	-10.4063
▁2.0	-10.4063
▁create	-10.407
▁hydrophobic	-10.4081
▁selectively	-10.4082
▁cortisol	-10.4088
▁HF	-10.4088
ro	-10.4089
CM	-10.4093
26	-10.4098
▁race	-10.4099
▁quantification	-10.41
▁super	-10.41
▁engineering	-10.4102
▁intracranial	-10.4104
▁systematically	-10.4109
▁atherosclerosis	-10.4116
▁carriers	-10.4121
▁reason	-10.4123
▁black	-10.4123
ative	-10.4129
▁situations	-10.4135
▁phylogenetic	-10.4141
65	-10.4142
▁0.02	-10.4146
▁operations	-10.4151
▁brief	-10.4152
7,	-10.4157
▁preterm	-10.4157
▁equation	-10.4167
▁microscopic	-10.4167
▁trained	-10.4172
▁binds	-10.4178
▁suicide	-10.4181
GC	-10.4181
(-)	-10.4186
▁fresh	-10.4186
▁comparisons	-10.4187
▁protect	-10.4187
▁selectivity	-10.4191
phenyl	-10.4193
▁SF	-10.4202
▁worse	-10.4214
▁MT	-10.4216
ance	-10.4222
▁cloned	-10.4223
MRI	-10.4225
response	-10.4227
▁rectal	-10.4234
▁modern	-10.4236
▁preference	-10.4237
▁description	-10.4238
ma	-10.4239
▁reversible	-10.4243
▁depend	-10.4247
ities	-10.4247
▁acetate	-10.4249
▁cirrhosis	-10.4254
▁discussion	-10.4259
▁vehicle	-10.4262
▁algorithms	-10.4265
▁climate	-10.4266
▁distributions	-10.4268
VI	-10.4271
▁motility	-10.4273
▁chromosomal	-10.4278
▁incorporated	-10.4279
▁metabolite	-10.4283
▁facilities	-10.4288
▁UK	-10.4292
▁postoperatively	-10.4293
▁Bio	-10.4298
DS	-10.4298
DA	-10.4305
▁genetically	-10.431
▁never	-10.4311
▁standards	-10.4313
▁70%	-10.4315
▁CNS	-10.4319
▁nurse	-10.4323
▁easy	-10.4328
▁leg	-10.4332
▁HD	-10.4334
▁proton	-10.4343
▁inhibiting	-10.4345
▁net	-10.4346
density	-10.4352
▁impacts	-10.4354
▁53	-10.436
▁colony	-10.4362
▁generalized	-10.4381
▁optic	-10.4381
▁traumatic	-10.4382
▁(19	-10.4385
▁elicited	-10.4385
▁studying	-10.4387
▁pathophysiology	-10.4389
22	-10.4398
▁Africa	-10.4398
▁comprised	-10.4401
▁25%	-10.4402
▁opportunities	-10.4407
▁Patient	-10.4407
▁Cox	-10.4408
▁TGF	-10.4411
▁detail	-10.4414
▁malignancies	-10.4417
▁ill	-10.442
▁contributed	-10.442
▁decade	-10.4437
▁object	-10.4439
▁considerably	-10.4439
▁started	-10.4446
▁disruption	-10.4457
▁accounted	-10.4459
<0.05).	-10.4468
▁Plasma	-10.4473
▁cystic	-10.4474
5)	-10.4476
ES	-10.4476
▁homologous	-10.4477
reactive	-10.4478
▁0.03	-10.4488
▁HBV	-10.449
▁portal	-10.449
labeled	-10.4494
▁guidance	-10.4497
▁pair	-10.4506
▁continue	-10.4512
▁chromosomes	-10.4515
▁subcutaneous	-10.452
▁ground	-10.4521
▁Given	-10.4525
▁anemia	-10.4529
HS	-10.4531
▁respective	-10.4532
ab	-10.4533
▁en	-10.4534
▁modes	-10.4536
▁eating	-10.4538
▁produces	-10.4539
phosphate	-10.454
▁tree	-10.4545
▁emphasis	-10.4546
▁0.3	-10.4548
▁substitution	-10.4554
▁differentiate	-10.4555
▁drainage	-10.4562
field	-10.4566
▁epidermal	-10.4572
▁critically	-10.4573
▁24-	-10.4575
▁linkage	-10.4576
▁follows	-10.4579
▁Multiple	-10.4579
▁focusing	-10.4581
▁stronger	-10.4581
▁mol	-10.4585
▁perceptions	-10.4587
▁optimized	-10.4589
▁AR	-10.4589
▁proportional	-10.4604
▁candidates	-10.4605
▁science	-10.4607
making	-10.462
MR	-10.4623
▁histologic	-10.4624
▁May	-10.4624
ton	-10.4626
▁Fifty	-10.4627
▁refractory	-10.463
▁pig	-10.463
▁enables	-10.463
▁exact	-10.4635
▁Primary	-10.4648
▁asked	-10.4651
SF	-10.4655
▁complementary	-10.4657
▁North	-10.466
▁subgroups	-10.466
▁definition	-10.4666
▁transduction	-10.4667
▁angiotensin	-10.4673
▁intestine	-10.4676
▁remodeling	-10.4681
bound	-10.4682
AF	-10.4683
▁difficulty	-10.4688
▁nutrient	-10.4689
▁FA	-10.469
▁regulates	-10.4691
▁transfusion	-10.4691
▁cytoplasm	-10.4692
▁contributing	-10.4695
▁psychosocial	-10.4696
▁organism	-10.4696
▁Gy	-10.4697
▁recombination	-10.4698
▁Assessment	-10.4701
▁viable	-10.4701
▁boys	-10.4702
▁record	-10.4707
▁predominant	-10.4707
▁ms	-10.471
-1-	-10.471
fluorescence	-10.4716
▁NS	-10.4727
▁spp	-10.473
▁industry	-10.4731
▁formulation	-10.4736
▁AA	-10.4744
mo	-10.4747
▁optimization	-10.4749
▁institution	-10.4751
▁platelets	-10.4755
▁subtype	-10.4765
ET	-10.477
▁Li	-10.4771
blind	-10.4789
ID	-10.4789
(1	-10.4789
▁Cr	-10.479
▁encountered	-10.4792
▁practitioners	-10.4795
transferase	-10.4796
over	-10.4801
DC	-10.4803
▁ROS	-10.4806
▁endo	-10.4808
▁sequential	-10.4809
▁Total	-10.4811
▁2010	-10.4811
▁regulator	-10.4814
▁return	-10.4815
TB	-10.4815
▁acts	-10.4818
▁carrier	-10.482
oL	-10.4821
▁400	-10.4821
▁Due	-10.4829
▁adipose	-10.4839
NH	-10.4844
▁secreted	-10.4844
▁stimulate	-10.4845
▁capture	-10.4849
▁accepted	-10.485
▁58	-10.4854
▁diminished	-10.4856
▁needle	-10.4871
mer	-10.4872
▁sheep	-10.4873
FA	-10.4875
▁Its	-10.4876
▁demand	-10.4878
▁inside	-10.4881
eight	-10.4886
▁germ	-10.4888
▁histopathologic	-10.4889
MC	-10.4898
▁angiogenesis	-10.4899
▁alveolar	-10.4903
months	-10.4916
▁alkaline	-10.4916
▁fasting	-10.4916
▁Taken	-10.4918
▁July	-10.4922
▁Japan	-10.493
being	-10.493
▁filtration	-10.4931
AG	-10.4934
CN	-10.4939
AL	-10.4942
▁postnatal	-10.4949
nine	-10.4951
▁incubated	-10.4962
▁permanent	-10.4968
6)	-10.4976
CP	-10.4979
▁vertical	-10.4981
MB	-10.4981
▁PE	-10.4981
▁mediate	-10.4985
▁visit	-10.4993
Fe	-10.5
▁histone	-10.5006
▁operated	-10.5009
▁iso	-10.5015
PT	-10.5015
▁dye	-10.5018
TA	-10.5019
▁offspring	-10.5021
▁endocrine	-10.5023
▁ones	-10.5026
CL	-10.5028
▁withdrawal	-10.5035
▁radiographic	-10.5038
▁clarify	-10.5039
▁biomarker	-10.5041
echocardiography	-10.5046
5-	-10.5046
▁Parkinson	-10.5049
ch	-10.505
▁programme	-10.5052
▁inducing	-10.5053
▁passive	-10.5053
▁glands	-10.5058
▁progesterone	-10.5064
▁tooth	-10.5066
eg	-10.5067
▁pathologic	-10.5068
▁assist	-10.5093
▁controversial	-10.5095
▁normally	-10.5099
47	-10.51
ABSTRACT	-10.5106
▁fit	-10.5108
▁dissociation	-10.5109
▁prescribed	-10.5111
▁April	-10.5112
CC	-10.5114
▁57	-10.5114
▁satisfactory	-10.5118
▁ecological	-10.5125
▁pregnancies	-10.5128
▁preventive	-10.5132
el	-10.5134
▁HDL	-10.5136
▁born	-10.5136
▁rice	-10.5141
▁immunoglobulin	-10.5141
ins	-10.5152
BA	-10.5154
▁biliary	-10.5158
450	-10.5158
▁EGFR	-10.5163
▁select	-10.5164
▁combining	-10.5164
▁pancreas	-10.5165
▁mobile	-10.5167
sis	-10.5167
point	-10.5174
▁Hz	-10.5176
▁reductions	-10.5177
▁activate	-10.5183
▁exhibits	-10.5183
▁walking	-10.5184
▁reperfusion	-10.5186
75	-10.5189
▁64	-10.5197
immunodeficiency	-10.5211
▁CC	-10.5227
▁seed	-10.5229
▁Nevertheless	-10.523
NA	-10.5237
▁atrophy	-10.5241
ce	-10.5242
▁virulence	-10.5244
▁Between	-10.5245
amide	-10.5247
genic	-10.5251
▁acuity	-10.5253
▁agonists	-10.5256
▁lobe	-10.5271
▁implanted	-10.5275
▁tendon	-10.5275
▁Herein	-10.5279
)]	-10.5283
▁ventral	-10.5292
▁Anti	-10.5293
▁1%	-10.5301
▁morphine	-10.5304
▁enhancing	-10.5305
▁CF	-10.5307
▁125	-10.531
▁biomass	-10.5311
▁promoted	-10.5316
▁instead	-10.5317
▁metals	-10.5322
▁3)	-10.5324
▁obstructive	-10.533
▁Department	-10.5332
▁abolished	-10.5333
▁hemodynamic	-10.5336
▁apical	-10.5338
▁activator	-10.534
▁automated	-10.5341
▁contralateral	-10.5344
▁PubMed	-10.535
8,	-10.5351
▁egg	-10.5353
▁opposite	-10.5356
▁macrophage	-10.5358
▁PR	-10.5364
▁examples	-10.5371
▁idiopathic	-10.5372
▁conformation	-10.5374
▁empirical	-10.5374
▁opportunity	-10.5384
▁distinguish	-10.5388
▁rupture	-10.5388
▁share	-10.5391
▁(4)	-10.5392
ry	-10.5392
▁mitral	-10.54
▁2006	-10.5401
LA	-10.5403
▁offered	-10.5408
-17	-10.5412
▁seizure	-10.5415
▁pump	-10.5417
▁WORDS	-10.542
▁premature	-10.5421
▁TRUNCATED	-10.5424
▁discusses	-10.5426
PP	-10.5432
▁excessive	-10.5433
▁con	-10.5447
▁ulcer	-10.5452
▁y	-10.5457
ae	-10.5457
art	-10.5466
▁30-	-10.5471
▁1000	-10.5471
▁promotes	-10.5473
▁redox	-10.5476
▁1.2	-10.5482
▁serotonin	-10.5483
▁surveys	-10.5484
▁exon	-10.5487
▁goals	-10.5488
▁59	-10.5488
io	-10.549
▁IgE	-10.549
▁phosphatidyl	-10.5492
▁larvae	-10.5492
▁uncommon	-10.5494
▁believed	-10.5496
▁driving	-10.5498
▁paradigm	-10.5499
▁registered	-10.5502
hospital	-10.5506
▁blocks	-10.5508
▁epigenetic	-10.551
rin	-10.5517
▁nerves	-10.5518
▁radiological	-10.552
▁driven	-10.5523
5%	-10.5523
▁neutrophils	-10.5524
▁feed	-10.5526
▁SR	-10.5527
PM	-10.5528
▁income	-10.5529
95%	-10.553
80	-10.5535
▁tended	-10.5537
▁PS	-10.5539
▁reductase	-10.5541
▁endometrial	-10.5542
▁roots	-10.5543
1/2	-10.5543
36	-10.5547
▁OA	-10.555
▁Within	-10.555
▁ideal	-10.555
▁ionic	-10.5552
order	-10.5553
▁sympathetic	-10.5554
ite	-10.5557
▁English	-10.556
67	-10.5562
▁GABA	-10.5576
▁2009	-10.5577
▁blockade	-10.5582
▁prenatal	-10.5584
ata	-10.5588
▁hepatocytes	-10.559
▁retained	-10.5593
resolution	-10.5595
▁modality	-10.5596
▁antiviral	-10.5596
▁surgeon	-10.5597
▁Di	-10.5599
▁junction	-10.5599
▁themselves	-10.5599
▁lifestyle	-10.56
▁policies	-10.5601
▁predictions	-10.5607
▁former	-10.5608
▁radial	-10.561
▁enriched	-10.562
▁shoulder	-10.5625
▁immunization	-10.5626
mol	-10.5631
▁applying	-10.5631
▁unaffected	-10.5634
pre	-10.5638
▁trait	-10.5639
▁socioeconomic	-10.5643
▁perioperative	-10.5643
▁undergone	-10.5644
▁visible	-10.5647
▁prophylaxis	-10.5649
step	-10.565
-18	-10.5651
▁conformational	-10.5651
▁isoforms	-10.5652
hour	-10.5654
▁autophagy	-10.5654
▁stomach	-10.5657
▁helpful	-10.5658
▁pressures	-10.5659
▁cocaine	-10.566
▁alteration	-10.5662
▁resolved	-10.5662
▁eligible	-10.5662
▁Current	-10.5664
▁bands	-10.5665
▁glass	-10.5668
▁isolate	-10.5672
▁coordination	-10.5673
aged	-10.5676
9,	-10.5683
j	-10.5683
Ds	-10.5684
▁recording	-10.5688
▁pg	-10.5689
ting	-10.5691
▁investigating	-10.5691
receptor	-10.5694
3%	-10.5696
▁unrelated	-10.5701
▁3.5	-10.5701
days	-10.5702
▁hazard	-10.5703
▁dendritic	-10.5707
▁exclusively	-10.5709
▁caregivers	-10.571
▁indication	-10.5714
▁carrying	-10.5715
▁valid	-10.5716
ies	-10.5718
▁gradually	-10.5723
▁concepts	-10.5724
▁signalling	-10.5729
As	-10.573
▁competitive	-10.573
▁text	-10.5732
▁ICU	-10.5732
▁fitness	-10.5738
▁apparently	-10.5738
▁tolerated	-10.574
▁canal	-10.5741
▁plasticity	-10.5742
▁scheme	-10.5753
▁disturbances	-10.5759
▁Seven	-10.5763
oma	-10.5764
▁see	-10.5772
▁severely	-10.5783
▁hospitalized	-10.5784
▁Disease	-10.5784
BC	-10.5793
▁Expression	-10.5793
▁neutrophil	-10.5795
▁Staphylococcus	-10.5797
▁category	-10.5799
▁stromal	-10.5806
▁2.3	-10.5808
▁cattle	-10.581
▁potency	-10.5812
▁concurrent	-10.5812
▁0.4	-10.5818
▁instruments	-10.5821
▁fibrillation	-10.5822
▁requirement	-10.5823
▁Low	-10.5827
odds	-10.5829
invasive	-10.5833
▁genomes	-10.5838
MA	-10.5841
▁68	-10.5842
▁Similar	-10.5843
▁examining	-10.5845
▁GM	-10.5848
▁lungs	-10.5849
▁Europe	-10.5852
4%	-10.5857
7)	-10.5859
LV	-10.586
ME	-10.5864
▁macro	-10.5865
▁referral	-10.5867
ci	-10.587
▁63	-10.5873
▁descriptive	-10.5876
95	-10.5876
water	-10.5877
▁foods	-10.5878
▁plane	-10.5884
▁carbohydrate	-10.5884
SI	-10.5884
▁cisplatin	-10.5885
▁(12	-10.5887
-15	-10.5895
▁superficial	-10.5898
▁hypertrophy	-10.5904
▁returned	-10.5904
▁nmol	-10.5905
▁AS	-10.5906
▁fatal	-10.5909
▁Women	-10.5909
-100	-10.5909
▁acidic	-10.5914
▁Chronic	-10.5915
Ps	-10.5916
▁hour	-10.5916
Me	-10.5918
▁sham	-10.5921
▁mood	-10.5921
▁interview	-10.5926
▁reflected	-10.5932
acetyl	-10.5932
▁neuron	-10.5934
▁stiffness	-10.594
▁statistics	-10.5944
▁responsiveness	-10.5944
▁extensively	-10.5948
▁shear	-10.5953
HD	-10.5954
▁topical	-10.5954
▁(<	-10.5956
▁superoxide	-10.5956
CF	-10.5959
▁insufficient	-10.5959
▁buffer	-10.5962
▁fruit	-10.5963
▁turnover	-10.5963
▁interstitial	-10.5964
���	-10.5964
▁NH	-10.5965
body	-10.5972
▁Center	-10.5972
ie	-10.5978
▁secretory	-10.598
▁reporter	-10.5983
▁validate	-10.5984
▁miRNAs	-10.599
▁sound	-10.599
son	-10.599
▁filter	-10.5991
▁deficit	-10.5996
▁transporter	-10.6001
▁swelling	-10.6003
side	-10.6011
▁Society	-10.6015
high	-10.6016
▁adapted	-10.6019
▁vectors	-10.6021
▁hematopoietic	-10.6026
▁architecture	-10.6028
PO	-10.6029
▁flexible	-10.6031
▁proliferative	-10.6034
▁Eight	-10.6036
GS	-10.6039
uestionnaire	-10.6044
▁personality	-10.6049
▁RNAs	-10.605
▁tetra	-10.6059
low	-10.6062
▁She	-10.6065
▁emergence	-10.6069
▁processed	-10.6075
▁0.01	-10.6076
▁guinea	-10.608
▁Drosophila	-10.6081
32	-10.6083
▁oocytes	-10.6084
from	-10.6087
1).	-10.6089
▁System	-10.609
▁partners	-10.6094
▁Care	-10.6103
▁possess	-10.6105
▁anatomy	-10.6107
▁Salmonella	-10.6107
site	-10.6114
▁depressed	-10.6115
SA	-10.6116
AA	-10.6119
▁derivative	-10.6119
▁0.04	-10.6125
▁endothelium	-10.6125
▁99	-10.6127
▁equally	-10.6127
NT	-10.6129
▁wheat	-10.6131
▁chamber	-10.6138
AI	-10.6139
6%	-10.6142
▁67	-10.6144
▁forming	-10.6145
▁plastic	-10.6147
▁attempts	-10.6151
▁DR	-10.6152
▁tendency	-10.6155
▁chosen	-10.6158
LS	-10.616
/6	-10.6168
▁syndromes	-10.6169
▁newborn	-10.617
▁kinases	-10.6171
▁glomerular	-10.6171
▁62	-10.6172
▁sense	-10.6175
▁headache	-10.6178
▁ankle	-10.6178
▁CRC	-10.618
▁September	-10.6181
▁bulk	-10.6185
▁1990	-10.6187
▁violence	-10.6191
▁library	-10.6192
anti	-10.6193
▁suppressor	-10.6194
do	-10.6194
▁cultural	-10.6195
▁numerical	-10.6201
▁Cochrane	-10.6202
▁scattering	-10.6202
▁hyperplasia	-10.6217
▁fear	-10.6219
▁SARS	-10.6228
▁sugar	-10.6229
▁95	-10.6229
▁becomes	-10.623
▁Association	-10.6232
▁retina	-10.6235
▁paired	-10.6239
frequency	-10.6245
ize	-10.6246
▁CB	-10.6246
01	-10.6247
▁15%	-10.625
▁pool	-10.6258
▁usefulness	-10.6258
▁stained	-10.6265
▁focuses	-10.6268
▁dramatically	-10.6268
▁manual	-10.6269
HIV	-10.627
▁displacement	-10.6272
▁schools	-10.6272
▁motif	-10.6273
▁rRNA	-10.6275
▁usage	-10.6275
▁SC	-10.6275
▁construction	-10.6277
se	-10.6279
▁96	-10.628
▁adopted	-10.6283
▁Acute	-10.6287
▁Sixty	-10.629
▁tail	-10.6294
▁SS	-10.6298
▁encoded	-10.6299
▁structured	-10.6305
▁rheumatoid	-10.6305
SC	-10.6306
▁slight	-10.6308
▁monocytes	-10.6312
▁Mn	-10.6314
▁SA	-10.6315
▁IgM	-10.6316
▁declined	-10.6317
▁October	-10.633
▁digestion	-10.6333
▁recommend	-10.6336
▁nodules	-10.634
▁cues	-10.6342
▁youth	-10.6343
▁contributions	-10.6345
▁financial	-10.6346
])	-10.6346
29	-10.6346
▁latency	-10.6357
▁industrial	-10.6357
▁fungi	-10.6361
6-	-10.6363
▁restored	-10.6368
EF	-10.6369
▁verified	-10.637
▁frame	-10.6372
▁took	-10.638
▁aspect	-10.6385
▁summarize	-10.6389
▁marine	-10.6391
▁bipolar	-10.6393
DE	-10.6405
BM	-10.6407
▁w	-10.6407
▁homology	-10.6408
▁mammary	-10.6409
▁Hence	-10.6412
bi	-10.6421
▁myeloid	-10.6421
▁gait	-10.6426
▁western	-10.6426
▁fistula	-10.6427
▁lineage	-10.6432
▁machine	-10.6435
▁immunological	-10.6435
▁patch	-10.6437
immunoreactivity	-10.6438
▁usual	-10.644
▁flux	-10.6444
▁Survey	-10.6444
▁Si	-10.6445
▁cysts	-10.6449
▁excitation	-10.645
CV	-10.6453
guided	-10.6455
▁cats	-10.6457
▁2017	-10.646
▁illustrate	-10.6462
▁ventricle	-10.648
▁effector	-10.6481
▁(15	-10.6481
▁sign	-10.6482
▁quite	-10.6484
MP	-10.6485
ty	-10.6488
▁lethal	-10.6492
ag	-10.6497
AB	-10.6498
▁neonates	-10.6498
▁sometimes	-10.6499
TG	-10.6504
▁axial	-10.6505
▁St	-10.6507
▁histology	-10.6509
▁innate	-10.651
▁birds	-10.6512
generation	-10.6519
▁author	-10.652
▁pollution	-10.6521
▁urea	-10.6522
▁MC	-10.6524
▁aerobic	-10.6526
▁TLR	-10.6533
▁width	-10.654
op	-10.656
HF	-10.6562
▁hormonal	-10.6562
▁again	-10.6564
▁Ad	-10.6566
▁acoustic	-10.6569
▁coagulation	-10.657
▁utilizing	-10.6572
▁glaucoma	-10.6575
▁weekly	-10.6577
▁hepatocellular	-10.658
▁None	-10.658
ap	-10.6582
▁India	-10.6585
▁static	-10.6586
▁preservation	-10.6586
▁Similarly	-10.6589
tr	-10.6592
▁Institute	-10.6595
▁inform	-10.6596
onset	-10.6596
▁IgA	-10.6598
▁nonlinear	-10.6599
▁conservative	-10.6599
▁locally	-10.6602
▁transcript	-10.6602
-4-	-10.6602
▁connectivity	-10.6602
NC	-10.6605
▁cessation	-10.6607
▁acetylcholine	-10.6608
▁overweight	-10.661
▁66	-10.6612
seven	-10.6612
▁private	-10.6616
56	-10.6621
▁Test	-10.6624
▁Se	-10.663
▁partly	-10.6631
▁transferred	-10.6634
▁influencing	-10.6634
▁applicable	-10.6643
▁examines	-10.6644
▁2008	-10.6647
▁acting	-10.6648
▁transfected	-10.6648
▁serine	-10.6651
In	-10.6655
▁prescription	-10.666
9)	-10.6664
▁microbiota	-10.6664
▁cows	-10.6672
▁2.4	-10.6673
▁2011	-10.6687
▁autologous	-10.6688
▁accelerated	-10.6691
rd	-10.6691
▁interesting	-10.6692
▁anomalies	-10.6697
▁rhythm	-10.67
▁75%	-10.6701
7%	-10.6702
▁3.0	-10.6711
▁university	-10.6713
▁enrichment	-10.6714
▁competition	-10.6716
▁assumed	-10.672
▁ligament	-10.6723
▁configuration	-10.6724
▁Methods	-10.6731
▁expanded	-10.6745
▁division	-10.6749
▁waste	-10.6749
defined	-10.6753
▁meet	-10.6756
▁conduction	-10.6757
▁details	-10.6757
3).	-10.6758
LT	-10.6762
▁Evidence	-10.6774
iv	-10.6775
▁2.2	-10.6781
weighted	-10.6784
▁5'-	-10.6789
▁o	-10.679
▁apply	-10.6791
HC	-10.6804
▁inadequate	-10.6804
▁2012	-10.6808
▁COPD	-10.6809
▁physiology	-10.6811
oc	-10.6815
▁chemistry	-10.6815
▁staging	-10.6816
▁forward	-10.682
▁aromatic	-10.682
dl	-10.6825
▁leptin	-10.6827
▁CL	-10.6829
▁conservation	-10.6832
▁Micro	-10.6832
▁partner	-10.6837
▁representation	-10.6838
▁comprising	-10.6838
FU	-10.6843
ans	-10.6843
▁clinics	-10.6845
▁recordings	-10.6848
▁approved	-10.6851
▁mo	-10.6859
CE	-10.6859
▁capability	-10.686
▁Gram	-10.6863
▁limiting	-10.6867
▁2005	-10.687
▁cohorts	-10.6871
▁shifts	-10.6873
▁polypeptide	-10.6876
▁2%	-10.6879
▁Australia	-10.688
▁peroxidase	-10.6883
▁distant	-10.6885
land	-10.6885
▁bearing	-10.6887
▁androgen	-10.6888
forming	-10.6889
▁aspiration	-10.6897
▁functionally	-10.6901
▁words	-10.6901
▁salivary	-10.6904
2%	-10.6906
▁opening	-10.6911
▁Un	-10.6912
▁histamine	-10.6912
▁glycoprotein	-10.6913
▁saturation	-10.6915
▁61	-10.6916
▁Control	-10.6916
▁adjusting	-10.6917
▁microscope	-10.6917
▁anticancer	-10.6917
▁0.8	-10.6923
▁2013	-10.6924
▁mammals	-10.6927
GM	-10.6929
▁fertility	-10.6932
▁specimen	-10.6932
▁incomplete	-10.6932
▁randomised	-10.6939
▁0.6	-10.6945
▁remarkable	-10.6947
▁season	-10.6956
<0.001).	-10.6958
▁1.1	-10.6968
▁covered	-10.6971
▁Increased	-10.6976
ill	-10.6979
(2	-10.6979
▁Changes	-10.6979
▁similarly	-10.6994
▁World	-10.6997
▁completion	-10.7002
Na	-10.7003
▁property	-10.7006
▁coping	-10.7011
▁Post	-10.7013
▁2007	-10.7014
▁separately	-10.7015
▁breathing	-10.7016
▁served	-10.7017
▁1999	-10.7019
EP	-10.7021
▁HPLC	-10.7025
▁85	-10.7031
driven	-10.7035
▁objectives	-10.7036
▁microorganisms	-10.7043
lin	-10.7044
▁achieving	-10.7048
▁pooled	-10.7048
▁list	-10.7054
▁transformed	-10.7057
cal	-10.7059
kappaB	-10.7071
▁eggs	-10.7077
▁sensing	-10.708
▁familial	-10.7084
▁palliative	-10.7084
IT	-10.7086
▁gives	-10.7096
▁TP	-10.7107
RNA	-10.7108
▁she	-10.7109
▁why	-10.711
active	-10.7114
▁vertebral	-10.7115
▁Future	-10.7117
▁electrodes	-10.7117
▁miRNA	-10.7118
▁cis	-10.712
▁periodontal	-10.7121
▁Long	-10.7124
ox	-10.7124
▁breeding	-10.7124
▁fashion	-10.7125
▁restoration	-10.7125
▁bp	-10.7127
▁upregulated	-10.713
▁calculate	-10.7131
▁user	-10.7142
▁ester	-10.7143
▁enhances	-10.7144
▁4,	-10.7144
▁compartment	-10.7146
▁AIDS	-10.7147
ang	-10.7154
▁Asian	-10.7155
▁relief	-10.7157
▁analyzing	-10.7158
TL	-10.7163
▁biofilm	-10.7165
▁olfactory	-10.7166
▁7-	-10.7166
▁recognize	-10.7168
with	-10.7171
▁becoming	-10.7179
BR	-10.7182
▁PP	-10.7183
▁AMP	-10.7184
86	-10.7188
▁causal	-10.7189
▁mixtures	-10.719
▁porcine	-10.7194
▁antitumor	-10.7197
dis	-10.7199
▁SE	-10.7203
▁equipment	-10.7205
▁observe	-10.7207
▁stored	-10.7211
▁exposures	-10.7214
▁2002	-10.7215
▁2014	-10.7216
▁Age	-10.722
▁balloon	-10.7223
▁MHC	-10.7225
▁mesenchymal	-10.7225
▁fourth	-10.7229
▁epidemic	-10.7233
▁circadian	-10.7233
▁maps	-10.7243
Co	-10.7243
▁enough	-10.7252
▁ECG	-10.7252
▁institutions	-10.7258
▁SH	-10.7259
-13	-10.7262
▁rich	-10.7266
MV	-10.7267
▁Neuro	-10.7271
▁naturally	-10.7271
DI	-10.7272
▁atomic	-10.7276
IM	-10.7276
▁promotion	-10.7276
▁modulated	-10.7278
▁ultimately	-10.7279
▁Ki	-10.728
▁parasites	-10.7282
▁defense	-10.7285
ring	-10.7285
▁constants	-10.7286
▁transmembrane	-10.7291
▁mononuclear	-10.73
AM	-10.73
▁1998	-10.731
TC	-10.731
▁continuously	-10.7312
▁Pseudomonas	-10.7314
▁arise	-10.7316
▁elucidated	-10.7317
▁2015	-10.7318
▁Pb	-10.7322
▁socio	-10.7326
▁preserved	-10.7329
▁inverse	-10.7331
▁reflux	-10.7334
effective	-10.7336
▁meal	-10.7337
▁minimally	-10.7339
▁believe	-10.7341
▁circular	-10.7346
▁mRNAs	-10.7347
▁Medicine	-10.7348
▁elective	-10.7351
▁arising	-10.7351
▁nicotine	-10.7352
85	-10.7352
▁deficient	-10.7358
▁revision	-10.7359
▁mis	-10.7359
▁Subjects	-10.736
kDa	-10.7364
▁PKC	-10.7368
▁evolved	-10.7368
▁Surgical	-10.737
▁RV	-10.737
▁pharmaceutical	-10.7372
▁tubular	-10.7374
▁protected	-10.7375
▁aeruginosa	-10.7376
▁dark	-10.7384
▁uncertainty	-10.7389
63	-10.7391
▁MD	-10.7391
▁diarrhea	-10.7392
uality	-10.7395
▁incident	-10.7397
▁IP	-10.7397
▁informed	-10.7398
▁weights	-10.7402
▁upstream	-10.7403
43	-10.7405
▁(30	-10.7408
▁precursors	-10.741
EM	-10.7415
▁anaerobic	-10.742
▁lifetime	-10.742
▁introduce	-10.7423
▁anatomic	-10.7423
33	-10.7424
ose	-10.7429
▁kidneys	-10.7431
▁cysteine	-10.7431
▁dysplasia	-10.7437
▁diffraction	-10.7437
1%	-10.7438
▁CV	-10.7439
87	-10.744
▁optimum	-10.7442
trans	-10.7443
PG	-10.7444
▁neurologic	-10.7445
▁polar	-10.7445
▁analog	-10.7453
▁purposes	-10.7459
42	-10.746
▁session	-10.7461
▁phenomena	-10.7461
▁neuropathy	-10.7465
FT	-10.7468
▁1.3	-10.7468
RF	-10.747
▁comorbidities	-10.7475
ti	-10.748
▁provision	-10.7488
▁epidemiology	-10.7492
▁scoring	-10.7497
▁alignment	-10.7502
▁thermo	-10.7506
▁bonds	-10.7513
▁attached	-10.7515
▁chicken	-10.7515
▁electric	-10.7523
▁pancreatitis	-10.7528
▁2019	-10.7529
emia	-10.753
▁quantitatively	-10.7535
▁cyclin	-10.7536
▁blocking	-10.7536
length	-10.7538
▁themes	-10.7545
▁nitrate	-10.7547
▁spontaneously	-10.7552
be	-10.7553
▁analogue	-10.7554
▁2.1	-10.7557
▁zero	-10.7559
▁osteoporosis	-10.7559
ana	-10.7565
▁dosing	-10.7565
▁noninvasive	-10.7565
including	-10.7568
▁leukocyte	-10.7571
▁engagement	-10.7571
8+	-10.7574
▁reticulum	-10.7574
▁datasets	-10.7578
▁pore	-10.7583
▁additive	-10.7585
▁establishment	-10.7589
▁inpatient	-10.7594
▁obvious	-10.7597
▁highlighted	-10.7598
▁optimize	-10.7604
▁stabilization	-10.7605
▁WT	-10.7605
▁outbreak	-10.7606
▁sucrose	-10.7608
▁August	-10.761
▁2016	-10.7612
hr	-10.7614
▁student	-10.7615
▁intense	-10.762
▁bed	-10.7622
▁dog	-10.763
▁sequenced	-10.763
▁insufficiency	-10.7635
▁Sp	-10.7637
▁mandibular	-10.7637
▁axons	-10.7638
▁pneumoniae	-10.7638
ATPase	-10.7643
ell	-10.7644
8)	-10.7647
▁ethical	-10.7661
▁accumulated	-10.7663
▁connected	-10.7668
▁aneurysms	-10.7669
▁2.6	-10.767
▁decay	-10.7675
▁peer	-10.7677
directed	-10.7679
▁2.7	-10.7682
▁0.001),	-10.7689
▁interpreted	-10.7692
▁waves	-10.7696
way	-10.7698
▁sarcoma	-10.7706
▁resin	-10.7709
▁placental	-10.7711
▁Intra	-10.7712
▁Administration	-10.7713
ful	-10.7715
▁muscular	-10.7717
▁serial	-10.7717
▁definitive	-10.7718
pi	-10.7718
▁purification	-10.7719
but	-10.7729
▁dataset	-10.7733
▁meat	-10.7734
▁Arabidopsis	-10.7736
OT	-10.7738
▁manipulation	-10.774
▁directions	-10.7742
▁enabled	-10.7743
▁persistence	-10.7753
▁phosphorylated	-10.7754
▁matching	-10.7756
▁visualization	-10.7756
SM	-10.7757
▁Even	-10.7758
▁ultrasonography	-10.7759
▁exclusion	-10.776
yr	-10.7762
ak	-10.7763
▁discrete	-10.7763
▁calculation	-10.7764
▁extend	-10.7764
▁CAD	-10.7769
▁RR	-10.777
▁2004	-10.7771
▁Median	-10.7771
TR	-10.7773
▁attractive	-10.7773
▁too	-10.7774
▁cerebellar	-10.7774
▁equations	-10.7775
▁clone	-10.7777
▁neoplasms	-10.7789
▁hetero	-10.779
▁sudden	-10.779
enhanced	-10.7791
▁follicular	-10.7792
▁inactive	-10.7794
▁describing	-10.7799
IF	-10.78
▁principle	-10.7804
▁objects	-10.7806
49	-10.7807
▁NSCLC	-10.781
mic	-10.7815
▁orally	-10.7817
▁1.4	-10.7817
▁ES	-10.7821
▁tip	-10.7825
▁unable	-10.7826
RP	-10.7827
▁Poly	-10.7829
73	-10.783
GA	-10.7831
▁amplified	-10.7831
▁molar	-10.7836
▁America	-10.7838
▁novo	-10.7844
vascularization	-10.7856
▁colonic	-10.7862
▁mini	-10.7862
em	-10.7864
▁1.8	-10.7865
▁regulators	-10.7865
-2,	-10.7867
ence	-10.7867
▁corrected	-10.7868
▁latent	-10.7869
▁Drug	-10.787
▁uniform	-10.7872
▁polymers	-10.7873
48	-10.7874
▁cure	-10.7876
▁Information	-10.7877
▁MA	-10.7884
▁electrochemical	-10.7884
▁extreme	-10.7885
79	-10.7886
TM	-10.7887
▁mast	-10.7888
▁moderately	-10.7889
▁encodes	-10.7889
shaped	-10.7892
▁attack	-10.7893
37	-10.7895
3),	-10.7898
pa	-10.79
ator	-10.7901
▁steroids	-10.7902
▁mediators	-10.7903
▁carry	-10.7903
▁abilities	-10.7904
▁Ro	-10.7904
▁69	-10.7905
▁reflex	-10.7909
31	-10.7909
▁thresholds	-10.791
▁insurance	-10.7914
▁preclinical	-10.7919
▁suffered	-10.7924
▁1997	-10.7927
▁athletes	-10.7929
78	-10.793
▁fibroblast	-10.7936
▁deterioration	-10.7936
▁hosts	-10.794
▁estradiol	-10.794
PH	-10.794
wave	-10.7942
▁minimize	-10.7955
form	-10.7958
bp	-10.7964
▁exploration	-10.7964
NF	-10.7964
▁grafting	-10.7966
▁elastic	-10.7969
▁testicular	-10.7969
▁ethnic	-10.7969
▁immunotherapy	-10.7971
▁activating	-10.7973
▁injured	-10.7975
▁Additional	-10.7976
▁microm	-10.7977
▁horizontal	-10.7979
iii	-10.7983
▁building	-10.7983
▁HER	-10.7987
▁picture	-10.7988
PL	-10.7988
▁prove	-10.7989
▁land	-10.7996
▁currents	-10.8003
▁correctly	-10.8008
▁cytosolic	-10.8008
▁hard	-10.801
▁otherwise	-10.8013
4).	-10.8015
▁erythrocytes	-10.8018
▁consistency	-10.8019
TS	-10.802
peptide	-10.8024
sp	-10.8025
▁clustering	-10.8027
▁inserted	-10.8029
▁constitute	-10.8031
▁copy	-10.8039
▁pleural	-10.8042
▁promise	-10.8042
▁atoms	-10.8043
▁transmitted	-10.8047
▁gained	-10.805
▁epi	-10.8053
use	-10.8058
▁Different	-10.8063
nd	-10.8064
▁deprivation	-10.8067
▁branch	-10.8072
▁specialized	-10.8073
▁mu	-10.8073
▁belonging	-10.8075
▁hence	-10.8085
producing	-10.8086
▁lymphoid	-10.8088
poly	-10.8089
▁behavioural	-10.81
LD	-10.8103
MM	-10.8104
▁criterion	-10.8105
▁ganglion	-10.8106
TE	-10.8114
▁trigger	-10.8115
▁colitis	-10.8117
▁forest	-10.8119
microenvironment	-10.812
▁drawn	-10.812
▁rule	-10.8126
▁arthroplasty	-10.8126
▁Bcl	-10.8129
▁domestic	-10.8134
▁Mo	-10.8146
▁cranial	-10.815
8%	-10.8151
69	-10.8152
▁sampled	-10.8152
▁modify	-10.8154
▁antibacterial	-10.8162
▁NaCl	-10.8164
▁peaks	-10.8165
▁autosomal	-10.8173
▁microarray	-10.8174
▁narrow	-10.8174
▁analogues	-10.8178
ists	-10.8179
▁4.5	-10.8181
▁TG	-10.8181
▁Protein	-10.8182
▁Central	-10.8187
▁calibration	-10.8187
▁hemodialysis	-10.8191
<	-10.8194
▁conduct	-10.8195
▁vulnerable	-10.8198
▁USA	-10.82
=0	-10.8201
▁splicing	-10.8202
▁fold	-10.8206
▁suppress	-10.8209
▁NT	-10.8212
-20	-10.8212
▁flexion	-10.8212
▁disturbance	-10.8213
▁perspectives	-10.8216
PET	-10.8216
▁stratified	-10.8219
▁replaced	-10.8219
▁universal	-10.8219
▁oligonucleotide	-10.8221
▁conductance	-10.8223
▁labor	-10.8223
BMI	-10.8227
▁expressions	-10.8227
▁Canada	-10.8228
eurodegenerative	-10.823
▁radiographs	-10.8235
ig	-10.8238
▁canine	-10.8254
▁methodological	-10.8257
MO	-10.826
ha	-10.826
▁infrared	-10.826
▁AND	-10.8263
▁Then	-10.8264
▁Gene	-10.8264
ensis	-10.8264
▁ADHD	-10.8266
▁mediating	-10.8266
▁efflux	-10.8273
▁Brazil	-10.8274
▁5'	-10.8276
▁expert	-10.8279
BD	-10.8283
�=	-10.829
▁finger	-10.8291
▁varies	-10.8291
▁formulations	-10.8293
▁losses	-10.8294
▁(100	-10.8294
▁glioma	-10.8295
▁analgesia	-10.8296
▁immature	-10.8297
▁reaching	-10.8297
▁Wistar	-10.8297
▁preferences	-10.8298
▁sea	-10.8299
▁NA	-10.8299
▁geometry	-10.8302
▁destruction	-10.8304
▁bronchial	-10.8307
▁synergistic	-10.8309
02	-10.8312
▁2.8	-10.8319
▁chemicals	-10.8319
led	-10.8325
ethyl	-10.8326
▁Statistical	-10.8329
▁job	-10.833
▁lesser	-10.833
▁drive	-10.8334
▁Findings	-10.8335
ors	-10.8336
▁Risk	-10.834
5).	-10.8346
▁LA	-10.8348
▁peroxide	-10.8349
IS	-10.8351
▁MAP	-10.8358
ile	-10.8358
▁etc	-10.8358
▁CM	-10.8359
▁PH	-10.8359
▁evaluations	-10.8367
▁homogeneous	-10.8369
▁entity	-10.837
▁routinely	-10.837
▁run	-10.837
▁ejection	-10.8371
▁mathematical	-10.8375
▁blotting	-10.838
ella	-10.8384
▁PTSD	-10.8386
▁aspirin	-10.8386
▁constructs	-10.839
▁BC	-10.839
▁historical	-10.8391
▁Bi	-10.8391
TNF	-10.8394
▁ratings	-10.8399
▁centre	-10.8403
▁1.6	-10.8403
▁courses	-10.8407
▁doctors	-10.8411
iso	-10.8414
ler	-10.8416
▁hydro	-10.8416
▁exert	-10.8416
▁aware	-10.8417
▁tracking	-10.8418
▁perinatal	-10.8419
▁transform	-10.842
▁0.7	-10.8424
CB	-10.8426
▁lumen	-10.8433
▁AC	-10.8434
idae	-10.8437
▁massive	-10.8441
▁GI	-10.8446
▁En	-10.8447
46	-10.8448
▁giving	-10.8449
▁manage	-10.845
▁seasonal	-10.8454
ure	-10.8455
2.5	-10.8456
▁progenitor	-10.8457
▁overlap	-10.8457
▁dense	-10.8457
ib	-10.8458
▁Ex	-10.8459
▁joints	-10.8459
▁dimension	-10.8462
▁Consequently	-10.8462
▁SNPs	-10.8463
▁night	-10.8466
▁laboratories	-10.8474
▁quantity	-10.8474
▁74	-10.8476
▁attending	-10.8477
68	-10.8481
▁(25	-10.8481
▁scenarios	-10.8482
▁February	-10.8492
RI	-10.8494
▁triggered	-10.8497
▁HS	-10.8505
quality	-10.8516
▁trace	-10.8516
▁phospho	-10.8521
▁missing	-10.8522
▁COX	-10.8523
▁conjunction	-10.853
▁NE	-10.8536
▁wk	-10.8537
▁HC	-10.8538
▁76	-10.8538
selective	-10.8539
▁polarization	-10.8542
▁attempted	-10.8544
▁densities	-10.8547
▁cat	-10.8549
▁fetuses	-10.8563
▁November	-10.8566
▁0.9	-10.8571
▁beliefs	-10.8582
▁relations	-10.8583
▁postpartum	-10.8585
▁ranges	-10.8587
▁Heart	-10.8587
▁generating	-10.8587
▁Nine	-10.8589
▁(50	-10.859
▁foreign	-10.8592
▁episode	-10.8593
▁(18	-10.8594
▁RF	-10.8597
55	-10.8598
▁attributable	-10.8599
▁Use	-10.8608
▁cognition	-10.8609
▁recipient	-10.8621
▁Specifically	-10.8622
cr	-10.8624
▁capsule	-10.8625
ten	-10.8626
▁plans	-10.8627
▁colonization	-10.8632
▁employing	-10.8639
▁endemic	-10.8642
▁78	-10.8644
▁formula	-10.8645
▁State	-10.8647
▁1995	-10.8647
threatening	-10.8648
▁Genetic	-10.8651
▁Ti	-10.8654
known	-10.8658
▁1996	-10.8658
OA	-10.866
▁Me	-10.8661
▁se	-10.8666
▁lupus	-10.8667
▁GA	-10.8669
dL	-10.8671
PV	-10.8672
▁ERK	-10.8673
3+	-10.8676
▁warranted	-10.8687
PF	-10.8688
▁hypotheses	-10.8693
▁leakage	-10.8694
▁Functional	-10.8694
▁renin	-10.8695
▁Together	-10.8695
▁limitation	-10.8697
▁takes	-10.8703
oxy	-10.8705
▁PSA	-10.8706
▁counter	-10.8706
▁triple	-10.8709
▁gl	-10.8711
▁continues	-10.8712
▁73	-10.8721
▁penetration	-10.8721
▁So	-10.8727
▁attenuation	-10.8729
▁verbal	-10.873
59	-10.873
▁SLE	-10.8736
small	-10.8741
NE	-10.8742
▁conclusions	-10.8743
▁His	-10.8744
▁migraine	-10.8744
-14	-10.8746
▁hearts	-10.8749
ec	-10.8752
▁market	-10.8754
rate	-10.876
▁3%	-10.8761
effects	-10.8761
▁converted	-10.8762
▁Northern	-10.8762
▁switch	-10.8762
▁monkeys	-10.8763
▁GP	-10.8766
▁nucleotides	-10.8768
chi	-10.8768
▁PG	-10.8769
▁flexibility	-10.8774
▁ipsilateral	-10.8774
▁unstable	-10.8774
▁reflects	-10.8776
▁TA	-10.8777
▁determinant	-10.8788
▁Le	-10.88
6).	-10.8802
tro	-10.8803
▁BM	-10.8806
▁HP	-10.8808
▁surgically	-10.8809
▁silica	-10.8816
▁dexamethasone	-10.8818
micro	-10.8819
▁dispersion	-10.8821
▁rated	-10.8821
▁abnormality	-10.8824
▁shunt	-10.8824
▁facilitated	-10.8826
▁Comparison	-10.8827
▁path	-10.8835
▁wastewater	-10.8836
▁71	-10.8839
▁sensors	-10.8846
▁amyloid	-10.8847
GR	-10.8848
▁masses	-10.8848
-11	-10.885
▁constraints	-10.8853
▁PL	-10.8853
▁profiling	-10.8854
suppressive	-10.8862
▁1.7	-10.8863
▁virtual	-10.8867
▁3'	-10.8868
VA	-10.8872
▁thrombin	-10.8873
▁Au	-10.8874
▁Web	-10.8876
▁Australian	-10.8876
ane	-10.8878
▁La	-10.8879
▁similarities	-10.8883
▁But	-10.8883
FP	-10.8885
▁demands	-10.8887
▁VP	-10.8888
▁ppm	-10.8889
▁cascade	-10.8892
▁document	-10.8892
▁2003	-10.8893
▁contaminated	-10.8894
97	-10.8894
▁exception	-10.8894
▁chemo	-10.8901
▁integral	-10.8903
▁crystals	-10.8906
▁margin	-10.8907
bio	-10.8908
▁ligation	-10.8908
▁fermentation	-10.891
▁anastomosis	-10.891
▁2001	-10.891
39	-10.891
▁hot	-10.8911
▁frozen	-10.8915
0,	-10.8917
sh	-10.8918
▁yr	-10.8919
▁ACE	-10.892
▁submitted	-10.8921
▁participating	-10.8924
▁counseling	-10.8927
▁Inter	-10.8931
▁supplemented	-10.8931
TT	-10.8933
▁held	-10.8935
▁aggregates	-10.8937
ip	-10.8941
▁careful	-10.8943
▁suspension	-10.8944
▁(11	-10.8951
▁web	-10.8952
▁geographic	-10.8956
▁assayed	-10.8956
▁contacts	-10.8956
▁granules	-10.8957
▁fragmentation	-10.896
▁recall	-10.8961
▁stimulating	-10.8962
▁Ser	-10.8965
▁Time	-10.8965
▁anion	-10.8969
▁connection	-10.8973
▁gram	-10.8976
▁poorer	-10.8978
▁intermittent	-10.8978
▁implement	-10.898
▁reproducibility	-10.8981
ogenic	-10.8984
BI	-10.8984
300	-10.8984
▁CK	-10.8986
▁180	-10.8991
▁maxillary	-10.8993
▁Various	-10.8994
com	-10.8994
ph	-10.8994
▁fecal	-10.8995
▁proportions	-10.9002
▁dramatic	-10.9005
▁(0.1	-10.9006
▁CRP	-10.9007
▁publications	-10.901
ut	-10.9011
▁surfactant	-10.9013
98	-10.9016
▁wounds	-10.9019
gene	-10.9019
▁autonomic	-10.9029
▁edge	-10.9029
tin	-10.9033
▁knockdown	-10.9037
cells	-10.9041
▁twenty	-10.9043
▁Through	-10.9044
51	-10.9048
▁law	-10.9049
▁transfection	-10.9049
▁distinguished	-10.905
▁glial	-10.9055
72	-10.9058
PK	-10.9059
▁Currently	-10.9059
▁charged	-10.9061
▁insect	-10.9063
▁tone	-10.9064
▁hypothalamic	-10.9067
▁contractile	-10.9068
▁trunk	-10.9068
▁leukocytes	-10.9071
▁LD	-10.9071
CoA	-10.9072
▁code	-10.9073
▁astrocytes	-10.9075
▁Second	-10.9078
▁EGF	-10.9078
▁smoke	-10.908
ner	-10.9082
▁ovary	-10.9083
▁crude	-10.9083
▁facility	-10.9088
▁explanation	-10.9088
▁macular	-10.9089
▁tibial	-10.9094
▁Evaluation	-10.9105
AE	-10.9105
▁adulthood	-10.9107
▁lymphatic	-10.9108
▁HT	-10.911
▁tandem	-10.9113
▁inoculated	-10.9116
▁experts	-10.9117
▁consent	-10.912
▁modulating	-10.9124
▁myocardium	-10.9126
▁Multivariate	-10.9126
▁fate	-10.9131
▁BMD	-10.9132
▁played	-10.9138
▁reproduction	-10.9144
▁regarded	-10.9144
▁peroxidation	-10.9148
▁3.2	-10.9149
The	-10.915
▁reproducible	-10.9155
▁slower	-10.9157
▁Neither	-10.9161
▁sum	-10.9163
responsive	-10.9165
▁CMV	-10.9166
ification	-10.9167
▁avoidance	-10.9169
▁CVD	-10.9169
ATP	-10.917
Cs	-10.917
▁transverse	-10.9173
▁inherited	-10.9176
62	-10.9177
▁defective	-10.9179
opolysaccharide	-10.9183
▁orbital	-10.9184
▁emissions	-10.9185
function	-10.9185
▁SM	-10.9187
▁subsets	-10.9188
▁establishing	-10.9192
BT	-10.9197
▁SV	-10.9198
▁MM	-10.9198
▁transplanted	-10.9205
▁eliminated	-10.9206
▁Besides	-10.9208
▁cardiomyopathy	-10.921
▁sediment	-10.9215
▁remote	-10.9217
▁intended	-10.9218
uc	-10.9219
▁WHO	-10.9223
▁template	-10.9224
▁preferentially	-10.9224
▁silver	-10.9226
▁pollen	-10.9227
▁designated	-10.9228
▁fibres	-10.9231
▁77	-10.9232
▁tachycardia	-10.9233
▁biomedical	-10.9233
▁inversely	-10.9233
▁kinds	-10.9241
▁PGE	-10.9245
▁4%	-10.9245
▁compatible	-10.9257
▁neoplastic	-10.9258
bearing	-10.9262
88	-10.9266
1;	-10.9267
patient	-10.9271
▁popular	-10.9272
▁mechanistic	-10.9277
0�	-10.9278
▁fluctuations	-10.928
▁soils	-10.9281
▁Differences	-10.9284
▁eukaryotic	-10.9288
-16	-10.929
▁STAT	-10.9294
▁commercially	-10.9294
▁histologically	-10.9294
▁character	-10.9294
▁ingestion	-10.9295
▁phage	-10.9296
ear	-10.9299
energy	-10.9302
▁moving	-10.9303
tus	-10.931
weight	-10.9316
▁Sub	-10.9317
▁analyse	-10.9318
▁finally	-10.9318
▁profound	-10.932
7).	-10.9328
▁caries	-10.933
▁HL	-10.9334
▁gaps	-10.9339
▁apparatus	-10.9344
▁AM	-10.9346
▁car	-10.9346
▁FSH	-10.9348
▁Understanding	-10.9349
▁fluids	-10.9349
▁radicals	-10.935
▁Depression	-10.9356
▁household	-10.937
expression	-10.937
performance	-10.937
7-	-10.9371
▁CKD	-10.9376
oxo	-10.9379
▁AUC	-10.938
LM	-10.939
▁complaints	-10.9392
▁magnesium	-10.9394
FF	-10.9396
▁ulcers	-10.9397
▁normalized	-10.9403
▁advance	-10.9404
▁marginal	-10.9406
ub	-10.9406
▁Twelve	-10.9408
▁SI	-10.9413
▁Candida	-10.9415
▁collaboration	-10.9418
▁analgesic	-10.9422
Rs	-10.9425
▁cigarette	-10.9426
▁coherence	-10.9426
▁allograft	-10.9427
▁label	-10.9428
▁organizations	-10.9428
▁79	-10.9428
▁planned	-10.9431
▁giant	-10.944
▁considerations	-10.944
58	-10.9444
▁desired	-10.9444
▁intraocular	-10.9448
▁productivity	-10.945
Cr	-10.9452
▁ganglia	-10.9453
▁government	-10.9454
▁ultra	-10.9454
▁chi	-10.9457
41	-10.9459
▁neo	-10.9461
la	-10.9464
▁slowly	-10.9464
▁transitions	-10.9466
▁CE	-10.947
po	-10.9474
▁survived	-10.9475
99	-10.9475
▁carcinogenesis	-10.948
▁extremity	-10.9481
▁multicenter	-10.9484
▁accessible	-10.9485
▁burn	-10.9488
▁reflecting	-10.9491
▁estimating	-10.9496
▁prosthesis	-10.9497
▁Chi	-10.9502
log	-10.9505
▁bioavailability	-10.9513
▁drop	-10.9514
da	-10.9514
▁adding	-10.9515
▁grow	-10.9519
IA	-10.9521
▁formal	-10.9521
▁hypoxic	-10.9525
▁allergy	-10.9527
▁Raman	-10.9527
▁incontinence	-10.9534
▁cement	-10.9535
▁conditioning	-10.9537
LE	-10.9538
▁addressing	-10.9539
▁cation	-10.9541
▁tend	-10.9542
▁testis	-10.9542
▁suture	-10.9543
09	-10.9544
▁word	-10.9546
LI	-10.9548
▁topic	-10.9553
▁running	-10.9553
▁SDS	-10.9555
▁veins	-10.956
▁embedded	-10.9561
▁personnel	-10.9562
▁inoculation	-10.9564
▁Germany	-10.9566
▁upregulation	-10.9567
▁Conversely	-10.9573
▁silencing	-10.9575
GP	-10.9576
▁prophylactic	-10.9577
▁anaesthesia	-10.9583
▁legal	-10.9592
▁PT	-10.9594
logy	-10.9595
▁cyclase	-10.9597
▁Importantly	-10.96
SV	-10.96
▁Organization	-10.9601
▁arginine	-10.9604
▁views	-10.9605
▁codon	-10.9606
▁termed	-10.9608
▁threat	-10.9609
▁acceptance	-10.9609
://	-10.961
▁Single	-10.9611
▁TM	-10.9613
▁responding	-10.9613
▁horses	-10.9613
64	-10.9616
-60	-10.9616
ped	-10.9617
down	-10.9621
4),	-10.9621
▁consumed	-10.9622
▁HSP	-10.9623
▁meeting	-10.9623
▁GSH	-10.9627
MG	-10.9631
▁prostaglandin	-10.9636
▁aberrant	-10.9638
▁84	-10.9639
▁MG	-10.9639
ina	-10.9646
▁conceptual	-10.9648
2;	-10.9651
▁isoform	-10.9658
▁named	-10.9658
▁curative	-10.9658
▁slope	-10.966
▁owing	-10.9665
▁Seventy	-10.9673
▁ambulatory	-10.9674
▁scored	-10.9682
▁envelope	-10.9683
▁Self	-10.9685
▁endoscopy	-10.9688
▁mV	-10.9694
▁seeds	-10.9695
▁graphene	-10.9696
▁0.0001)	-10.9696
▁irradiated	-10.9699
res	-10.97
▁prefrontal	-10.9701
▁innovative	-10.9704
kinase	-10.9705
0.0	-10.9709
RE	-10.9709
▁rank	-10.9712
▁obtaining	-10.9713
NK	-10.9715
Cu	-10.9717
toxic	-10.9718
▁erythrocyte	-10.9719
▁contractions	-10.9721
▁AI	-10.9727
8).	-10.9729
fluoro	-10.9729
▁essentially	-10.973
▁Program	-10.973
▁asymmetric	-10.9733
▁IU	-10.9741
▁knockout	-10.9742
▁postmenopausal	-10.9745
▁Delta	-10.9749
▁cerevisiae	-10.9754
▁summarizes	-10.9758
▁slices	-10.9763
ates	-10.9764
▁General	-10.9765
71	-10.9765
▁Experimental	-10.9771
83	-10.9772
▁MAPK	-10.9774
▁papers	-10.9775
EA	-10.9775
▁cerebrospinal	-10.9775
▁mitotic	-10.9776
▁boundary	-10.9779
▁responsive	-10.978
▁epitopes	-10.978
▁epitope	-10.9783
▁visceral	-10.9785
ri	-10.9786
nitro	-10.9786
MF	-10.9787
IFN	-10.9788
▁eventually	-10.9791
▁20-	-10.9791
▁enabling	-10.9798
ning	-10.9802
▁categorized	-10.9805
FI	-10.9806
▁gross	-10.9809
chloro	-10.9809
TF	-10.9818
▁developments	-10.982
▁city	-10.9825
▁cataract	-10.9831
8-	-10.9834
▁AML	-10.9835
▁resident	-10.9841
throughput	-10.9842
long	-10.9843
▁idea	-10.9845
▁(14	-10.9846
▁incision	-10.9847
▁UC	-10.9847
tumor	-10.985
position	-10.985
▁discharged	-10.9852
▁Science	-10.9854
▁scaffold	-10.986
▁ambient	-10.9863
▁limbs	-10.9864
ric	-10.9866
ct	-10.9867
▁repetitive	-10.9867
emic	-10.9867
▁homozygous	-10.9869
▁Dis	-10.9871
▁SB	-10.9871
▁segmentation	-10.9873
▁phospholipid	-10.9882
▁(16	-10.9884
▁programmes	-10.9884
▁centres	-10.9884
2+]	-10.9885
▁zones	-10.9885
▁ca	-10.9889
drug	-10.9898
▁SNP	-10.9901
▁1.9	-10.9904
coding	-10.9906
▁society	-10.9907
▁automatic	-10.9907
▁SO	-10.9907
▁IS	-10.9908
▁striatum	-10.9909
▁3.1	-10.9911
▁86	-10.9911
SH	-10.9911
▁RP	-10.9913
▁2.9	-10.9913
▁interviewed	-10.9914
▁registration	-10.9914
▁relatives	-10.9915
glucose	-10.9915
▁uncertain	-10.9915
<0.05)	-10.9915
(+)-	-10.992
▁receiver	-10.9923
▁ago	-10.9933
▁Trans	-10.9937
mass	-10.9942
▁ASD	-10.9944
▁juvenile	-10.9945
▁dys	-10.9948
▁0,	-10.9949
▁coating	-10.9952
ology	-10.9953
▁titers	-10.9954
▁malformations	-10.9955
▁intubation	-10.9958
▁5,	-10.996
▁cover	-10.9963
▁immunosorbent	-10.9968
▁conflict	-10.9976
▁managing	-10.9977
effectiveness	-10.9978
▁heme	-10.998
▁ADP	-10.9981
(2))	-10.9981
▁influx	-10.9983
9).	-10.9983
▁incorporating	-10.9998
▁Database	-10.9998
▁stresses	-11.0002
▁distances	-11.0003
HI	-11.0003
▁know	-11.0004
▁vomiting	-11.0004
Ms	-11.0005
▁hernia	-11.0005
Al	-11.0007
▁4.0	-11.001
▁retrieved	-11.0011
▁apo	-11.0011
layer	-11.0011
▁phosphorus	-11.0011
▁Molecular	-11.0012
▁lithium	-11.0019
flow	-11.0023
▁saliva	-11.0025
▁motifs	-11.0028
200	-11.0028
▁myosin	-11.0032
▁breath	-11.0034
▁HSV	-11.0034
▁dilution	-11.0034
▁mimic	-11.0034
▁wt	-11.0038
▁manifestation	-11.0039
▁oxidized	-11.0042
▁began	-11.0045
▁atherosclerotic	-11.005
▁82	-11.0051
RD	-11.0052
PN	-11.0056
▁bioactive	-11.0057
▁evidenced	-11.0057
TP	-11.006
▁expectations	-11.0062
▁kind	-11.0064
<0.001)	-11.0065
Pro	-11.0065
▁diagnose	-11.0069
▁interacting	-11.0069
▁sensitization	-11.007
▁century	-11.0071
exposed	-11.0072
▁ectopic	-11.0074
chemical	-11.0075
▁Bacillus	-11.0075
▁Mycobacterium	-11.0075
▁Those	-11.0077
UC	-11.0078
HL	-11.0079
9%	-11.008
▁resected	-11.0084
▁hypothalamus	-11.0087
▁inherent	-11.0088
▁cardiopulmonary	-11.0091
▁angina	-11.0091
▁dopaminergic	-11.0092
▁nephropathy	-11.0093
▁seemed	-11.0093
▁progressively	-11.0093
▁causative	-11.0096
PB	-11.01
▁nucleic	-11.0101
▁remove	-11.0101
▁BA	-11.011
DF	-11.0117
▁conditioned	-11.0118
▁mouth	-11.012
▁modest	-11.0124
▁Br	-11.0125
▁physiologic	-11.0127
▁homo	-11.0128
red	-11.0131
▁kb	-11.0132
91	-11.0137
▁pulses	-11.014
ography	-11.0143
▁compartments	-11.0144
▁spent	-11.0146
▁carefully	-11.0148
▁corticosteroids	-11.015
82	-11.015
income	-11.015
▁lineages	-11.0153
▁filling	-11.0159
▁accounting	-11.0161
acid	-11.0161
▁accounts	-11.0166
▁differs	-11.0168
▁z	-11.0168
▁univariate	-11.0173
idine	-11.0175
▁Cross	-11.0175
▁ACTH	-11.0177
▁NMDA	-11.0178
▁placenta	-11.0178
▁admissions	-11.0179
▁biologically	-11.0185
▁designs	-11.0188
0)	-11.0189
▁Multi	-11.0191
▁augmented	-11.0192
▁plates	-11.0193
▁seeking	-11.0194
BF	-11.0195
expressing	-11.0196
▁probable	-11.0196
▁competence	-11.0198
▁classic	-11.0198
▁precipitation	-11.0198
▁Food	-11.02
▁Ba	-11.0201
▁affective	-11.0202
▁polymerization	-11.0202
psychological	-11.0203
▁prevents	-11.0205
actin	-11.0205
delta	-11.0206
04	-11.0206
brain	-11.0207
]-	-11.021
▁primers	-11.0212
▁inputs	-11.0214
▁finite	-11.0214
tetra	-11.0216
96	-11.0217
stranded	-11.022
▁propagation	-11.0224
▁flat	-11.0224
▁cycling	-11.0227
▁kappa	-11.0229
▁players	-11.0229
▁raw	-11.0232
fed	-11.0232
▁immobilized	-11.0239
▁Social	-11.0241
activity	-11.0243
▁nutrients	-11.0246
▁winter	-11.0246
▁meaningful	-11.0246
NB	-11.0247
▁septic	-11.0247
cause	-11.0248
▁catalyst	-11.0252
▁Ang	-11.0253
▁elongation	-11.0253
▁copies	-11.0256
li	-11.0256
▁transporters	-11.0261
choline	-11.0265
ome	-11.0266
▁NC	-11.0268
▁schedule	-11.027
▁corn	-11.0271
▁consultation	-11.0273
▁relating	-11.0275
▁respiration	-11.0279
▁publication	-11.028
ng	-11.0281
500	-11.0282
▁folding	-11.0285
▁periodic	-11.0287
▁heterozygous	-11.0288
act	-11.0289
▁overlapping	-11.0292
▁(0.5	-11.0293
▁starch	-11.0299
▁abscess	-11.0301
▁minority	-11.0302
▁bacterium	-11.0302
ens	-11.0303
uantitative	-11.0314
▁melatonin	-11.0314
▁square	-11.0314
▁Retrospective	-11.0326
▁antiretroviral	-11.0326
▁reasonable	-11.0344
▁prostatic	-11.0344
▁damaged	-11.0344
▁osteoarthritis	-11.0347
▁tau	-11.0348
▁forced	-11.0352
▁individually	-11.0358
▁ever	-11.0359
▁scaffolds	-11.0359
▁axonal	-11.0362
▁surveyed	-11.0362
▁top	-11.0364
▁built	-11.0367
▁bonding	-11.0367
▁clinicopatholog	-11.0369
▁duodenal	-11.037
▁facilitates	-11.0372
▁impairments	-11.0373
coated	-11.0373
▁circumstances	-11.0373
fat	-11.0377
▁branches	-11.0379
▁ID	-11.0381
▁HO	-11.0382
▁follicles	-11.0386
▁TH	-11.0388
▁behind	-11.0391
▁Short	-11.0393
▁persisted	-11.0393
ise	-11.0394
▁moiety	-11.04
▁connections	-11.0401
ot	-11.0402
▁epidural	-11.0402
▁powder	-11.0406
▁Higher	-11.041
gen	-11.0419
/100	-11.0421
RM	-11.0427
▁emotion	-11.0434
▁cellulose	-11.0434
▁retrieval	-11.0436
▁crop	-11.0437
▁trees	-11.0442
▁guided	-11.0443
▁Direct	-11.0444
▁glycine	-11.0445
WT	-11.0449
▁recessive	-11.0455
▁actively	-11.0456
▁psoriasis	-11.0457
▁Ta	-11.0459
▁parathyroid	-11.046
EB	-11.046
▁pigment	-11.047
▁1994	-11.0473
▁inorganic	-11.0476
▁6%	-11.0478
▁hazards	-11.0482
▁TR	-11.0483
▁resuscitation	-11.0483
▁screw	-11.0484
▁colonies	-11.0486
▁briefly	-11.0486
CRP	-11.0487
▁ribosomal	-11.049
▁mapped	-11.0492
▁infertility	-11.0494
▁window	-11.0495
▁split	-11.0498
▁positivity	-11.0499
▁SEM	-11.0501
od	-11.0501
▁prolactin	-11.0502
▁antigenic	-11.0503
▁parietal	-11.0503
▁translational	-11.0503
▁Increasing	-11.051
▁hemi	-11.0511
▁umbilical	-11.0512
▁habits	-11.0515
▁verify	-11.0521
▁septal	-11.0521
Se	-11.0523
▁CHD	-11.0523
CG	-11.0524
▁German	-11.0525
▁glycogen	-11.0528
▁atom	-11.0529
▁clonal	-11.053
▁mutagenesis	-11.0531
OC	-11.0531
▁TSH	-11.0541
▁repeats	-11.0541
▁call	-11.0542
▁filled	-11.0543
▁Whereas	-11.0544
▁allogeneic	-11.0544
▁excitatory	-11.0546
▁reversal	-11.0547
▁dioxide	-11.055
▁circuit	-11.056
▁adequately	-11.0563
▁endovascular	-11.0564
▁quickly	-11.0569
▁Inventory	-11.0572
called	-11.0572
ba	-11.0574
▁oligo	-11.0575
tion	-11.0576
▁Pi	-11.0576
54	-11.0576
▁dairy	-11.0579
▁fetus	-11.0583
89	-11.0583
▁BMP	-11.0584
▁papillary	-11.0589
▁counterparts	-11.0591
▁deliver	-11.0591
▁cholinergic	-11.0592
▁coronavirus	-11.0592
▁build	-11.0597
▁summarized	-11.0597
▁3.3	-11.0598
▁reward	-11.0599
▁Surgery	-11.0607
ea	-11.0608
▁fluoride	-11.061
▁termination	-11.0611
▁fertilization	-11.0615
▁multivariable	-11.0618
▁cap	-11.0619
▁Per	-11.0627
▁gray	-11.063
▁put	-11.0634
lic	-11.0635
▁8%	-11.0636
▁creating	-11.0639
DP	-11.0641
▁FGF	-11.0642
pe	-11.0642
▁Streptococcus	-11.0646
IN	-11.0652
▁round	-11.0653
▁tRNA	-11.0654
NR	-11.0663
▁MEDLINE	-11.0665
▁perceptual	-11.0668
▁guideline	-11.0673
▁15-	-11.0674
▁confined	-11.0681
-30	-11.0681
▁theories	-11.0683
▁structurally	-11.0685
▁GnRH	-11.0692
▁modelling	-11.0692
▁paediatric	-11.0693
▁IM	-11.0695
▁0.05),	-11.0697
▁2018	-11.0698
▁promoters	-11.0703
ts	-11.0703
▁Arg	-11.0706
▁demonstration	-11.0706
▁Asia	-11.0711
▁disappeared	-11.0711
structured	-11.0712
▁(5-	-11.0712
▁genital	-11.0714
▁kept	-11.0714
gel	-11.0715
▁spite	-11.0715
▁agar	-11.0715
▁Experiment	-11.0715
▁PV	-11.0719
▁arch	-11.0721
07	-11.0724
▁EBV	-11.0727
domain	-11.0728
▁null	-11.073
▁institutional	-11.0735
▁circumference	-11.074
▁presumably	-11.0741
▁serves	-11.0742
ward	-11.0743
▁BD	-11.0746
▁5.0	-11.0754
▁provider	-11.0758
GO	-11.0764
▁microvascular	-11.0764
▁demographics	-11.0765
▁add	-11.0768
▁lowered	-11.0768
▁mutated	-11.077
▁Out	-11.0773
▁habitat	-11.0774
▁PEG	-11.0776
▁DS	-11.0777
▁FT	-11.078
▁vestibular	-11.0781
▁VA	-11.0782
▁foci	-11.0784
▁IBD	-11.0784
▁embolization	-11.0786
▁supportive	-11.0789
▁urgent	-11.079
▁Secondary	-11.0792
▁differing	-11.0793
▁3.4	-11.0793
▁norepinephrine	-11.0795
▁clinician	-11.0802
▁endoplasmic	-11.0807
▁newborns	-11.0808
▁PB	-11.0811
▁0.0001).	-11.0813
HP	-11.0813
human	-11.0813
▁projection	-11.0813
▁hierarchical	-11.0818
▁rational	-11.082
▁trypsin	-11.0821
1.6	-11.0824
▁chromatographic	-11.0825
den	-11.0825
▁preoperatively	-11.083
▁agricultural	-11.0833
03	-11.0836
▁fibrinogen	-11.0837
▁ATPase	-11.0837
▁1980	-11.084
▁Tumor	-11.0841
▁0.06	-11.0841
▁applicability	-11.0843
▁employment	-11.0846
ps	-11.0846
▁scar	-11.0851
5�	-11.0852
Ag	-11.0854
▁liposomes	-11.0855
▁lysine	-11.0856
arginine	-11.0864
▁6,	-11.0865
▁herein	-11.0866
if	-11.0868
▁spectroscopic	-11.0869
▁motivation	-11.0872
▁binary	-11.0875
▁fail	-11.0875
▁nonspecific	-11.088
▁intravenously	-11.0882
84	-11.0883
ow	-11.0885
LDL	-11.0891
butyl	-11.0892
▁southern	-11.0893
▁handling	-11.0893
acting	-11.0894
-6-	-11.0895
▁triglyceride	-11.0896
▁wet	-11.0897
▁cleft	-11.0898
▁nausea	-11.09
▁PF	-11.0902
▁gp	-11.0902
sa	-11.0903
▁myeloma	-11.0904
▁illustrated	-11.0906
▁intraperitoneal	-11.0908
ras	-11.0909
▁telephone	-11.091
▁1992	-11.091
▁wavelength	-11.0918
▁EF	-11.0919
▁Eighty	-11.092
▁suggestive	-11.0925
▁83	-11.0926
▁TF	-11.0926
▁organized	-11.0928
-5-	-11.0928
▁exhibiting	-11.0936
▁cytology	-11.0937
▁81	-11.0938
▁glycol	-11.0939
nt	-11.0942
▁NPs	-11.0956
▁1993	-11.0957
▁chart	-11.0963
▁NR	-11.0963
▁palsy	-11.0966
▁fibrin	-11.0967
▁sexes	-11.097
0.5	-11.0972
▁0.25	-11.0976
▁sludge	-11.0977
normal	-11.0977
mp	-11.0979
nucleotide	-11.0981
▁genetics	-11.0984
▁gyrus	-11.0985
▁splenic	-11.0988
▁activates	-11.099
▁110	-11.0991
▁myo	-11.0991
▁laryngeal	-11.0992
▁micromol	-11.0994
▁ubiquitin	-11.0996
AUC	-11.0996
▁Kaplan	-11.0997
▁relate	-11.0997
▁loaded	-11.0998
▁porous	-11.0998
▁TC	-11.0999
▁written	-11.1001
▁mesenteric	-11.1004
▁trimester	-11.1005
(6)	-11.1007
▁stimulates	-11.101
▁cyclo	-11.1012
▁firing	-11.1014
▁inconsistent	-11.1015
▁voluntary	-11.1015
▁Specific	-11.1021
▁connective	-11.1022
▁rose	-11.1022
Meier	-11.1025
▁dust	-11.1028
▁retrograde	-11.1029
▁cerebellum	-11.1032
94	-11.1035
▁predicts	-11.1039
▁interacts	-11.1041
▁88	-11.1044
ica	-11.1045
EN	-11.1047
▁BRCA	-11.1047
▁outbreaks	-11.1048
▁participant	-11.1048
▁behaviours	-11.105
▁irrespective	-11.1051
inositol	-11.1056
▁sporadic	-11.1062
precipitation	-11.1064
Br	-11.1066
52	-11.1066
▁French	-11.1068
▁ammonia	-11.1069
▁zebrafish	-11.1069
NPs	-11.107
▁pathologies	-11.1073
▁Pain	-11.1074
▁descending	-11.1075
▁dermatitis	-11.1076
▁ad	-11.108
▁autism	-11.108
,"	-11.1082
▁assisted	-11.1086
▁fell	-11.1089
▁solubility	-11.1091
▁endpoint	-11.1093
▁experiencing	-11.1094
▁strongest	-11.1095
om	-11.1096
go	-11.1097
▁MDA	-11.1098
DD	-11.1099
▁siRNA	-11.1099
▁irreversible	-11.11
▁Prospective	-11.1102
▁voice	-11.1102
▁GR	-11.1102
77	-11.1103
▁spike	-11.1104
▁engineered	-11.1112
▁geographical	-11.1113
▁lengths	-11.1115
▁arrhythmias	-11.1115
▁embolism	-11.1116
▁defining	-11.1117
▁taxa	-11.1125
ML	-11.1129
▁skull	-11.1129
▁faculty	-11.1137
hypersensitivity	-11.1145
▁walls	-11.1152
HCV	-11.1152
▁perhaps	-11.1153
si	-11.1153
▁MB	-11.1154
▁85%	-11.1155
▁oncology	-11.1157
▁prone	-11.1163
molecular	-11.1165
▁rating	-11.1168
▁degenerative	-11.1169
▁7.5	-11.117
▁discriminate	-11.1174
▁rigid	-11.1176
my	-11.1183
ns	-11.1186
not	-11.1186
▁falls	-11.119
▁RS	-11.1192
les	-11.1195
▁thymus	-11.1196
▁mediates	-11.1198
▁strand	-11.12
▁spermatozoa	-11.1202
▁neuromuscular	-11.1202
▁arrays	-11.1204
cis	-11.1207
▁tight	-11.1213
▁sports	-11.1216
▁fabricated	-11.1217
▁PO	-11.1218
-2)	-11.1219
▁pacing	-11.122
▁junctions	-11.122
▁retardation	-11.122
BE	-11.1225
▁coated	-11.1227
▁summer	-11.1227
▁alanine	-11.1227
▁angles	-11.123
▁sufficiently	-11.1231
Dawley	-11.1232
▁capabilities	-11.1232
▁resorption	-11.1232
▁northern	-11.1234
▁grain	-11.1234
▁ammonium	-11.1235
▁energies	-11.1238
▁switching	-11.1238
▁characterised	-11.124
▁entered	-11.124
bis	-11.1244
▁averaged	-11.1244
▁Ab	-11.1245
▁debate	-11.1248
▁perforation	-11.1253
▁rescue	-11.1255
▁unexpected	-11.1255
▁(17	-11.1256
▁5.5	-11.1256
▁femur	-11.1256
▁adenoma	-11.1262
▁Hyper	-11.1265
▁SN	-11.1268
▁antifungal	-11.127
▁killing	-11.1275
▁glucocorticoid	-11.1278
▁inhalation	-11.1279
▁mating	-11.1279
▁registry	-11.128
74	-11.128
▁Model	-11.1281
▁deformity	-11.1284
▁LS	-11.1289
▁meningitis	-11.1291
▁agreed	-11.1291
61	-11.1292
6),	-11.1295
▁bases	-11.1296
▁spindle	-11.1297
▁Tri	-11.1299
depth	-11.1299
▁argue	-11.1302
sensitivity	-11.1304
▁vulnerability	-11.1304
▁12%	-11.1304
▁Development	-11.1305
▁mercury	-11.1305
▁unlikely	-11.1307
▁35%	-11.1309
▁plaques	-11.131
▁87	-11.1311
93	-11.1314
▁genera	-11.1319
▁scenario	-11.1319
▁Sprague	-11.132
men	-11.1324
SL	-11.1325
▁Akt	-11.1326
▁confocal	-11.1328
▁constituents	-11.1331
▁stone	-11.1333
ula	-11.1333
▁covering	-11.1333
TH	-11.1336
▁weakness	-11.1338
▁pan	-11.134
▁dilatation	-11.1343
▁89	-11.1347
▁dismutase	-11.135
▁Indian	-11.135
ect	-11.1353
LP	-11.1353
▁methanol	-11.1355
▁stop	-11.1358
▁elicit	-11.1361
06	-11.1362
▁abortion	-11.1369
▁st	-11.137
▁TBI	-11.137
▁quantities	-11.1374
▁prescribing	-11.1374
▁rules	-11.1374
▁inducible	-11.1376
▁infarct	-11.1378
▁challenged	-11.1379
125	-11.138
▁psycho	-11.1384
ax	-11.1385
▁iodine	-11.1385
▁Physical	-11.1387
▁ionization	-11.1391
▁Examination	-11.1392
▁Fourier	-11.1394
▁bolus	-11.1395
-36	-11.1396
▁analogs	-11.1398
▁wear	-11.1399
▁98	-11.1399
▁Canadian	-11.1399
▁mumol	-11.14
▁remarkably	-11.14
▁minute	-11.1402
istic	-11.1403
120	-11.1406
▁(24	-11.1406
ron	-11.1407
▁suffer	-11.1407
▁vesicle	-11.1407
▁(13	-11.1407
RV	-11.1408
CK	-11.1409
▁reconstructed	-11.141
ge	-11.141
▁chemically	-11.1414
ND	-11.1417
▁subcellular	-11.1417
-21	-11.1417
▁departments	-11.1418
▁traffic	-11.1419
▁heating	-11.142
▁assumption	-11.1423
▁gradients	-11.1424
▁derive	-11.1428
▁concentrated	-11.1429
▁3.6	-11.1429
▁college	-11.143
▁polymorphic	-11.1433
▁semantic	-11.1434
GH	-11.1435
▁pivotal	-11.1436
▁cough	-11.1439
pr	-11.144
▁spring	-11.144
1.7	-11.1443
▁continuing	-11.1449
▁calcification	-11.1452
▁sexually	-11.1455
▁lowering	-11.1457
adrenergic	-11.1461
▁na	-11.1461
3/	-11.1462
▁larval	-11.1463
▁decomposition	-11.1469
thio	-11.1472
▁scope	-11.1474
▁Exposure	-11.1475
▁conductivity	-11.1477
▁disulfide	-11.1477
(-/-)	-11.1481
▁initiate	-11.1483
▁shell	-11.1484
▁supra	-11.1484
▁soybean	-11.1484
▁Cells	-11.1485
▁echo	-11.1488
▁la	-11.1489
graphic	-11.1489
ber	-11.149
bo	-11.1491
TD	-11.1493
va	-11.1494
81	-11.1496
▁phantom	-11.1498
▁dimer	-11.1501
▁Bo	-11.1501
▁learned	-11.1502
▁priority	-11.1504
▁fibronectin	-11.1506
▁divergence	-11.151
▁wrist	-11.151
(-1))	-11.151
▁hypotension	-11.1512
)(	-11.1513
▁propensity	-11.1518
ions	-11.1519
▁attacks	-11.152
tra	-11.1521
▁TE	-11.1524
base	-11.1527
▁inappropriate	-11.1528
▁interfere	-11.1528
ster	-11.1529
▁adhesive	-11.153
▁deformation	-11.1538
▁PTH	-11.154
▁DSM	-11.1543
▁Ph	-11.1545
▁tongue	-11.1549
▁learn	-11.1551
▁autopsy	-11.1552
▁sector	-11.1552
Is	-11.1553
▁consequently	-11.1555
▁facilitating	-11.1557
▁Southern	-11.1557
cycle	-11.1559
ROS	-11.1562
▁MP	-11.1564
▁viscosity	-11.1564
▁augmentation	-11.1567
item	-11.1569
cancer	-11.1571
FC	-11.1572
vi	-11.1574
ni	-11.1575
▁concerned	-11.1577
▁mitogen	-11.1578
▁Bone	-11.1578
▁haplotype	-11.158
▁retinopathy	-11.1583
▁filaments	-11.1586
▁anesthetic	-11.1588
ork	-11.1591
▁triglycerides	-11.1591
del	-11.1592
acetate	-11.1593
▁transcribed	-11.1594
▁eliminate	-11.1596
can	-11.1598
▁synthesize	-11.1599
▁Subsequently	-11.1601
▁border	-11.1603
ob	-11.1603
▁Day	-11.1604
▁preceding	-11.1606
▁TCR	-11.1607
GT	-11.1611
▁asymmetry	-11.1615
▁adenomas	-11.162
light	-11.1621
▁my	-11.1623
▁92	-11.1628
▁stents	-11.1633
▁Hb	-11.1634
▁expenditure	-11.1638
▁tumorigenesis	-11.1643
▁spherical	-11.1644
mu	-11.1644
▁monolayer	-11.1646
▁Mar	-11.1651
▁proteolytic	-11.1651
ultidisciplinary	-11.1651
ising	-11.1653
▁executive	-11.1653
▁LT	-11.1654
▁syn	-11.1658
▁tracheal	-11.1659
▁confirming	-11.166
▁come	-11.1663
▁myelin	-11.1665
▁attitude	-11.1666
▁weighted	-11.1667
▁Para	-11.1668
▁7%	-11.1669
▁neuroendocrine	-11.167
▁antidepressant	-11.1672
▁possibilities	-11.1672
▁NADPH	-11.1679
▁sedation	-11.1681
▁intermediates	-11.1682
▁colour	-11.1688
▁comorbidity	-11.169
▁prompt	-11.169
▁amygdala	-11.1693
▁notion	-11.1699
▁implementing	-11.1699
factor	-11.1702
efficacy	-11.1706
▁attributes	-11.1707
therapy	-11.1707
▁Crohn	-11.1708
▁dermal	-11.1711
▁Pt	-11.1717
▁projections	-11.1719
osa	-11.1719
▁pulp	-11.1723
▁doxorubicin	-11.1723
▁SOD	-11.1727
gram	-11.1727
▁deletions	-11.1727
Group	-11.1731
▁arms	-11.1733
▁drivers	-11.1738
▁Little	-11.1739
▁accordance	-11.1739
▁Ac	-11.1742
og	-11.1743
▁.001)	-11.1743
mi	-11.1746
▁shortening	-11.1746
▁perfused	-11.1749
otic	-11.1749
▁emphasize	-11.1749
▁Postoperative	-11.1749
▁harm	-11.175
▁painful	-11.1754
▁timely	-11.1754
▁Oral	-11.1756
▁positioning	-11.1756
▁investigators	-11.1759
FS	-11.176
SEM	-11.1764
▁synapses	-11.1764
▁aquatic	-11.177
▁indicative	-11.1772
▁Unlike	-11.1775
TI	-11.178
66	-11.1781
par	-11.1781
▁Medicare	-11.1782
▁safely	-11.1782
▁cytosol	-11.1783
▁trafficking	-11.1783
▁contexts	-11.1787
▁restore	-11.1796
▁temporary	-11.1797
▁Inhibition	-11.1802
▁accomplished	-11.1803
▁virtually	-11.1803
pH	-11.1804
▁oscillations	-11.1808
▁reliably	-11.1808
▁West	-11.1819
square	-11.182
▁claims	-11.1821
▁collect	-11.1827
▁VO	-11.1831
▁musculoskeletal	-11.1833
▁landscape	-11.1834
▁acyl	-11.1841
▁Eleven	-11.1842
▁EP	-11.1847
▁solar	-11.1849
▁standing	-11.185
▁lattice	-11.1858
ung	-11.1862
▁displays	-11.1864
▁glycerol	-11.1864
▁responders	-11.1865
▁opinion	-11.187
�%	-11.1877
▁4)	-11.1877
▁fused	-11.188
oral	-11.1881
▁hemorrhagic	-11.1885
▁moment	-11.1887
▁SL	-11.1887
▁25-	-11.1889
▁lean	-11.1894
▁distinctive	-11.1896
5%)	-11.1897
▁Korean	-11.1901
▁electrostatic	-11.1901
AN	-11.1907
cin	-11.1907
▁fractional	-11.1908
▁articular	-11.1912
05	-11.1916
▁expand	-11.1918
▁mediator	-11.1919
af	-11.1922
EL	-11.1922
▁deposits	-11.1923
▁calves	-11.1929
chemotherapeutic	-11.1931
▁match	-11.1933
▁600	-11.1933
▁raise	-11.1934
▁sent	-11.1936
▁hereditary	-11.1939
▁microgram	-11.194
▁salvage	-11.1943
▁ART	-11.195
weeks	-11.1951
motor	-11.1952
ru	-11.1956
borne	-11.196
▁floor	-11.1962
sided	-11.1963
▁monocyte	-11.1963
let	-11.1964
volume	-11.1965
▁killed	-11.1969
▁rely	-11.1973
▁curriculum	-11.1973
▁Internet	-11.1973
▁axon	-11.1978
0.9	-11.198
▁Ninety	-11.1984
▁plasmids	-11.1985
▁symmetry	-11.1987
▁enter	-11.199
▁matrices	-11.199
tal	-11.1991
▁biologic	-11.1993
▁hemisphere	-11.1994
▁catalase	-11.2003
▁Ch	-11.2005
▁depolarization	-11.2006
▁mAb	-11.2006
▁box	-11.2007
▁encode	-11.2009
▁monotherapy	-11.201
▁exceeded	-11.201
rit	-11.2011
LR	-11.2011
▁disparities	-11.2012
▁Lys	-11.2012
▁oxygenation	-11.2016
▁neoplasia	-11.2018
▁away	-11.2019
▁conjugated	-11.202
FM	-11.2021
▁3.7	-11.2022
▁computerized	-11.2023
▁prosthetic	-11.2024
SB	-11.2024
▁burst	-11.2027
▁tear	-11.2027
▁ineffective	-11.2028
▁passage	-11.2031
▁diagnosing	-11.2033
▁Approximately	-11.2035
LH	-11.2039
▁Meta	-11.204
▁intention	-11.2042
▁sulfur	-11.2042
▁graded	-11.2042
vascular	-11.2043
▁plexus	-11.2044
▁degraded	-11.2044
nm	-11.2045
1.1	-11.2048
▁faces	-11.205
▁Ig	-11.2052
▁Considering	-11.2055
▁1991	-11.2056
(2+)-	-11.2056
▁cochlear	-11.2059
report	-11.2062
7),	-11.2062
▁PRL	-11.2065
▁presentations	-11.2066
HCC	-11.2067
▁shed	-11.2068
▁lymphomas	-11.2072
▁White	-11.2075
3;	-11.2077
▁breastfeeding	-11.2078
▁item	-11.2082
▁(40	-11.2083
▁93	-11.2084
▁enamel	-11.2084
▁era	-11.2085
set	-11.2086
▁Male	-11.2087
▁get	-11.2088
▁lipase	-11.2089
▁Bayesian	-11.2089
ero	-11.209
sub	-11.209
1.8	-11.2093
▁par	-11.2094
▁DD	-11.2094
▁simulate	-11.2095
▁RI	-11.2097
▁Life	-11.2101
▁titanium	-11.2101
▁adoption	-11.2103
▁stratification	-11.2105
▁apnea	-11.2105
▁0.001	-11.2105
▁Sch	-11.2106
cholesterol	-11.2107
▁flaps	-11.2112
▁glucagon	-11.2112
▁chance	-11.2116
▁vocal	-11.2116
▁lavage	-11.2118
5),	-11.2123
▁wider	-11.2123
▁radius	-11.2124
▁escape	-11.2129
▁catheters	-11.2129
▁endometriosis	-11.2131
▁revealing	-11.2131
▁thick	-11.2136
▁allocation	-11.2137
▁HbA	-11.2139
▁quasi	-11.214
▁mind	-11.2141
▁BALB	-11.2141
RC	-11.2143
▁stabilized	-11.2145
▁grouped	-11.2146
▁luminal	-11.2149
▁Class	-11.2149
▁tunnel	-11.2152
▁impedance	-11.2153
lip	-11.2155
1.5	-11.2155
▁volatile	-11.2156
▁confounding	-11.2158
▁pmol	-11.216
▁Score	-11.2161
▁97	-11.2161
ach	-11.2161
▁interpret	-11.2167
▁coordinated	-11.2168
▁Accordingly	-11.217
▁cosmetic	-11.2176
▁segmental	-11.2177
▁engage	-11.2177
ier	-11.2178
▁MO	-11.2185
▁signature	-11.2188
▁sharp	-11.2191
▁sequelae	-11.2192
▁ecosystem	-11.2193
▁California	-11.2193
▁College	-11.2194
stimulating	-11.2194
▁biomechanical	-11.2194
suppression	-11.2195
▁94	-11.2196
UV	-11.22
▁chiral	-11.2201
GB	-11.2202
ological	-11.2206
08	-11.2208
tropic	-11.2208
▁trajectories	-11.2209
FR	-11.2213
▁hygiene	-11.2213
▁oocyte	-11.2217
▁Before	-11.2218
▁vertebrate	-11.2218
▁adolescence	-11.2219
▁racial	-11.2219
▁Her	-11.2219
born	-11.2221
▁identifies	-11.2222
▁effusion	-11.2223
Arg	-11.2227
linear	-11.2228
GI	-11.223
▁3.8	-11.223
▁medicinal	-11.2234
▁phospholipids	-11.2234
▁differently	-11.2234
▁follicle	-11.2234
▁yellow	-11.2236
▁albicans	-11.2237
▁stationary	-11.2237
▁And	-11.2238
▁anal	-11.224
▁fibrous	-11.2241
ometry	-11.2242
▁lives	-11.2246
LF	-11.2247
2�	-11.2252
▁felt	-11.2253
▁microbiome	-11.2255
▁routes	-11.2256
▁constitutive	-11.2257
▁mesh	-11.2257
▁ultrasonic	-11.2257
▁autoantibodies	-11.2257
▁indirectly	-11.2257
▁mentioned	-11.2257
▁dissolved	-11.226
metric	-11.2261
OP	-11.2261
▁dissolution	-11.2262
▁crossover	-11.2262
▁allocated	-11.2269
▁arsenic	-11.2271
▁margins	-11.2271
▁MCF	-11.2272
▁retro	-11.2272
▁hope	-11.2275
▁0%	-11.2275
▁assistance	-11.2275
neurotransmitter	-11.228
▁synovial	-11.2284
mes	-11.2288
3.3	-11.2292
▁Phase	-11.2294
▁MV	-11.2295
▁ethyl	-11.23
▁esophagus	-11.2301
▁fibre	-11.2304
▁RE	-11.2305
▁links	-11.2306
▁disrupted	-11.2307
▁patency	-11.2308
▁patho	-11.2309
▁HE	-11.2312
▁phospholipase	-11.2312
ino	-11.2313
▁meaning	-11.2315
▁SCC	-11.2317
▁thrombus	-11.2319
▁operational	-11.2321
▁Whether	-11.2321
VO	-11.2322
▁cuff	-11.2323
▁geometric	-11.2323
▁contrary	-11.2324
▁endotoxin	-11.2325
▁brought	-11.2326
▁maize	-11.2326
center	-11.2326
▁2020	-11.2326
target	-11.2329
nic	-11.233
�=�1	-11.2331
▁meso	-11.2331
▁cationic	-11.2336
arm	-11.2337
▁OC	-11.2339
cadherin	-11.2344
▁definite	-11.2345
▁art	-11.2345
▁ultrastructural	-11.2346
▁MDR	-11.2346
▁actually	-11.2346
▁plasminogen	-11.2348
▁designing	-11.235
▁dissemination	-11.235
▁Indeed	-11.2352
ants	-11.2354
▁Fifteen	-11.2354
7%)	-11.2359
▁avoided	-11.2359
▁tubes	-11.2362
▁mobilization	-11.2363
▁cloning	-11.2364
▁shifted	-11.2366
▁Ha	-11.2366
▁neoplasm	-11.2367
ntihypertensive	-11.2367
▁addiction	-11.2368
▁broader	-11.2371
▁4.2	-11.2374
▁teams	-11.2374
thrombocytopenia	-11.2376
DH	-11.2377
▁metrics	-11.2377
▁harmful	-11.2382
▁thereafter	-11.2384
▁conjugate	-11.2385
▁Diagnostic	-11.2386
▁bis	-11.2388
▁confirms	-11.2394
▁monthly	-11.2395
▁poisoning	-11.2396
band	-11.2397
▁codes	-11.2398
▁striking	-11.2399
▁14%	-11.2402
▁lactation	-11.2403
▁uterus	-11.2406
▁move	-11.2407
▁crisis	-11.2408
▁detector	-11.2411
modified	-11.2412
▁pharmacy	-11.2412
▁locomotor	-11.2415
▁immunized	-11.2416
▁specialist	-11.2418
▁checkpoint	-11.2423
▁cone	-11.2427
▁TS	-11.2428
▁tryptophan	-11.2429
▁EMG	-11.2429
▁exerted	-11.243
▁extending	-11.2431
▁osteo	-11.2434
▁penicillin	-11.2435
Re	-11.2437
▁terminals	-11.2437
clinical	-11.244
▁mal	-11.2441
▁sharing	-11.2441
▁tailored	-11.2441
6%)	-11.2441
▁creation	-11.2442
▁exploratory	-11.2444
▁reagents	-11.2445
▁11%	-11.2447
loaded	-11.2448
▁osmotic	-11.2449
▁viewed	-11.245
▁favor	-11.245
methoxy	-11.2454
affinity	-11.2454
▁replace	-11.2455
▁weakly	-11.2459
▁17%	-11.246
▁hydrogel	-11.246
mal	-11.2463
▁SCI	-11.2464
ef	-11.2468
-40	-11.2468
▁intron	-11.2468
▁absorbed	-11.2471
▁prepare	-11.2473
▁mixing	-11.2473
▁EM	-11.2474
▁overexpressed	-11.2475
total	-11.2476
▁detrimental	-11.2477
▁deleterious	-11.2477
fe	-11.2479
post	-11.2483
▁crystalline	-11.2486
▁reacted	-11.2487
NI	-11.2491
▁allergen	-11.2492
▁interactive	-11.2492
▁twin	-11.2492
▁arrangement	-11.2493
▁cadmium	-11.2493
AIDS	-11.2494
channel	-11.2494
▁taste	-11.2494
▁robotic	-11.2495
ual	-11.2496
ealand	-11.2496
nO	-11.2496
▁microtubule	-11.2501
▁angioplasty	-11.2502
▁allo	-11.2503
▁tea	-11.2507
▁rodent	-11.2508
▁herpes	-11.2509
▁SW	-11.2509
▁intensities	-11.2511
soluble	-11.2514
▁Golgi	-11.2516
sized	-11.2519
▁East	-11.252
▁disabilities	-11.252
▁Another	-11.2521
▁Experiments	-11.2521
▁clients	-11.2534
pt	-11.2534
GE	-11.2534
▁electrolyte	-11.2537
▁Follow	-11.2537
cyclophosphamide	-11.2538
▁desirable	-11.2538
▁percentages	-11.2544
0.8	-11.2544
▁advice	-11.2547
▁captured	-11.2549
▁afferent	-11.2549
▁senescence	-11.255
▁cytoskeleton	-11.255
000	-11.2556
late	-11.2557
▁13%	-11.2557
▁rings	-11.2558
lar	-11.2559
▁Pr	-11.256
HB	-11.2561
▁acceleration	-11.2563
meter	-11.2563
▁workplace	-11.2564
label	-11.2564
▁exploring	-11.2566
▁Small	-11.2566
▁transforming	-11.2567
▁abdomen	-11.2568
▁elbow	-11.2568
▁expensive	-11.2568
▁Ma	-11.2569
▁caffeine	-11.257
▁sac	-11.2573
cc	-11.2574
linking	-11.2574
▁immunoreactive	-11.2574
▁stones	-11.2576
▁VI	-11.2578
▁caudal	-11.2578
▁91	-11.2582
▁0.07	-11.2582
2]	-11.2585
▁highlighting	-11.2586
▁organizational	-11.2587
▁contemporary	-11.2588
port	-11.259
▁discontinuation	-11.2593
▁module	-11.2594
▁Monte	-11.2595
▁orders	-11.2596
▁hemo	-11.2603
▁GS	-11.2603
▁utilize	-11.2605
▁gallbladder	-11.2606
▁medicines	-11.2607
▁IA	-11.2608
▁OP	-11.2608
▁generic	-11.2608
BS	-11.2609
ular	-11.2609
▁Upon	-11.2609
▁breakdown	-11.2611
ay	-11.2612
▁apart	-11.2616
▁Saccharomyces	-11.2618
▁regime	-11.2618
▁sole	-11.2623
▁nodal	-11.2623
approximately	-11.2625
4%)	-11.2625
▁Liver	-11.2627
▁topics	-11.2627
▁Spanish	-11.2629
▁rodents	-11.2631
▁confirmation	-11.2631
▁anesthetized	-11.2633
▁Global	-11.2634
▁citrate	-11.2636
+)	-11.2638
▁33%	-11.2646
▁Italy	-11.2649
8),	-11.2649
▁disrupt	-11.265
-24	-11.2651
▁folate	-11.2652
▁interplay	-11.2652
eri	-11.2652
coupled	-11.2653
▁brainstem	-11.2658
ping	-11.266
▁harvested	-11.2664
▁Americans	-11.2667
▁surrogate	-11.2668
▁pollutants	-11.2671
▁lag	-11.2675
▁stigma	-11.2678
▁conducting	-11.2679
ice	-11.2684
tissue	-11.2687
▁assumptions	-11.2689
▁downregulated	-11.269
so	-11.2692
▁relies	-11.2696
▁adapt	-11.2698
▁boy	-11.2698
PEG	-11.2699
ible	-11.2699
▁loads	-11.27
▁detachment	-11.2701
aria	-11.2701
▁therapeutics	-11.2702
▁lysosomal	-11.2705
only	-11.2707
▁sustainable	-11.271
▁140	-11.2711
▁seconds	-11.2711
▁spreading	-11.2713
▁alkyl	-11.2716
▁0.08	-11.2718
▁substituted	-11.2718
▁forearm	-11.2719
▁labelled	-11.272
uria	-11.2722
▁Few	-11.2723
back	-11.2729
▁typing	-11.2731
▁solely	-11.2732
/10	-11.2735
▁rod	-11.2735
▁Rats	-11.2738
▁hydroxyl	-11.274
sociodemographic	-11.274
▁entities	-11.2742
▁6.5	-11.2746
hazard	-11.275
▁functionality	-11.2751
▁dB	-11.2751
=3	-11.2755
▁hamster	-11.2756
▁(0	-11.2761
▁representations	-11.2761
▁originally	-11.2762
ethylene	-11.2762
her	-11.2765
4(+)	-11.2765
▁MSCs	-11.2765
▁imbalance	-11.2766
▁hydrophilic	-11.2767
▁corpus	-11.2767
▁origins	-11.2768
▁helix	-11.2771
eal	-11.2773
▁Car	-11.2773
▁front	-11.2775
▁machinery	-11.2777
▁efficacious	-11.2779
▁gradual	-11.2781
▁multidrug	-11.2783
▁refractive	-11.2783
▁visualized	-11.279
▁Knowledge	-11.279
▁somewhat	-11.2791
▁HB	-11.2791
▁grades	-11.2792
▁4.1	-11.2793
9),	-11.2794
▁suspicion	-11.2795
▁incorporate	-11.2795
▁supplement	-11.2796
VS	-11.2797
▁About	-11.2798
4;	-11.2799
▁fifth	-11.2801
▁drought	-11.2802
▁Italian	-11.2802
▁integrin	-11.2802
▁suicidal	-11.2804
▁avian	-11.2804
▁brown	-11.2811
▁Ne	-11.2812
▁integrate	-11.2813
administered	-11.2813
▁regularly	-11.2813
▁couples	-11.2816
▁lysis	-11.2816
mann	-11.2821
▁decompression	-11.2823
ov	-11.2824
▁hands	-11.2824
value	-11.2826
▁homes	-11.2827
▁endpoints	-11.2829
▁AV	-11.2829
sen	-11.2832
▁messenger	-11.2834
▁Brain	-11.2834
LPS	-11.284
pine	-11.284
deoxy	-11.2847
▁downregulation	-11.2848
▁reflection	-11.2852
▁bridge	-11.2852
▁span	-11.2855
Tc	-11.2856
▁helps	-11.2859
4/	-11.286
both	-11.2861
▁menstrual	-11.2863
▁eradication	-11.2865
▁HeLa	-11.2865
▁spot	-11.2867
▁130	-11.2867
rated	-11.2868
▁cutoff	-11.2868
▁ultraviolet	-11.2869
▁thorough	-11.287
▁Black	-11.287
(50)	-11.2872
▁TiO	-11.2874
▁ends	-11.2875
▁(200	-11.288
▁documentation	-11.2881
▁sagittal	-11.2881
▁bones	-11.2883
▁proteases	-11.2883
lysis	-11.2884
▁TT	-11.2884
▁sh	-11.2886
SOD	-11.2888
RL	-11.2888
▁PCI	-11.2889
▁excited	-11.289
▁simply	-11.289
▁entirely	-11.2891
▁insects	-11.2894
▁islet	-11.2898
▁45%	-11.2899
▁priming	-11.29
bu	-11.29
nes	-11.2901
mode	-11.2902
▁ALS	-11.2902
▁military	-11.2904
▁cations	-11.2905
▁particulate	-11.2905
▁gels	-11.2905
▁regurgitation	-11.2909
▁Ga	-11.291
▁substitutions	-11.2911
▁radioactivity	-11.2912
vis	-11.2913
strand	-11.2917
▁births	-11.2918
-/-	-11.2922
▁acupuncture	-11.2924
▁bundle	-11.2927
infection	-11.2929
▁France	-11.293
▁synthetase	-11.2933
▁Notch	-11.2933
▁compromised	-11.2935
▁vast	-11.2935
▁incremental	-11.2939
▁Diabetes	-11.294
▁grading	-11.294
surgical	-11.2941
▁avoiding	-11.2943
ham	-11.2944
▁propofol	-11.2945
▁differentiating	-11.2947
▁ICD	-11.2948
▁enlargement	-11.2954
▁aberrations	-11.2955
▁105	-11.2959
▁cardio	-11.296
Si	-11.2961
mus	-11.2962
aceae	-11.2963
▁Cardiac	-11.2963
▁spatially	-11.2967
▁Adult	-11.2968
▁rationale	-11.297
▁toxins	-11.2971
▁catheterization	-11.2972
sk	-11.2972
▁scarce	-11.2973
▁sc	-11.2976
▁semen	-11.2977
▁fibro	-11.2978
epi	-11.2981
ern	-11.2983
Ns	-11.2985
▁dilation	-11.2985
▁fabrication	-11.2985
▁interventional	-11.2986
▁falciparum	-11.2986
▁16%	-11.2992
▁plots	-11.2993
▁cerebrovascular	-11.2994
▁lamina	-11.2994
▁fungus	-11.2996
▁prototype	-11.2997
▁compromise	-11.2999
▁originating	-11.3002
):	-11.3002
▁phenyl	-11.3002
▁PK	-11.3007
ECs	-11.3009
▁esters	-11.3012
▁unlike	-11.3014
▁cytogenetic	-11.3015
▁Stage	-11.3016
▁pretreated	-11.3016
▁serological	-11.3019
▁bar	-11.3021
▁OCT	-11.3024
▁instances	-11.3027
▁judged	-11.3029
▁IOP	-11.3029
▁battery	-11.303
VEGF	-11.3033
▁me	-11.3034
▁HI	-11.3034
▁go	-11.3035
<0.01).	-11.3035
▁Case	-11.3037
▁chitosan	-11.3041
▁clamp	-11.3046
▁extinction	-11.3049
▁manifested	-11.305
▁Korea	-11.3056
600	-11.3056
▁discomfort	-11.3058
▁linking	-11.3059
▁humoral	-11.306
din	-11.3061
▁doctor	-11.3061
▁irregular	-11.3062
▁MF	-11.3062
cyclic	-11.3064
▁collaborative	-11.3065
EV	-11.3069
limiting	-11.307
▁3'-	-11.3071
ified	-11.3072
▁resolve	-11.3073
▁Fas	-11.3078
gi	-11.3079
▁paid	-11.3084
▁MK	-11.3089
▁survive	-11.3092
▁tracer	-11.3092
▁18%	-11.3094
CAM	-11.3096
substituted	-11.3097
▁ME	-11.3099
▁selecting	-11.31
▁primer	-11.3101
▁deal	-11.3102
▁infused	-11.3105
▁solvents	-11.3105
SG	-11.3106
aemia	-11.3108
▁saturated	-11.3108
▁Positive	-11.3108
sc	-11.3112
▁Network	-11.3118
rus	-11.3121
▁morning	-11.3122
▁Complete	-11.3123
fa	-11.3127
▁cyto	-11.3127
7.5	-11.3128
▁convenient	-11.3128
▁successive	-11.3128
▁scaling	-11.313
▁Go	-11.3132
▁dominated	-11.3133
translational	-11.3135
▁puncture	-11.3136
▁parenteral	-11.314
▁ACL	-11.3143
▁atmospheric	-11.3147
HE	-11.315
fer	-11.3151
▁circuits	-11.3152
▁trajectory	-11.3154
▁phenolic	-11.3154
▁implies	-11.3154
▁rearrangement	-11.3155
▁postsynaptic	-11.3155
▁accumulate	-11.3159
▁trade	-11.316
host	-11.316
▁pi	-11.316
▁satisfied	-11.3161
0).	-11.3168
▁ductal	-11.3169
▁moral	-11.3176
▁strengths	-11.3178
▁definitions	-11.3178
work	-11.3182
▁chronically	-11.3183
▁road	-11.3189
▁1�	-11.3189
▁approval	-11.319
▁employees	-11.3191
92	-11.3193
▁iliac	-11.3194
▁killer	-11.3194
economic	-11.3194
▁proinflammatory	-11.3196
▁indomethacin	-11.3197
VT	-11.3197
▁explores	-11.32
▁altering	-11.32
▁silicon	-11.3201
▁Review	-11.3203
▁Wnt	-11.3208
▁proteinuria	-11.3209
▁nanoparticle	-11.3209
▁fitted	-11.321
hi	-11.3213
▁bilirubin	-11.3214
2.6	-11.3217
▁1:1	-11.322
▁fuel	-11.322
▁recurrences	-11.322
▁importantly	-11.3222
▁7,	-11.3223
dimethyl	-11.3224
▁disseminated	-11.3225
▁illnesses	-11.3227
▁OH	-11.3227
▁balanced	-11.3228
▁vasopressin	-11.3229
rid	-11.3235
▁proof	-11.3235
▁pulsed	-11.3235
▁What	-11.3239
ud	-11.3239
▁anticoagulation	-11.3242
▁amongst	-11.3242
▁eu	-11.3245
▁mtDNA	-11.3246
▁GO	-11.3246
0.6	-11.3248
▁interfering	-11.3249
�=�0	-11.325
▁digestive	-11.3254
▁exerts	-11.3254
2%)	-11.3255
▁cesarean	-11.3255
▁antisense	-11.3256
intensity	-11.3259
3.8	-11.3264
morph	-11.3264
▁000	-11.3267
▁paclitaxel	-11.3267
Ab	-11.3268
▁phyto	-11.327
▁Os	-11.3271
▁CFU	-11.3271
▁read	-11.3272
▁photon	-11.3275
▁IT	-11.3276
▁glutamine	-11.3278
▁format	-11.328
▁comorbid	-11.3284
▁proximity	-11.3285
▁attended	-11.3287
▁reagent	-11.3287
third	-11.3287
3%)	-11.329
▁aggression	-11.3291
miR	-11.3301
metry	-11.3305
▁delays	-11.3306
1.3	-11.331
▁Magnetic	-11.3319
▁transcriptome	-11.3319
▁axillary	-11.3323
▁psychosis	-11.3324
▁choices	-11.3325
we	-11.3326
▁modeled	-11.3327
ELISA	-11.3327
▁65%	-11.3331
ho	-11.3331
▁teachers	-11.3337
HDL	-11.3339
propyl	-11.3344
▁physicochemical	-11.3348
face	-11.3352
ening	-11.3352
▁CRF	-11.3356
ADP	-11.3358
OM	-11.3361
OX	-11.3363
▁cooling	-11.3364
▁Rh	-11.3366
▁CCR	-11.3366
myc	-11.3369
▁exons	-11.3373
▁corticosteroid	-11.3375
▁.001).	-11.3376
ong	-11.3379
▁girl	-11.338
▁Laboratory	-11.3383
minute	-11.3384
functional	-11.3387
▁salts	-11.3388
▁updated	-11.3389
met	-11.3389
istopathological	-11.3391
▁NAD	-11.3393
▁DP	-11.3394
▁Renal	-11.3394
▁realistic	-11.3401
▁skill	-11.3401
HV	-11.3403
disciplinary	-11.3404
▁Registry	-11.3405
▁blocker	-11.3407
▁deviations	-11.3409
ep	-11.3409
effect	-11.341
GD	-11.341
▁morphologic	-11.341
▁imply	-11.3411
3.1	-11.3416
ato	-11.3419
▁Consistent	-11.342
onic	-11.342
ogenesis	-11.3423
00	-11.3425
ard	-11.3426
FL	-11.3427
▁persist	-11.3428
▁Tissue	-11.3429
gp	-11.343
▁160	-11.3433
ick	-11.3438
▁boundaries	-11.344
▁blind	-11.344
▁stretch	-11.3441
LL	-11.3443
▁develops	-11.3452
▁inhaled	-11.3452
▁9%	-11.3453
▁alternatives	-11.3456
releasing	-11.3458
▁EA	-11.3458
▁neutralizing	-11.3462
▁accessory	-11.3462
▁dead	-11.3463
▁DE	-11.3467
▁dentin	-11.347
6.5	-11.347
▁chickens	-11.3474
(-1),	-11.3476
▁stepwise	-11.3477
▁lambda	-11.3478
▁residence	-11.3479
▁Glu	-11.3479
▁atopic	-11.3479
▁consist	-11.3481
▁stereo	-11.3482
▁FP	-11.3492
ish	-11.3497
▁Res	-11.35
▁compensation	-11.3501
▁stroma	-11.3502
▁assembled	-11.3503
▁lectin	-11.3504
▁cryo	-11.3504
▁break	-11.3507
▁aldosterone	-11.351
7.8%	-11.351
▁encephalopathy	-11.3511
cy	-11.3512
▁alternate	-11.3512
press	-11.3514
▁polyclonal	-11.3517
▁intercellular	-11.3517
▁rh	-11.3518
pathy	-11.3519
▁chapter	-11.3519
▁inversion	-11.3523
▁precisely	-11.3526
cost	-11.3528
▁im	-11.3531
▁flight	-11.3531
▁triggers	-11.3531
▁monomer	-11.3532
▁engaged	-11.3534
▁tightly	-11.3535
fos	-11.3539
",	-11.3542
▁underlie	-11.3545
▁3.9	-11.3546
▁dilated	-11.3547
OD	-11.3547
+/	-11.3548
▁contraceptive	-11.3549
▁ML	-11.3553
▁specialists	-11.3557
▁Inc	-11.3559
▁constitutes	-11.356
MMP	-11.3562
▁correspond	-11.3564
▁ease	-11.3564
▁whereby	-11.3564
dia	-11.3566
▁mosquito	-11.3567
▁Ras	-11.3567
▁Ar	-11.357
▁ecosystems	-11.357
▁outflow	-11.357
▁bromide	-11.3573
▁electrophoretic	-11.3574
uff	-11.3576
▁reservoir	-11.3577
▁Plasmodium	-11.3579
▁genotyping	-11.3579
Delta	-11.3582
▁vaccinated	-11.3582
▁chimeric	-11.3589
▁CCK	-11.3591
▁covariates	-11.3594
SCC	-11.3597
▁CN	-11.3601
▁properly	-11.3602
FDG	-11.3604
▁consumers	-11.3605
0.00	-11.3606
▁Am	-11.3608
-67	-11.3609
▁deficiencies	-11.361
▁postulated	-11.3611
▁calf	-11.3612
ley	-11.3613
▁4.3	-11.3614
DT	-11.3615
▁spots	-11.3616
▁planar	-11.3616
▁plateau	-11.3616
▁compact	-11.3618
▁security	-11.3619
▁rising	-11.362
▁adsorbed	-11.3623
ver	-11.3624
▁Men	-11.3626
▁CG	-11.3629
▁cue	-11.3632
▁granular	-11.3633
virus	-11.3634
▁familiar	-11.3636
▁leadership	-11.3644
▁inability	-11.3645
▁fire	-11.3646
▁excised	-11.3647
▁calls	-11.365
▁transcriptase	-11.3652
▁0.99	-11.3652
reperfusion	-11.3653
atus	-11.3654
▁heterologous	-11.3655
▁permit	-11.3656
▁office	-11.3656
▁corresponded	-11.3657
▁Background	-11.3657
he	-11.3658
▁react	-11.3658
UR	-11.3662
▁projects	-11.3663
▁Pediatric	-11.3665
1�	-11.3665
SCs	-11.3667
▁political	-11.3668
▁stochastic	-11.367
oxide	-11.367
▁addresses	-11.3673
▁tubules	-11.3674
DL	-11.3675
▁modules	-11.3676
▁unnecessary	-11.3677
▁repression	-11.3679
▁competing	-11.368
▁yielding	-11.368
▁latest	-11.3684
▁ascending	-11.3685
▁1988	-11.3687
▁polarity	-11.369
8%)	-11.369
▁Collectively	-11.369
▁physically	-11.3692
▁negligible	-11.3692
5.5	-11.3692
genetic	-11.3694
Met	-11.3697
▁Survival	-11.3698
TX	-11.3698
class	-11.3699
▁methodologies	-11.3699
▁possesses	-11.3702
▁platinum	-11.3702
▁LP	-11.3704
▁immobilization	-11.3708
▁1989	-11.3709
▁Rho	-11.3709
▁nude	-11.3712
▁(5)	-11.3712
EE	-11.3712
▁today	-11.3714
▁lasting	-11.3715
ivity	-11.3719
▁somatostatin	-11.3724
▁haplotypes	-11.3724
▁ab	-11.3726
▁soon	-11.3727
▁strict	-11.3728
▁gains	-11.3728
▁trust	-11.3733
▁subtle	-11.3734
ations	-11.3734
rank	-11.3736
▁commitment	-11.3736
part	-11.3736
▁pyruvate	-11.3738
Glu	-11.3739
▁MRSA	-11.3739
▁hypothesize	-11.3739
HO	-11.374
targeted	-11.3741
▁globally	-11.3741
▁conscious	-11.3742
WS	-11.3743
cut	-11.3744
▁paraffin	-11.3746
▁surgeries	-11.3746
▁permits	-11.3747
▁alive	-11.3748
▁urethral	-11.3749
▁laparotomy	-11.375
▁explicit	-11.3751
▁ethnicity	-11.3753
Ala	-11.3754
▁21%	-11.3756
graph	-11.3757
▁Outcomes	-11.3758
▁Fourteen	-11.3759
▁venom	-11.3761
▁breaks	-11.3763
▁psychometric	-11.3764
▁neuroblastoma	-11.3764
▁deposited	-11.3764
standard	-11.3765
▁supplements	-11.3768
▁4.6	-11.377
▁England	-11.3772
▁patches	-11.3773
▁thiol	-11.3776
▁granule	-11.3776
▁ordered	-11.3777
▁MN	-11.3777
▁6.0	-11.3779
▁hydrochloride	-11.3779
▁immunoassay	-11.3781
sec	-11.3782
CAT	-11.3783
-25	-11.3783
▁10(6)	-11.3783
▁FL	-11.3784
▁inactivated	-11.3786
▁22%	-11.3786
▁necessarily	-11.3787
para	-11.3789
▁DL	-11.3792
▁victims	-11.3792
▁EMBASE	-11.3792
▁glioblastoma	-11.3795
nuclear	-11.3799
▁regenerative	-11.3802
Gly	-11.3804
▁concordance	-11.3807
tes	-11.3808
2.7	-11.3808
▁revised	-11.3811
▁Standard	-11.3811
▁Large	-11.3812
▁chemokine	-11.3812
established	-11.3812
▁sputum	-11.3815
▁amplitudes	-11.3815
▁q	-11.3816
▁overload	-11.3816
▁hydroxy	-11.3821
▁conflicting	-11.3821
▁conjugates	-11.3823
▁tropical	-11.3824
▁Brazilian	-11.3824
▁scheduled	-11.3824
▁rotational	-11.3825
genesis	-11.3826
▁progenitors	-11.3827
BB	-11.3827
temporal	-11.3829
Fs	-11.3832
▁Clinic	-11.3835
▁necessity	-11.3843
▁technological	-11.3844
▁modulates	-11.3844
▁Conclusion	-11.3845
▁0.15	-11.3845
lan	-11.3848
▁monkey	-11.3849
▁hysterectomy	-11.3851
▁isotope	-11.3851
ON	-11.3852
▁Addition	-11.3855
SN	-11.3858
1.2	-11.3858
▁recover	-11.3859
▁spaces	-11.3863
▁Aspergillus	-11.3867
▁die	-11.3867
▁Act	-11.387
▁DI	-11.3873
▁seek	-11.3874
▁gingival	-11.3876
▁acetyl	-11.3878
��	-11.3879
▁hematoma	-11.388
▁23%	-11.3884
50%	-11.3884
▁segregation	-11.3886
▁SPECT	-11.3887
▁keratinocytes	-11.3887
▁alcoholic	-11.3888
▁district	-11.3888
▁ether	-11.3889
rum	-11.389
▁forensic	-11.3893
▁pose	-11.3896
▁funding	-11.39
average	-11.3901
▁duplication	-11.3908
▁emphasized	-11.3909
9-	-11.391
▁intrauterine	-11.3911
ble	-11.3914
alkyl	-11.3915
ERK	-11.3916
▁audit	-11.3917
▁epinephrine	-11.392
]).	-11.392
PAGE	-11.3921
▁enlarged	-11.3924
▁cooperation	-11.3925
▁notably	-11.3926
6.6%	-11.3926
▁selenium	-11.3929
▁Carlo	-11.3929
▁track	-11.3931
3.7	-11.3933
▁solve	-11.3934
▁Factors	-11.3935
cus	-11.3938
our	-11.3938
▁polypeptides	-11.394
6.4%	-11.3942
▁Samples	-11.3942
▁comprises	-11.3942
Ph	-11.3943
▁accident	-11.3944
loss	-11.3944
▁dysregulation	-11.3945
loop	-11.3946
▁belong	-11.3947
▁Previously	-11.3948
3�	-11.3949
▁extremities	-11.395
▁dislocation	-11.3951
▁apolipoprotein	-11.3952
▁Prior	-11.3952
▁stool	-11.3953
trophic	-11.3954
▁stressors	-11.3954
▁vancomycin	-11.3955
▁radioactive	-11.3961
▁serotype	-11.3963
▁linearly	-11.3965
▁Taiwan	-11.3965
▁striatal	-11.3968
▁hyperglycemia	-11.3968
KO	-11.3968
▁missed	-11.3969
▁PN	-11.397
ck	-11.3972
gov	-11.3972
▁problematic	-11.3974
10)	-11.3974
▁oncogenic	-11.3976
(5)	-11.3976
▁truncated	-11.3977
▁u	-11.3978
▁Cys	-11.3978
▁fruits	-11.3978
▁Child	-11.398
400	-11.3981
▁answer	-11.3982
▁Major	-11.3982
fil	-11.3984
▁ice	-11.3985
▁thirty	-11.3986
▁bilayer	-11.3987
traumatic	-11.3992
▁presumed	-11.3994
▁omega	-11.3995
▁tablets	-11.3996
▁managers	-11.3999
▁diameters	-11.3999
▁kcal	-11.4
▁composites	-11.4001
1.4	-11.4002
▁BW	-11.4002
▁ascites	-11.4002
▁angular	-11.4004
▁%)	-11.4004
▁integrating	-11.4004
▁confer	-11.4005
oside	-11.4005
▁initiating	-11.4006
ee	-11.4008
▁sediments	-11.4013
▁neuroprotective	-11.4013
CNS	-11.4015
▁FEV	-11.4016
▁foundation	-11.4017
▁taxonomic	-11.4018
inus	-11.4019
reactivity	-11.4019
der	-11.4022
▁(22	-11.4024
▁psychotic	-11.4025
▁evolving	-11.4026
▁microglia	-11.4026
▁microwave	-11.4028
▁contextual	-11.4033
▁waiting	-11.4033
▁diagnostics	-11.4033
med	-11.4034
▁Sixteen	-11.4036
▁positron	-11.4036
opathy	-11.4037
▁depended	-11.4038
▁Logistic	-11.4039
AV	-11.4043
▁periodontitis	-11.4044
▁Hsp	-11.4045
▁acquire	-11.4047
▁NPC	-11.4047
au	-11.405
▁postural	-11.4051
ka	-11.4051
▁resultant	-11.4054
▁Caucasian	-11.4055
ug	-11.4056
▁amputation	-11.4056
▁toxicities	-11.4061
▁Leu	-11.4062
cul	-11.4062
▁dengue	-11.4062
gal	-11.4063
▁removing	-11.4065
▁illustrates	-11.4065
▁Spain	-11.4069
▁Pa	-11.4073
▁walk	-11.4078
▁Grade	-11.4079
▁polyps	-11.408
▁dedicated	-11.4081
▁(+/-	-11.4081
gated	-11.4085
ides	-11.4089
7;	-11.4091
▁GTP	-11.4091
▁1:	-11.4091
▁smear	-11.4093
▁River	-11.4095
▁ANOVA	-11.4098
▁18-	-11.4099
▁brains	-11.4099
LO	-11.41
▁thickening	-11.4102
▁methotrexate	-11.4103
▁blast	-11.4103
▁leak	-11.4104
ICU	-11.4104
▁discussions	-11.4104
▁Local	-11.4106
▁glycoproteins	-11.411
▁tolerability	-11.411
▁0.5%	-11.411
76	-11.411
▁Visual	-11.4111
Ni	-11.4114
hand	-11.4115
▁orthodontic	-11.4118
▁coil	-11.4118
▁emotions	-11.4122
▁Met	-11.4123
▁totally	-11.4124
▁islets	-11.4126
▁Electro	-11.4128
▁blockers	-11.4128
3.6	-11.413
▁Initial	-11.4132
▁encourage	-11.4136
▁PDGF	-11.4136
qu	-11.4137
▁7.0	-11.4139
▁mandatory	-11.4139
▁beads	-11.4141
▁microsomes	-11.4142
▁ortho	-11.4143
logic	-11.4145
Ser	-11.4147
▁0.75	-11.4149
LN	-11.415
▁travel	-11.4151
▁texture	-11.4151
▁backbone	-11.4153
▁OF	-11.4153
catalyzed	-11.4154
vitro	-11.4157
Es	-11.4158
graphy	-11.4158
▁24%	-11.4159
▁sphincter	-11.416
▁malnutrition	-11.416
▁Family	-11.4161
Mo	-11.4161
IGF	-11.4164
▁Factor	-11.4164
▁polyethylene	-11.4165
▁worsening	-11.4166
▁myocytes	-11.4167
▁generates	-11.4167
▁antioxidants	-11.4168
▁anticoagulant	-11.4169
▁noradrenaline	-11.4171
Phe	-11.4173
phosphorylation	-11.4173
▁expanding	-11.4174
▁FM	-11.4174
rp	-11.4175
▁traditionally	-11.4175
minotransferase	-11.4175
▁9-	-11.4177
rat	-11.4177
▁patent	-11.4179
▁filters	-11.4181
▁vasculature	-11.4182
▁Body	-11.4183
▁Analyses	-11.4185
▁Surprisingly	-11.4187
▁expertise	-11.4188
▁manifest	-11.4188
▁helical	-11.4189
ever	-11.4191
▁ascertain	-11.4193
ids	-11.4193
▁airways	-11.4199
▁fitting	-11.42
▁CEA	-11.42
▁waist	-11.42
▁epidermis	-11.4203
=2	-11.4205
▁exclude	-11.4206
▁vertebrates	-11.4207
▁blinded	-11.421
▁aggregate	-11.421
▁Normal	-11.4211
0.0%	-11.4212
4.3	-11.4214
lateral	-11.4216
▁Library	-11.4219
▁immunostaining	-11.4219
▁ubiquitous	-11.422
▁ferritin	-11.4223
▁herbal	-11.4225
qui	-11.4226
▁ha	-11.4229
▁lenses	-11.423
▁ulcerative	-11.4233
▁FC	-11.4236
▁accidents	-11.4237
▁swine	-11.4238
▁stimulatory	-11.4239
▁combine	-11.4241
▁parenchyma	-11.4243
▁100,000	-11.4243
▁failures	-11.4244
8.8%	-11.4248
▁malformation	-11.4249
▁oriented	-11.4249
▁journals	-11.4251
▁normotensive	-11.4251
▁pesticides	-11.4253
▁stakeholders	-11.4253
▁vegetation	-11.4256
▁hold	-11.4257
4.5	-11.4257
mRNA	-11.4258
▁BDNF	-11.4258
lipid	-11.4258
6.2%	-11.4259
▁occasionally	-11.4259
▁docking	-11.4264
▁solitary	-11.4267
MSCs	-11.4269
▁farm	-11.4269
▁neuroimaging	-11.427
▁outpatients	-11.4275
which	-11.4278
▁excitability	-11.4278
▁rearrangements	-11.428
▁(21	-11.4281
GG	-11.4282
HPV	-11.4288
▁freezing	-11.4289
well	-11.4291
▁7.4	-11.4294
▁impacted	-11.4297
▁aryl	-11.4299
▁choline	-11.4301
CMV	-11.4301
▁luciferase	-11.4305
▁administrative	-11.4305
▁intellectual	-11.4305
▁velocities	-11.4305
▁existed	-11.4309
▁antiserum	-11.4315
▁adenovirus	-11.4317
operated	-11.4318
centered	-11.4319
rt	-11.4319
grams	-11.4321
▁subpopulations	-11.4321
▁ischaemic	-11.4322
▁babies	-11.4326
MAP	-11.4327
▁juice	-11.4329
▁proteasome	-11.433
ix	-11.433
▁clock	-11.4332
▁angiographic	-11.4333
▁tele	-11.4335
▁adjunct	-11.4335
cellular	-11.4335
2.1	-11.4337
▁How	-11.434
▁crops	-11.4341
Ts	-11.4342
▁check	-11.4345
▁histopathology	-11.4345
▁osteotomy	-11.4346
▁specified	-11.435
▁glycemic	-11.4353
▁Demographic	-11.4354
▁scientists	-11.4354
▁photosynthetic	-11.4354
▁pharmacologic	-11.4357
DV	-11.4358
▁torque	-11.4359
metal	-11.4362
cl	-11.4364
surface	-11.4365
▁shapes	-11.4366
score	-11.437
▁exponential	-11.4371
9%)	-11.4377
1%)	-11.4377
▁generations	-11.4379
▁mismatch	-11.438
6;	-11.4382
4�	-11.4389
▁4.4	-11.4391
▁divergent	-11.4395
▁sigma	-11.4397
▁Baseline	-11.44
▁Lung	-11.4402
py	-11.4404
▁mandible	-11.4405
▁platforms	-11.4407
▁broadly	-11.4408
▁covalent	-11.441
▁whilst	-11.4411
▁manufacturing	-11.4413
▁polymeric	-11.4415
ros	-11.4416
▁encouraging	-11.4416
▁Up	-11.4417
▁Mutations	-11.4418
▁curvature	-11.4419
▁xenograft	-11.4419
▁lipoproteins	-11.442
▁Thirteen	-11.4422
8.9%	-11.4424
▁responsibility	-11.4424
▁borderline	-11.4425
▁indexes	-11.4427
▁nodule	-11.4427
▁nitrite	-11.4433
▁Mice	-11.4433
lasting	-11.4433
▁LR	-11.4434
statin	-11.4434
▁look	-11.4434
▁neoadjuvant	-11.4435
▁realized	-11.4437
▁appropriately	-11.4438
▁Measurements	-11.4439
evoked	-11.444
▁ND	-11.4443
FE	-11.4443
5;	-11.4447
▁metformin	-11.4452
▁supernatant	-11.4453
▁methionine	-11.4455
▁APC	-11.4457
];	-11.4458
▁MIC	-11.4469
▁warfarin	-11.4471
▁55%	-11.4472
mit	-11.4475
▁4.8	-11.4476
▁transit	-11.4478
pathological	-11.4479
▁indeed	-11.4482
▁deduced	-11.4482
▁habitats	-11.4482
▁parasitic	-11.449
▁cities	-11.4493
TOF	-11.4497
▁Though	-11.4499
zo	-11.45
▁reserve	-11.45
4.4	-11.4501
-22	-11.451
▁LM	-11.4511
HPLC	-11.4517
▁Next	-11.4518
▁libraries	-11.4518
▁river	-11.4518
▁("	-11.4519
▁preceded	-11.452
top	-11.452
molecule	-11.4522
▁chondrocytes	-11.4522
▁antenatal	-11.4523
radioimmunoassay	-11.4526
diabetic	-11.4528
therapeutic	-11.4528
▁septum	-11.4531
-50	-11.4532
▁subclinical	-11.4533
tomy	-11.4533
▁Do	-11.4534
▁achievement	-11.4534
▁dystrophy	-11.4534
▁NOS	-11.4535
▁biosynthetic	-11.4537
▁FS	-11.454
▁PAH	-11.4541
▁clustered	-11.4542
head	-11.4545
▁AMI	-11.4546
RB	-11.4546
▁104	-11.4546
resistance	-11.4547
▁disappearance	-11.4548
▁proteomic	-11.4549
ris	-11.4551
Leu	-11.4552
▁progressed	-11.4553
▁resilience	-11.4554
▁bring	-11.4555
▁hydration	-11.4555
▁pharmacists	-11.4556
1.0	-11.4558
such	-11.4564
▁collateral	-11.4564
▁transplants	-11.4565
▁accessibility	-11.4565
▁sec	-11.4566
▁Ru	-11.4566
▁vapor	-11.4567
▁lymphocytic	-11.4572
▁cannabis	-11.4576
▁microsomal	-11.4576
▁configurations	-11.4578
▁introducing	-11.4579
▁NGF	-11.458
▁CTL	-11.458
▁conditional	-11.4582
▁pelvis	-11.4584
▁medulla	-11.4584
▁Growth	-11.4584
▁RCTs	-11.4584
net	-11.4585
▁nephrectomy	-11.4585
▁cultivation	-11.4586
Ga	-11.4586
▁stream	-11.4586
▁106	-11.4587
▁sides	-11.4587
▁0.09	-11.4589
▁Fc	-11.459
▁translated	-11.459
▁outline	-11.4592
▁palate	-11.4593
▁CpG	-11.4593
▁epileptic	-11.4595
▁Prevention	-11.4598
▁enhancer	-11.4598
▁SHR	-11.4601
▁lidocaine	-11.4603
bin	-11.4606
▁maximize	-11.4607
▁Severe	-11.4609
▁germination	-11.4612
▁titer	-11.4612
▁siblings	-11.4612
tor	-11.4614
7.4%	-11.4614
▁Notably	-11.4615
▁acidosis	-11.4615
selectin	-11.4615
▁households	-11.4616
▁arachidonic	-11.4617
clo	-11.462
▁Preoperative	-11.462
▁valves	-11.462
▁Embase	-11.4623
▁fMRI	-11.4624
▁FR	-11.4624
▁microbiological	-11.4624
tous	-11.4625
val	-11.4627
▁epsilon	-11.4628
▁Management	-11.4634
▁scintigraphy	-11.4638
▁sparse	-11.4638
▁instrumental	-11.4638
▁surviving	-11.4641
▁Average	-11.4642
noise	-11.4643
▁characterizing	-11.4643
▁natriuretic	-11.4645
▁catalysts	-11.4646
▁programmed	-11.4646
▁vibration	-11.4647
TV	-11.465
▁pocket	-11.465
▁Individual	-11.4651
▁normalization	-11.4653
▁interpersonal	-11.4654
MIC	-11.4657
▁Rating	-11.4658
▁constitutively	-11.4659
▁Outcome	-11.466
IgG	-11.4661
▁custom	-11.4661
▁hepatocyte	-11.4662
▁expiratory	-11.4664
hu	-11.4668
▁des	-11.4669
atory	-11.4671
Hb	-11.4672
▁attentional	-11.4673
4.6	-11.4673
av	-11.4673
▁Po	-11.4675
▁FI	-11.4675
▁metallic	-11.4676
4.2	-11.4676
=0.02	-11.4677
ven	-11.4678
▁corticosterone	-11.4682
limited	-11.4684
▁erythematosus	-11.4684
ura	-11.4686
▁observers	-11.4688
3.9	-11.4689
▁intelligence	-11.469
▁counting	-11.4692
▁Netherlands	-11.4693
world	-11.4693
▁pyramidal	-11.4695
▁Be	-11.4695
▁polysaccharide	-11.4696
▁1987	-11.4697
▁epidemiologic	-11.4706
lu	-11.4707
▁alters	-11.4709
2.3	-11.4709
sing	-11.471
ming	-11.4715
▁Committee	-11.4715
▁Iran	-11.4717
▁distinguishing	-11.4717
mar	-11.4717
inter	-11.4721
▁Mental	-11.4722
▁stain	-11.4726
▁School	-11.4727
▁Diagnosis	-11.4727
▁wood	-11.4727
ke	-11.4728
▁necrotic	-11.4728
▁sheath	-11.473
▁proto	-11.4731
MN	-11.4731
▁19%	-11.4731
NM	-11.4733
▁batch	-11.4737
tis	-11.4738
▁game	-11.4739
▁livers	-11.4739
▁Community	-11.4744
▁Medicaid	-11.4749
▁mechanics	-11.4749
ons	-11.4751
▁glycosylation	-11.4754
▁contaminants	-11.4754
▁sand	-11.4759
membrane	-11.476
▁(60	-11.476
▁hybrids	-11.4762
▁(23	-11.4762
▁0.10	-11.4764
▁Gal	-11.4764
▁le	-11.4765
▁labour	-11.4766
▁Service	-11.4767
til	-11.4767
ai	-11.4767
▁silicone	-11.477
▁DCs	-11.477
9.4%	-11.4771
ek	-11.4771
9;	-11.4772
▁Insulin	-11.4772
▁helper	-11.478
▁morphologically	-11.478
▁Numerous	-11.478
▁circulatory	-11.4781
1.7%	-11.4781
8.5	-11.4781
▁VAS	-11.4781
▁JNK	-11.4783
▁0.02)	-11.4784
▁amine	-11.4784
7.6%	-11.4785
ency	-11.4789
▁skeleton	-11.4789
▁uni	-11.4789
▁phagocytosis	-11.4789
dihydro	-11.479
▁1985	-11.4791
▁encephalitis	-11.4791
▁methane	-11.4792
▁bony	-11.4792
▁qualitatively	-11.4793
▁rhinitis	-11.4794
8.6%	-11.4795
▁27%	-11.4796
UA	-11.4797
▁microsatellite	-11.4799
▁presynaptic	-11.4799
▁creatine	-11.4799
▁leucine	-11.4801
-23	-11.4803
10-	-11.4805
7.3%	-11.4808
▁Meanwhile	-11.4811
▁anticipated	-11.4812
AMP	-11.4815
▁infusions	-11.4817
▁sedentary	-11.4817
peak	-11.4819
▁Conclusions	-11.482
space	-11.4821
BG	-11.4822
angle	-11.4823
▁gelatin	-11.4824
2+-	-11.4827
▁caution	-11.4828
▁Hypo	-11.483
▁searches	-11.4832
▁reinforcement	-11.4832
▁suboptimal	-11.4835
fen	-11.4836
▁hypothermia	-11.4837
▁bottom	-11.4842
gr	-11.4843
▁pools	-11.4845
▁ethylene	-11.485
▁stores	-11.4851
▁pedicle	-11.4852
▁works	-11.4856
org	-11.4857
4.8	-11.486
▁fly	-11.4861
ou	-11.4861
▁bending	-11.4865
wing	-11.4865
▁Improvement	-11.4865
▁favourable	-11.4866
6�	-11.4866
▁Xenopus	-11.4868
seq	-11.4871
▁Special	-11.4875
▁Unfortunately	-11.4877
6.8%	-11.4881
2.0	-11.4882
etic	-11.4888
▁histories	-11.4888
ogen	-11.4891
▁basement	-11.4892
ll	-11.4893
▁accelerate	-11.4893
▁organelles	-11.4895
2.9	-11.4895
▁dodecyl	-11.4895
intervention	-11.4895
▁fractionation	-11.4896
pl	-11.4896
▁camera	-11.4898
▁cardiomyocytes	-11.49
Ch	-11.4901
▁simplex	-11.4903
▁artifacts	-11.4905
ms	-11.4906
▁Tc	-11.4909
vivo	-11.491
▁microspheres	-11.4911
▁anthropometric	-11.4914
▁NB	-11.4915
▁aetiology	-11.4917
NN	-11.4917
ue	-11.4919
▁modifying	-11.4919
▁proposes	-11.4921
▁4.7	-11.4924
sch	-11.4926
pA	-11.4931
▁26%	-11.4932
ert	-11.4932
und	-11.4934
pass	-11.4934
▁5.2	-11.4935
▁elusive	-11.4937
▁compensatory	-11.4943
▁biphasic	-11.4943
▁duplex	-11.4944
terminus	-11.4945
▁allergens	-11.4945
▁pass	-11.4946
▁nocturnal	-11.4946
▁stopped	-11.4946
▁accompanying	-11.4956
8;	-11.4958
▁weaker	-11.4959
▁0.000	-11.496
▁Sa	-11.4963
▁protecting	-11.4964
▁terminus	-11.4964
logists	-11.4967
▁proliferating	-11.4968
▁Vi	-11.4968
pp	-11.4969
▁Sweden	-11.4969
BV	-11.497
4.7	-11.4972
release	-11.4974
▁operator	-11.4977
▁Mexico	-11.4977
8.2%	-11.4983
▁horn	-11.4984
▁indoor	-11.4984
az	-11.4988
▁keep	-11.4988
VR	-11.4989
▁heavily	-11.4989
▁Project	-11.4989
RO	-11.4989
8.5%	-11.4989
(2)-	-11.4993
plastic	-11.4993
toxin	-11.4993
▁style	-11.4996
▁warm	-11.4996
▁comprise	-11.4998
IB	-11.5001
▁gastro	-11.5002
4]	-11.5002
▁signatures	-11.5002
▁music	-11.5003
▁Trials	-11.5004
▁initiatives	-11.5009
▁opioids	-11.501
▁obstetric	-11.5012
▁update	-11.5012
▁mucin	-11.5016
vol	-11.5017
expressed	-11.5024
RN	-11.5025
▁preeclampsia	-11.5028
kb	-11.5029
polymerase	-11.5032
▁geriatric	-11.5032
ging	-11.5035
▁adiponectin	-11.5035
▁elegans	-11.5035
adrenoceptor	-11.5035
0),	-11.5036
▁transiently	-11.5036
▁Lo	-11.5036
▁OSA	-11.5039
IE	-11.504
GFP	-11.5046
▁thermodynamic	-11.5046
▁Application	-11.5047
▁acceptability	-11.5047
▁-2	-11.5047
")	-11.5048
▁analogous	-11.5048
some	-11.5049
▁macroscopic	-11.5052
▁collecting	-11.5052
▁oxytocin	-11.5053
▁Tyr	-11.5053
▁bath	-11.5054
▁corresponds	-11.5055
▁28%	-11.5056
▁classify	-11.5059
▁Sequence	-11.5061
vir	-11.5063
▁FF	-11.5064
temperature	-11.5064
▁medullary	-11.5066
FV	-11.5068
▁RBC	-11.5069
▁intakes	-11.507
ze	-11.5071
▁arousal	-11.5072
amp	-11.5073
▁cleaved	-11.5074
TEM	-11.5074
mid	-11.5076
analyses	-11.5076
8�	-11.5077
▁statin	-11.5078
ense	-11.5083
▁echocardiograph	-11.5086
EEG	-11.5087
▁hypoglycemia	-11.5088
second	-11.5091
▁cultivars	-11.5092
6.9%	-11.5095
▁automatically	-11.5095
▁ECM	-11.5097
serine	-11.5099
▁simplified	-11.5099
▁102	-11.5099
▁retain	-11.51
acyl	-11.51
-29	-11.5102
▁catalysis	-11.5102
4.4%	-11.5102
▁potentiation	-11.5103
▁ALL	-11.5103
CAD	-11.5107
▁CAP	-11.5107
▁preferential	-11.5111
▁ageing	-11.5116
▁cholecystectomy	-11.5117
▁bulb	-11.5117
oriented	-11.5123
▁adopt	-11.5123
▁narrative	-11.5123
▁inheritance	-11.5126
▁endothelin	-11.5127
▁pin	-11.5128
▁helped	-11.5128
▁anomaly	-11.5129
▁gonadotropin	-11.5129
ries	-11.513
▁aerosol	-11.5134
sion	-11.5135
segment	-11.5135
▁investigates	-11.5135
▁arrhythmia	-11.5136
are	-11.5136
▁additionally	-11.5136
▁VT	-11.5137
▁begin	-11.5141
otomy	-11.5141
4.1	-11.5142
▁formulated	-11.5142
5,000	-11.5144
▁transported	-11.5144
flu	-11.5145
▁house	-11.5149
OCT	-11.515
phenol	-11.5155
▁Endo	-11.5157
▁app	-11.5158
▁instance	-11.5159
▁approximate	-11.516
▁discrepancy	-11.5161
▁vena	-11.5163
▁microtubules	-11.5163
viral	-11.5168
▁catalyzed	-11.5168
9.2%	-11.5169
▁leaving	-11.517
ult	-11.517
▁reciprocal	-11.5171
▁germline	-11.5172
sin	-11.5172
▁1,000	-11.5176
▁hypertrophic	-11.518
▁consumer	-11.5181
▁eosinophils	-11.5183
▁Down	-11.5183
Ac	-11.5185
mon	-11.5187
▁offering	-11.5188
▁grew	-11.5188
▁mitigate	-11.5189
eb	-11.5191
▁pay	-11.5193
▁individualized	-11.5196
▁irrigation	-11.5196
▁modulus	-11.5202
▁38%	-11.5204
NL	-11.5204
▁collective	-11.5204
▁pen	-11.5206
management	-11.5206
▁approximation	-11.5206
enzyme	-11.5208
▁transgene	-11.5212
ACE	-11.5215
▁Km	-11.5215
▁adenine	-11.5216
▁came	-11.5217
▁Emergency	-11.522
▁MTT	-11.522
▁informative	-11.5221
▁donation	-11.5222
▁satellite	-11.5224
mia	-11.5226
phospho	-11.5227
▁CXCR	-11.5227
▁repertoire	-11.5229
▁anaemia	-11.523
▁Histological	-11.5232
▁800	-11.5235
▁intravascular	-11.5239
hy	-11.524
▁sulphate	-11.524
▁Anxiety	-11.5241
▁haemorrhage	-11.5241
▁reactor	-11.5241
549	-11.5242
activation	-11.5243
▁endocarditis	-11.5244
▁FDG	-11.5245
▁neuropathic	-11.5247
existing	-11.5247
▁fluorescein	-11.5247
▁PCOS	-11.5248
▁Pulmonary	-11.5249
▁preserve	-11.525
▁transferrin	-11.5254
▁Form	-11.5254
lytic	-11.5254
vin	-11.5255
▁contractility	-11.5255
▁Instead	-11.5256
NG	-11.5258
▁Imaging	-11.5258
▁entropy	-11.5258
▁farms	-11.5259
▁granulocyte	-11.5259
VE	-11.5261
▁closer	-11.5261
▁monolayers	-11.5262
▁expectancy	-11.5264
▁loops	-11.5266
▁histidine	-11.527
▁fructose	-11.5271
▁name	-11.5271
3]	-11.5273
▁schemes	-11.5274
centric	-11.5274
▁Hispanic	-11.5275
ei	-11.5276
▁Helicobacter	-11.5276
▁package	-11.5276
▁percentile	-11.5277
▁mirror	-11.5277
▁interfaces	-11.5278
▁Da	-11.5278
▁pertussis	-11.5281
▁deeper	-11.5282
▁nickel	-11.5282
▁colonoscopy	-11.5282
▁5)	-11.5283
GL	-11.5284
▁geo	-11.5286
▁67%	-11.5286
▁readmission	-11.5288
-3,	-11.5289
▁raises	-11.5289
polar	-11.529
▁PDE	-11.5293
▁vegetables	-11.5295
▁hematological	-11.5295
VP	-11.5297
ren	-11.5298
▁desire	-11.5298
▁hexa	-11.5299
▁nov	-11.5299
▁(0.2	-11.5299
hydro	-11.53
ano	-11.5301
▁VTE	-11.5302
▁cast	-11.5307
▁1986	-11.5308
▁literacy	-11.5309
▁atmosphere	-11.5312
▁opposed	-11.5313
▁performances	-11.5318
▁titration	-11.5318
▁splice	-11.5321
VD	-11.5323
▁thalamus	-11.5324
SU	-11.5326
▁CAM	-11.5326
articular	-11.5328
▁tick	-11.5329
▁infancy	-11.533
▁83%	-11.533
▁robustness	-11.533
▁collapse	-11.5331
▁trap	-11.5331
case	-11.5332
▁theoretically	-11.5333
▁acceptor	-11.5335
▁36%	-11.5335
9.5%	-11.5341
▁AKI	-11.5341
▁radiologic	-11.5341
▁career	-11.5341
▁exploited	-11.5342
nate	-11.5342
▁chick	-11.5343
▁isometric	-11.5343
▁RCC	-11.5345
▁2�	-11.5347
▁92%	-11.5349
▁adducts	-11.5354
▁perturbation	-11.5357
▁dyspnea	-11.5357
Barr	-11.5358
▁export	-11.5365
oung	-11.5365
syn	-11.5365
▁antipsychotic	-11.5366
▁GST	-11.5366
exposure	-11.5368
▁flu	-11.5369
▁exercises	-11.537
▁recommendation	-11.537
2(	-11.5374
0.7	-11.5377
tan	-11.5377
▁tomato	-11.5379
7.9%	-11.538
▁Regard	-11.538
▁train	-11.5382
▁seedlings	-11.5383
▁Individuals	-11.5384
▁AL	-11.5384
organ	-11.5384
▁prey	-11.5385
▁Lower	-11.5386
▁1/2	-11.5386
▁attained	-11.5388
▁cooperative	-11.5389
7.2%	-11.539
cross	-11.5391
▁Photo	-11.5392
▁mediastinal	-11.5393
▁adipocytes	-11.5393
fixed	-11.5393
eno	-11.5393
▁Activation	-11.5396
▁ataxia	-11.5396
▁documents	-11.5397
▁chlorophyll	-11.5398
▁silico	-11.5399
▁ozone	-11.5402
quinone	-11.5404
subunit	-11.5408
▁Objective	-11.5408
▁impair	-11.5408
(-1).	-11.541
American	-11.5411
▁5.3	-11.5411
▁charts	-11.5413
▁sensation	-11.5414
▁weaning	-11.5414
▁San	-11.5414
▁excluding	-11.5415
4.5%	-11.5417
▁SK	-11.5419
vo	-11.5419
▁Cx	-11.542
5.8	-11.5424
corrected	-11.5425
▁disk	-11.5425
▁32%	-11.5428
▁fill	-11.5432
▁carboxyl	-11.5433
▁propranolol	-11.5434
▁choose	-11.5435
▁van	-11.5437
▁Identification	-11.5438
▁GD	-11.5443
▁Sensitivity	-11.5444
▁GPs	-11.5446
▁reality	-11.5447
▁phenol	-11.5448
▁replicated	-11.5449
▁hepato	-11.5455
▁SG	-11.5457
benzyl	-11.546
▁explaining	-11.5461
▁EB	-11.5463
9.5	-11.5468
oplasty	-11.5468
▁neutropenia	-11.5468
bl	-11.5469
▁paralysis	-11.5469
▁laminin	-11.5471
▁antidepressants	-11.5475
5.9%	-11.5477
▁Gu	-11.5478
2.5%	-11.548
COVID	-11.5481
▁discontinued	-11.5481
cation	-11.5481
▁13-	-11.5482
▁navigation	-11.5484
▁muscarinic	-11.5485
▁testes	-11.5486
▁endurance	-11.5487
9.6%	-11.549
TO	-11.5492
▁Cognitive	-11.5493
IG	-11.5494
aldehyde	-11.5494
▁LN	-11.5495
▁personalized	-11.5496
ind	-11.5497
▁AB	-11.5498
ventricular	-11.5498
=4	-11.5499
▁kit	-11.55
plasty	-11.5503
▁Ho	-11.5503
▁LI	-11.5505
▁homogeneity	-11.5505
▁agencies	-11.5505
▁penta	-11.5513
▁combines	-11.5517
▁housing	-11.5517
▁proline	-11.5517
▁haemoglobin	-11.5521
pressure	-11.5521
▁ob	-11.5522
▁103	-11.5523
▁consciousness	-11.5527
▁specialty	-11.5528
▁dealing	-11.5531
▁faced	-11.5532
▁88%	-11.5534
4.0	-11.5535
▁disadvantages	-11.5536
▁mucus	-11.5542
▁allelic	-11.5543
ses	-11.5544
▁osteosarcoma	-11.5548
EG	-11.5548
▁thinking	-11.5549
car	-11.555
▁twins	-11.5551
8.1%	-11.5552
8.7%	-11.5553
aspartate	-11.5554
▁freedom	-11.5554
▁crest	-11.5556
AH	-11.5558
ym	-11.5558
▁caregiver	-11.5565
▁outlined	-11.5568
▁radiography	-11.5569
activating	-11.5569
▁cholangio	-11.5569
▁blunt	-11.557
▁vasculitis	-11.5572
atum	-11.5574
▁insomnia	-11.5575
▁Mi	-11.5577
▁BCG	-11.558
mb	-11.558
5.5%	-11.558
component	-11.5581
ock	-11.5581
▁sterile	-11.5582
ole	-11.5583
▁extensor	-11.5584
▁Systematic	-11.5584
OG	-11.5587
▁CBF	-11.5588
▁AG	-11.5588
▁42%	-11.5589
▁prostheses	-11.559
ART	-11.5591
▁condensation	-11.5593
▁norms	-11.5594
▁scalp	-11.5596
▁exclusive	-11.5596
▁Eighteen	-11.5597
SK	-11.5597
ost	-11.5598
tract	-11.5603
king	-11.5606
unt	-11.5607
WM	-11.5607
▁droplets	-11.5608
▁hypothyroidism	-11.5609
▁innervation	-11.561
▁ultimate	-11.561
ola	-11.5611
8.4%	-11.5612
▁seminal	-11.5612
▁triggering	-11.5612
ROC	-11.5613
6.1%	-11.5617
gl	-11.5618
▁Combined	-11.5618
4.9	-11.5619
▁laparoscopy	-11.5621
▁29%	-11.5621
▁screws	-11.5622
▁Public	-11.5622
▁101	-11.5623
▁attracted	-11.5624
▁ischaemia	-11.5624
3.4	-11.5631
▁(0.3	-11.5631
▁port	-11.5632
insulin	-11.5637
▁ward	-11.5638
UT	-11.5639
▁suppresses	-11.564
des	-11.5641
▁capacities	-11.5643
▁City	-11.5643
1.3%	-11.5645
▁endocytosis	-11.5647
<0.001),	-11.5647
▁radiologists	-11.5649
▁proteome	-11.5649
▁cured	-11.5651
col	-11.5656
▁TD	-11.5656
▁dimethyl	-11.5657
▁dyes	-11.5658
▁microRNA	-11.5663
▁supine	-11.5665
LG	-11.5667
▁carbonyl	-11.5668
▁coat	-11.5672
▁searching	-11.5673
pyr	-11.5678
▁amniotic	-11.5679
▁dia	-11.568
▁LF	-11.568
▁dominance	-11.5681
phen	-11.5683
▁delivering	-11.5684
▁108	-11.5687
▁suggestions	-11.5688
▁clean	-11.569
▁intramuscular	-11.5691
▁tetracycline	-11.5694
▁draw	-11.5696
Th	-11.5696
air	-11.5696
▁sister	-11.5696
ned	-11.5702
▁moisture	-11.5705
▁31,	-11.5706
▁.05).	-11.5712
▁ro	-11.5712
▁3�	-11.5719
▁cornea	-11.572
▁Dutch	-11.5721
▁aesthetic	-11.5726
6.7	-11.5727
▁labelling	-11.5729
5.6	-11.5729
9.3%	-11.573
dy	-11.5734
-450	-11.5735
dihydroxy	-11.5737
▁44%	-11.5742
▁Effects	-11.5742
iness	-11.5746
▁sensitized	-11.5752
▁98%	-11.5753
▁End	-11.5753
▁96%	-11.5754
▁nitro	-11.5754
=0.03	-11.5755
▁practitioner	-11.5756
▁treadmill	-11.5757
▁centrifugation	-11.5758
▁filament	-11.5759
keto	-11.5763
▁inexpensive	-11.5764
▁microns	-11.5765
▁figures	-11.5766
▁microfluidic	-11.5767
DO	-11.5767
▁encounter	-11.5767
▁table	-11.5769
▁originated	-11.577
▁biofilms	-11.5772
aza	-11.5772
▁86%	-11.5774
▁Cal	-11.5775
▁overt	-11.5777
▁Level	-11.5777
▁procedural	-11.5779
▁PLA	-11.5783
SW	-11.5785
▁prescriptions	-11.5786
▁portions	-11.5788
▁Mortality	-11.5789
▁5.8	-11.5791
▁pathogenicity	-11.5794
dependently	-11.5796
▁lab	-11.5796
▁wire	-11.5799
▁KO	-11.5799
▁cotton	-11.5801
▁El	-11.5803
▁Electron	-11.5803
immune	-11.5803
▁columns	-11.5805
benzene	-11.5806
mono	-11.5806
▁driver	-11.5807
▁orthopedic	-11.5811
▁midline	-11.5811
▁Once	-11.5812
▁freeze	-11.5814
▁hole	-11.5816
▁measurable	-11.5818
box	-11.5819
▁replicate	-11.5821
▁periphery	-11.5823
▁IGFBP	-11.5829
ran	-11.5829
▁neurones	-11.5829
▁distinction	-11.5834
▁island	-11.5837
▁agree	-11.5839
▁thromboembolism	-11.5842
▁coordinate	-11.5845
▁formalin	-11.5845
▁Mediterranean	-11.5845
▁capital	-11.5847
catenin	-11.5848
▁osteogenic	-11.5852
phy	-11.5854
▁dispersed	-11.5856
PLA	-11.5857
▁NCT	-11.5859
▁internalization	-11.5859
liquid	-11.5861
exchange	-11.5861
▁regulations	-11.5862
▁everyday	-11.5862
proliferative	-11.5864
▁branching	-11.5865
▁ICP	-11.5868
▁Classification	-11.5871
▁Bax	-11.5877
▁intoxication	-11.588
▁IVF	-11.5881
ians	-11.5886
▁ovaries	-11.5887
6.0	-11.5889
▁charges	-11.5891
▁Water	-11.5894
ALL	-11.5894
▁eco	-11.5895
▁assignment	-11.5896
▁ileum	-11.5896
▁Medline	-11.5896
▁coherent	-11.5896
▁tibia	-11.5897
xi	-11.5898
▁undetectable	-11.5899
olytic	-11.5899
bed	-11.59
▁proteomics	-11.5903
▁.05)	-11.5903
▁multiplex	-11.5903
▁arteriovenous	-11.5904
▁inpatients	-11.5906
▁flies	-11.5907
▁leukemic	-11.5907
▁sorting	-11.5908
cyclo	-11.591
▁tonic	-11.5913
▁isomers	-11.5918
mat	-11.5919
▁stenting	-11.5919
▁GFP	-11.5922
▁Red	-11.5922
4.6%	-11.5924
▁recycling	-11.5925
lk	-11.5926
6.8	-11.5927
▁analytic	-11.5928
▁RC	-11.593
▁gliomas	-11.5931
▁tamoxifen	-11.5932
▁versatile	-11.5934
▁unfavorable	-11.5934
cAMP	-11.5934
▁freely	-11.5937
▁anisotropy	-11.5937
▁operate	-11.5938
using	-11.5941
▁LDH	-11.5941
▁shortened	-11.5943
▁province	-11.5947
▁prerequisite	-11.5947
▁EE	-11.5947
0.05).	-11.5947
▁enteric	-11.5948
▁Pearson	-11.5949
▁0.98	-11.5951
▁febrile	-11.5953
▁hemodynamics	-11.5955
▁cor	-11.5958
▁tensile	-11.596
▁5.6	-11.5961
▁positioned	-11.5962
▁Screening	-11.5962
▁Flow	-11.5964
▁cGMP	-11.5966
▁GBM	-11.5968
▁sun	-11.5968
▁superfamily	-11.5969
▁Education	-11.597
▁aspartate	-11.5974
▁nested	-11.5975
7.5%	-11.5976
▁4.9	-11.5976
inducing	-11.5976
10,	-11.5978
▁ovulation	-11.5978
▁rights	-11.5981
▁earliest	-11.5982
▁serving	-11.5982
1.5%	-11.5982
▁raising	-11.5983
▁transducer	-11.5986
▁hematologic	-11.5986
▁stated	-11.5987
▁comfort	-11.5987
▁43%	-11.5987
▁oxy	-11.5989
▁foam	-11.599
▁couple	-11.5991
▁131	-11.5991
apoptotic	-11.5991
▁niche	-11.5991
▁microbes	-11.5992
UD	-11.5993
▁Subsequent	-11.5993
▁residential	-11.5995
▁Register	-11.5996
▁Swedish	-11.5998
▁http	-11.5998
▁HDAC	-11.5999
▁rhythms	-11.6004
▁exacerbation	-11.6004
▁sport	-11.6005
▁Levels	-11.6008
▁sacrificed	-11.6009
▁disordered	-11.6012
▁Structural	-11.6014
▁volumetric	-11.6014
▁swimming	-11.6017
▁ACS	-11.6019
Li	-11.6019
▁Epi	-11.602
▁VIP	-11.6021
▁genotyped	-11.6021
▁cup	-11.6024
▁associate	-11.6025
▁hCG	-11.6025
▁RNase	-11.6026
▁cow	-11.6028
▁2015.	-11.6029
neu	-11.603
ale	-11.6032
KD	-11.6032
▁AE	-11.6033
section	-11.6034
▁adenylate	-11.6034
▁potentiated	-11.6035
▁progeny	-11.6036
▁amorphous	-11.6036
▁thymic	-11.6037
▁2017.	-11.6038
▁micelles	-11.6039
apo	-11.6039
▁leukaemia	-11.6039
▁prostatectomy	-11.6039
transcriptional	-11.6041
▁determines	-11.6041
▁polarized	-11.6042
▁uncontrolled	-11.6044
▁lactic	-11.6044
130	-11.6044
▁diarrhoea	-11.6045
▁caring	-11.6045
▁mix	-11.6047
ign	-11.6047
▁Relative	-11.6048
▁render	-11.6048
ators	-11.6048
▁cytoskeletal	-11.6049
DG	-11.605
▁desorption	-11.605
FD	-11.605
▁acutely	-11.6052
▁steel	-11.6052
▁tomographic	-11.6053
ja	-11.6054
right	-11.6054
▁Animals	-11.6056
▁prolapse	-11.6059
ious	-11.6059
▁dielectric	-11.606
▁subtilis	-11.606
aging	-11.606
endo	-11.6062
9.7%	-11.6063
▁posture	-11.6064
▁cervix	-11.6066
▁NAFLD	-11.6066
▁instrumentation	-11.6067
▁pacemaker	-11.6069
▁serotypes	-11.6073
▁Pd	-11.6075
omycin	-11.6077
▁93%	-11.6078
▁dispersal	-11.6078
▁suppressing	-11.6078
▁morphogenesis	-11.6084
▁94%	-11.6084
▁31%	-11.6084
▁characters	-11.6085
▁Ka	-11.6085
ili	-11.6087
▁bicarbonate	-11.6091
acetic	-11.6093
▁reactivation	-11.61
mTc	-11.61
electron	-11.6102
bromo	-11.6103
▁conformations	-11.6105
retest	-11.6107
▁poses	-11.6113
▁troponin	-11.6113
▁Part	-11.6115
▁British	-11.6118
▁ensuring	-11.612
▁subarachnoid	-11.6123
2.9%	-11.6127
▁board	-11.6133
▁sedimentation	-11.6135
▁repeatedly	-11.6137
▁erosion	-11.6137
▁suited	-11.6138
standing	-11.6138
▁adversely	-11.6141
▁efficiencies	-11.6142
▁Potential	-11.6142
▁humidity	-11.6146
▁5.4	-11.615
▁uric	-11.615
7.8	-11.6152
▁Groups	-11.6154
▁Breast	-11.6155
▁restrictions	-11.6157
▁editing	-11.6162
▁alleviate	-11.6164
▁Nursing	-11.6165
3.5	-11.6165
▁Val	-11.6168
▁welfare	-11.6168
2.2	-11.6169
aryl	-11.617
▁tremor	-11.6172
6.7%	-11.6172
▁OT	-11.6172
wise	-11.6172
▁missense	-11.6175
vel	-11.6176
6.5%	-11.6177
ometer	-11.6178
▁2-3	-11.6179
kappa	-11.6179
TN	-11.618
EX	-11.6181
AO	-11.6182
▁2016.	-11.6182
VL	-11.6183
▁advancement	-11.6184
▁asthmatic	-11.6184
nus	-11.6186
▁protects	-11.6188
-1.0	-11.6192
yn	-11.6194
▁CDK	-11.6195
erg	-11.6196
▁Hu	-11.6197
▁compositions	-11.6197
nal	-11.62
▁ketamine	-11.6201
▁Centre	-11.6201
▁Key	-11.6202
▁disturbed	-11.6202
rac	-11.6203
▁endometrium	-11.6204
▁parotid	-11.6205
▁Man	-11.6205
ami	-11.6206
ena	-11.6206
ACS	-11.6206
▁profession	-11.6207
▁possessed	-11.6207
severe	-11.6207
▁quick	-11.6208
▁primates	-11.6208
▁Female	-11.621
▁illumination	-11.621
enriched	-11.621
▁ethics	-11.6211
▁detergent	-11.6214
hes	-11.6216
▁sustain	-11.6218
ocytes	-11.6225
▁37%	-11.6225
culture	-11.6225
▁BR	-11.6227
CVD	-11.6227
▁trigeminal	-11.623
▁Vitamin	-11.6231
▁implying	-11.6232
▁affinities	-11.6234
11)	-11.6236
person	-11.6236
itation	-11.6239
▁cava	-11.6239
▁arises	-11.624
]),	-11.624
▁tears	-11.6241
▁Col	-11.6242
▁extends	-11.6242
▁freshwater	-11.6244
▁distortion	-11.6246
6.6	-11.6246
cap	-11.6246
▁PCP	-11.6246
▁proteolysis	-11.6247
▁hydroxylase	-11.6249
▁mar	-11.625
▁111	-11.6251
▁thaliana	-11.6253
▁depleted	-11.6255
▁Maternal	-11.6257
topic	-11.6257
DB	-11.6263
cur	-11.6263
▁undergoes	-11.6264
▁gathered	-11.6265
▁PRO	-11.627
▁newer	-11.627
▁lists	-11.6272
▁sarcoidosis	-11.6273
▁tracts	-11.6273
▁relapsed	-11.6274
▁synchronous	-11.6275
▁AN	-11.6275
▁mask	-11.6276
▁nationwide	-11.6276
▁56%	-11.6277
pol	-11.6278
▁dysphagia	-11.6283
▁reoperation	-11.6284
▁congestive	-11.6286
assembly	-11.6289
che	-11.6292
▁transferase	-11.6292
tle	-11.6293
▁trabecular	-11.6296
▁interfacial	-11.6297
▁ACh	-11.6297
▁waters	-11.6298
plate	-11.6301
▁dependency	-11.6303
▁colloidal	-11.6303
5.7	-11.6304
ICC	-11.6307
▁ducts	-11.6309
▁Lactobacillus	-11.6309
▁RAS	-11.6314
▁99%	-11.6318
cho	-11.6319
▁Genome	-11.6322
pyridine	-11.6322
ifying	-11.6322
▁anions	-11.6323
▁combat	-11.6326
▁mineralization	-11.6328
▁utero	-11.6329
▁wing	-11.6331
▁vibrational	-11.6331
▁aligned	-11.6332
NMR	-11.6335
▁immunologic	-11.6337
▁effluent	-11.6338
▁ligase	-11.6339
▁ureteral	-11.6339
110	-11.6339
▁EV	-11.634
Formula	-11.634
transplantation	-11.6342
VAS	-11.6344
▁hydrogels	-11.6345
▁WM	-11.6345
▁Activity	-11.6346
▁phorbol	-11.6346
▁FDA	-11.6346
▁ciprofloxacin	-11.6349
▁BT	-11.635
▁emerge	-11.635
▁Pretreatment	-11.635
tu	-11.6351
int	-11.6353
▁substitute	-11.6353
▁straight	-11.6355
▁lay	-11.6355
9�	-11.6356
▁leave	-11.6357
rel	-11.6357
▁tilt	-11.6358
6.2	-11.6363
▁brachial	-11.6366
14)	-11.6366
▁vacuum	-11.6367
▁von	-11.6368
▁clarified	-11.6369
▁diploid	-11.6369
▁IF	-11.6371
▁amide	-11.6372
▁Therapy	-11.6372
▁inguinal	-11.6373
▁grass	-11.6375
▁explains	-11.6377
▁DF	-11.6377
▁Kingdom	-11.6379
▁capillaries	-11.6379
6.4	-11.6379
▁postprandial	-11.6379
stimulation	-11.6382
▁82%	-11.6383
ari	-11.6384
▁notable	-11.6384
▁continuity	-11.6385
run	-11.6385
7.0	-11.6386
▁spray	-11.6387
▁jaw	-11.6389
▁myelo	-11.6391
▁vitreous	-11.6392
kin	-11.6394
▁daytime	-11.6396
+,	-11.6396
▁Rab	-11.6398
▁varieties	-11.6399
▁radiology	-11.6399
He	-11.6401
ga	-11.6403
ulin	-11.6405
▁EDTA	-11.6406
▁suspensions	-11.6406
▁coastal	-11.6407
5.0	-11.6407
▁telomere	-11.6408
▁fossa	-11.6409
oxa	-11.6411
▁exo	-11.6411
core	-11.6412
esteem	-11.6412
carb	-11.6413
▁max	-11.6415
▁plantar	-11.6416
meric	-11.6416
▁adaptations	-11.6419
▁mitosis	-11.6419
▁GL	-11.642
▁strictly	-11.6421
ibility	-11.6424
▁nodular	-11.6427
toxicity	-11.6427
▁BL	-11.6427
▁annually	-11.6429
▁1-2	-11.6432
▁iNOS	-11.6433
▁feelings	-11.6434
etalloproteinase	-11.6435
▁carries	-11.6435
1.6%	-11.6436
▁97%	-11.6441
transplant	-11.6441
▁occasions	-11.6443
▁Real	-11.6443
ull	-11.6444
uric	-11.6445
▁opportunistic	-11.6445
▁exit	-11.6447
▁carbohydrates	-11.645
2.7%	-11.6451
▁adherent	-11.6453
row	-11.6453
▁MTX	-11.6454
▁analytes	-11.6454
▁(35	-11.6455
1.9	-11.6455
▁displaced	-11.6457
▁religious	-11.6457
spect	-11.646
▁packing	-11.6462
▁psychopathology	-11.6462
lum	-11.6462
▁disposition	-11.6463
▁operon	-11.6465
▁km	-11.6467
que	-11.6468
▁cathepsin	-11.647
▁nail	-11.6471
▁canonical	-11.6473
▁Mr	-11.6475
▁IN	-11.6476
▁inference	-11.6479
▁109	-11.6481
▁sugars	-11.6484
▁People	-11.6485
▁lysozyme	-11.6486
5.6%	-11.6486
▁107	-11.6488
▁paternal	-11.6489
atic	-11.649
▁Sleep	-11.6492
7.6	-11.6494
▁cl	-11.6497
▁shoot	-11.6498
pin	-11.6499
▁constipation	-11.6499
▁veterinary	-11.6499
▁enrollment	-11.6499
▁Asp	-11.65
benzo	-11.6502
▁workload	-11.6502
▁diaphragm	-11.6503
▁71%	-11.6504
inducible	-11.6504
▁Or	-11.6509
▁RD	-11.6509
▁gastrectomy	-11.6509
GN	-11.6513
su	-11.6513
▁marital	-11.6514
terdisciplinary	-11.6514
ey	-11.6515
▁Alcohol	-11.6516
▁somatosensory	-11.6516
▁confounders	-11.6516
child	-11.6518
▁PAI	-11.6519
▁Performance	-11.6519
▁predisposition	-11.6519
▁diseased	-11.6522
▁peritonitis	-11.6526
▁topological	-11.6526
▁molars	-11.653
▁Significantly	-11.6537
▁permitted	-11.6537
▁oils	-11.6537
▁litter	-11.654
▁IE	-11.6541
patients	-11.6541
▁tuning	-11.6544
2.2%	-11.6547
▁ureter	-11.6548
▁PAF	-11.6548
5.4	-11.655
cent	-11.655
▁Lu	-11.6552
▁uncomplicated	-11.6553
▁DH	-11.6554
developmental	-11.6555
▁Possible	-11.6556
▁measles	-11.6556
▁displaying	-11.656
gin	-11.656
▁encapsulated	-11.6561
▁telomerase	-11.6563
▁silent	-11.6563
▁angiogenic	-11.6563
▁8.5	-11.6564
lt	-11.6565
▁123	-11.6568
▁covalently	-11.6569
▁virulent	-11.6571
▁physiologically	-11.6571
▁RPE	-11.6572
▁Iso	-11.6573
▁Syndrome	-11.6573
▁NADH	-11.6575
▁conception	-11.6579
▁Nano	-11.6581
▁coded	-11.6583
▁employ	-11.6584
▁occipital	-11.6585
▁Cy	-11.6586
▁nose	-11.6586
date	-11.6587
▁HepG	-11.6588
▁noticed	-11.6591
lac	-11.6592
ographic	-11.6593
tens	-11.6593
▁Rapid	-11.6595
6.3	-11.6597
▁sonography	-11.6597
▁benzene	-11.6598
Os	-11.6598
▁(28	-11.6599
▁setup	-11.66
▁sciatic	-11.66
▁touch	-11.6602
▁pitch	-11.6603
▁Not	-11.6604
5.3	-11.6604
▁Vascular	-11.6607
▁suitability	-11.6611
vid	-11.6611
▁0.95	-11.6612
▁VIII	-11.6613
▁refined	-11.6613
dh	-11.6616
▁suspended	-11.662
▁parenting	-11.662
▁client	-11.6621
▁(26	-11.6625
▁clade	-11.6625
clamp	-11.663
AK	-11.663
▁Sc	-11.6631
▁calculating	-11.6631
▁antisera	-11.6634
BO	-11.6634
▁aiming	-11.6636
▁gentamicin	-11.6638
1.2%	-11.6639
▁undergraduate	-11.664
▁nanotubes	-11.6641
▁CAT	-11.6643
▁minimizing	-11.6648
▁twelve	-11.6648
▁mammography	-11.6648
▁stably	-11.6649
ably	-11.6649
▁aluminum	-11.6649
3.0	-11.665
types	-11.6651
▁flexor	-11.6651
▁prime	-11.6652
labelled	-11.6652
9.8%	-11.6653
lat	-11.6654
▁microRNAs	-11.6654
2.4%	-11.6656
▁PAR	-11.6656
7.1%	-11.6656
training	-11.6658
thy	-11.6658
▁5.1	-11.6659
▁mutual	-11.6659
ker	-11.666
7�	-11.6661
▁atrium	-11.6662
ple	-11.6662
dominant	-11.6662
scan	-11.6663
ack	-11.6664
13)	-11.6666
▁cultivated	-11.6666
▁Mal	-11.6668
▁uniformly	-11.6669
▁Whole	-11.6669
-1),	-11.6669
▁workflow	-11.667
▁belongs	-11.6671
▁homolog	-11.6671
OB	-11.6673
�1	-11.6673
▁Abeta	-11.6674
▁neurotrophic	-11.6676
▁78%	-11.668
▁thio	-11.668
▁mutational	-11.6683
(3	-11.6684
▁Er	-11.6685
▁playing	-11.6686
5.8%	-11.6688
▁0.12	-11.6689
▁uro	-11.6689
oides	-11.6689
▁peers	-11.6689
▁mTOR	-11.6692
▁ideas	-11.6695
▁adjust	-11.6697
▁benchmark	-11.6698
▁Sh	-11.6698
▁anaesthetic	-11.6699
▁DT	-11.6699
▁Sea	-11.67
ester	-11.67
(0)	-11.6701
relative	-11.6702
▁OM	-11.6703
0;	-11.6704
▁buccal	-11.6707
wi	-11.6707
▁fair	-11.6707
This	-11.6709
▁expect	-11.671
▁HBsAg	-11.6715
▁multifactorial	-11.6717
▁PTEN	-11.6718
▁trainees	-11.6719
▁cofactor	-11.6719
▁em	-11.6721
▁capsid	-11.6722
▁CHO	-11.6725
▁cutting	-11.6727
▁parenchymal	-11.6727
fluorouracil	-11.6727
undifferentiated	-11.6728
4.1%	-11.6728
acquired	-11.673
▁files	-11.673
▁plot	-11.6737
▁consolidation	-11.6737
▁HIF	-11.6738
▁choroidal	-11.674
▁medically	-11.6742
▁pups	-11.6743
▁intramolecular	-11.6746
▁pneumococcal	-11.6747
▁naive	-11.6749
▁115	-11.6754
▁monomers	-11.6757
▁2018.	-11.676
8(+)	-11.6761
0%)	-11.6765
▁moieties	-11.6768
▁lacked	-11.677
▁continuum	-11.677
▁suppressive	-11.6771
degree	-11.6771
0.4	-11.6772
▁obviously	-11.6772
3.9%	-11.6773
za	-11.6773
▁1970	-11.6773
tel	-11.6774
▁consuming	-11.6775
Di	-11.6776
CRC	-11.6778
erin	-11.6779
▁conjugation	-11.6782
▁perturbations	-11.6783
▁spores	-11.6783
▁73%	-11.6786
ace	-11.6787
▁declines	-11.6787
▁rigorous	-11.6788
▁48%	-11.6791
▁symptomatology	-11.6792
▁rDNA	-11.6793
▁34%	-11.6794
▁lo	-11.6794
▁starvation	-11.6796
cre	-11.6796
ius	-11.6797
2.8	-11.6799
dic	-11.68
HM	-11.6801
▁Eu	-11.6801
tosis	-11.6802
▁Latin	-11.6803
▁lifespan	-11.6803
▁ORF	-11.6804
▁1-3	-11.6805
▁infrastructure	-11.6806
▁PPI	-11.6807
▁VC	-11.6813
▁ter	-11.6814
▁lacks	-11.6818
▁Chem	-11.682
▁SES	-11.6822
▁solved	-11.6823
▁emphasizes	-11.6823
▁discrepancies	-11.6823
▁poultry	-11.6823
2.4	-11.6824
▁concentrate	-11.6825
▁2014.	-11.6826
species	-11.6828
12)	-11.6828
001	-11.6829
▁acetic	-11.6832
administration	-11.6835
ualitative	-11.6839
▁Ge	-11.684
tom	-11.6843
▁biodiversity	-11.6844
▁58%	-11.6848
▁ulceration	-11.6848
8.3%	-11.6848
▁rheumatic	-11.685
▁Linear	-11.6852
ich	-11.6852
▁controversy	-11.6855
▁monocytogenes	-11.6855
▁biases	-11.6856
▁AAA	-11.6856
▁acetylation	-11.6858
▁stressed	-11.6858
2.6%	-11.6858
▁carbonate	-11.6861
rk	-11.6862
▁restenosis	-11.6862
▁statins	-11.6862
▁spiral	-11.6862
tocompatibility	-11.6865
▁Mann	-11.6868
▁Binding	-11.6872
spin	-11.6872
▁FH	-11.6876
▁prolongation	-11.6877
▁87%	-11.6878
▁IOL	-11.6879
▁easier	-11.6879
qua	-11.6882
▁mosaic	-11.6882
▁neutron	-11.6883
▁groundwater	-11.6883
▁Dr	-11.6885
▁hydrocarbons	-11.6886
▁Unit	-11.6886
▁feet	-11.6887
▁Fisher	-11.6889
Au	-11.689
▁RH	-11.6892
▁entering	-11.6893
▁fer	-11.6894
▁63%	-11.6894
▁stabilize	-11.6895
▁thrombotic	-11.6895
▁naloxone	-11.6896
▁plain	-11.6897
▁2020.	-11.6898
▁convergence	-11.69
▁LE	-11.6901
▁tracing	-11.6904
▁neovascular	-11.6905
▁MCP	-11.6906
▁compares	-11.6906
▁optimizing	-11.6907
▁grid	-11.6908
embedded	-11.6908
▁legs	-11.6908
▁NI	-11.6908
-200	-11.691
<0.01)	-11.691
▁cyclooxygenase	-11.6911
Mg	-11.6912
▁cigarettes	-11.6913
▁neglect	-11.6914
eurodegeneration	-11.6915
▁scanner	-11.6915
1.4%	-11.6916
▁predisposing	-11.6918
ini	-11.6918
-(2-	-11.6919
▁Stress	-11.6921
▁7.2	-11.6923
str	-11.6924
lig	-11.6925
▁reform	-11.6927
▁multimodal	-11.6928
parathyroidism	-11.6928
▁graph	-11.6929
▁ventilatory	-11.693
▁descriptions	-11.693
valent	-11.6933
▁oligosaccharide	-11.6937
▁kill	-11.6937
Ad	-11.6937
▁passed	-11.6937
▁inverted	-11.6939
house	-11.6941
MH	-11.6942
▁dextran	-11.6943
▁smears	-11.6943
▁Pan	-11.6946
▁neighboring	-11.6948
ah	-11.6948
▁rapamycin	-11.6949
▁240	-11.6949
▁PCA	-11.6952
▁convenience	-11.6953
50)	-11.6956
uv	-11.6957
▁washing	-11.6957
▁PMN	-11.6959
/2	-11.6961
ory	-11.6961
▁6.2	-11.6962
▁oncogene	-11.6964
cultural	-11.6964
ala	-11.6966
▁dimers	-11.6971
▁MSC	-11.6972
▁import	-11.6972
▁HM	-11.6973
8.0	-11.6976
▁orthopaedic	-11.6977
▁journal	-11.6978
osine	-11.6981
▁CAR	-11.6982
▁broth	-11.6985
9.1%	-11.6986
▁ingredients	-11.6989
▁manganese	-11.6991
▁rectum	-11.6991
▁bundles	-11.6993
▁subcutaneously	-11.6993
▁coronal	-11.6993
len	-11.6997
▁seasons	-11.6997
cu	-11.6998
▁autonomy	-11.6999
+-	-11.7
dent	-11.7001
▁GFR	-11.7002
inate	-11.7002
▁64%	-11.7006
▁EU	-11.7008
▁visually	-11.7008
▁5.7	-11.7008
OF	-11.701
▁Peri	-11.701
3.8%	-11.7012
▁10�	-11.7012
▁0.02).	-11.7012
▁68%	-11.7013
▁equi	-11.7014
▁locomotion	-11.7016
0.5%	-11.702
▁worked	-11.7022
▁Ce	-11.7022
ara	-11.7022
Lys	-11.7023
DCs	-11.7023
▁penile	-11.7024
▁note	-11.7025
ort	-11.7027
▁outgrowth	-11.7029
▁anionic	-11.7029
▁TIMP	-11.7031
▁FN	-11.7035
bus	-11.7036
▁evolve	-11.7037
▁knees	-11.7037
▁ecology	-11.7038
ligand	-11.7039
▁disclosed	-11.7039
▁forty	-11.704
/5	-11.704
▁dec	-11.7041
abdominal	-11.7041
▁therapists	-11.7043
▁shaped	-11.7044
operatively	-11.7044
▁unexplained	-11.7045
▁inferred	-11.7045
▁calmodulin	-11.7045
▁6�	-11.7046
▁frames	-11.7047
▁mosquitoes	-11.7047
-6,	-11.7048
▁posttraumatic	-11.7049
▁tablet	-11.7049
NSCLC	-11.7051
▁chloroplast	-11.7051
▁residency	-11.7052
▁lipo	-11.7052
nu	-11.7053
▁hamsters	-11.7055
BN	-11.7056
5.2%	-11.7056
Tyr	-11.7058
▁Systemic	-11.7058
▁52%	-11.7058
▁10(-6)	-11.706
▁duodenum	-11.7062
▁regimes	-11.7063
lis	-11.7064
▁messages	-11.7066
biocompatibility	-11.7066
tru	-11.7067
▁MDD	-11.7069
▁ROC	-11.7069
▁repressor	-11.7071
180	-11.7071
▁electrons	-11.7075
lect	-11.7077
▁senior	-11.7077
▁cortico	-11.7078
▁BRAF	-11.7081
▁ulnar	-11.7082
▁57%	-11.7082
▁holds	-11.7083
▁salinity	-11.7084
Bs	-11.7084
▁fundus	-11.7086
▁Population	-11.7087
▁rotavirus	-11.7087
photon	-11.7088
▁contour	-11.7093
4.7%	-11.7094
▁attenuate	-11.7094
▁feces	-11.7094
▁gases	-11.7094
▁programming	-11.7096
8.8	-11.7097
plane	-11.7097
▁eukaryotes	-11.7098
▁quantitation	-11.7098
▁du	-11.7101
▁abstinence	-11.7101
800	-11.7102
7.4	-11.7106
▁CsA	-11.7106
▁adrenergic	-11.7108
▁wine	-11.711
ld	-11.711
lay	-11.7112
▁Han	-11.7112
Akt	-11.7115
▁inositol	-11.7117
RH	-11.712
▁72%	-11.7121
▁dendrites	-11.7121
▁compensate	-11.7122
Gal	-11.7123
1.9%	-11.7124
size	-11.7126
▁horse	-11.7129
▁Syn	-11.713
▁CHF	-11.7132
=5	-11.7133
▁longevity	-11.7134
▁BE	-11.7134
area	-11.7134
▁CPR	-11.7135
▁master	-11.7137
▁probabilities	-11.7137
▁references	-11.7138
▁0.96	-11.714
▁emergent	-11.7142
histochemically	-11.7145
▁strengthen	-11.7145
▁attendance	-11.7147
tyrosine	-11.7147
▁discharges	-11.715
omas	-11.7151
▁supplied	-11.7151
▁neutralization	-11.7154
▁iodide	-11.7154
(2),	-11.7154
▁anomalous	-11.7155
▁prion	-11.7156
resolved	-11.7157
scopy	-11.7157
▁0.97	-11.7157
▁faecal	-11.7158
▁84%	-11.7158
▁angio	-11.716
▁nematode	-11.716
▁41%	-11.7167
▁morphometric	-11.7167
eta	-11.7168
▁acne	-11.7169
▁elemental	-11.7169
▁0.85	-11.7172
▁8.0	-11.7174
▁54%	-11.7175
▁Nurses	-11.7177
▁arranged	-11.7177
fish	-11.7178
rol	-11.7178
▁14-	-11.7179
▁PCa	-11.7181
▁Overexpression	-11.7181
▁HU	-11.7183
▁Province	-11.7184
▁Chemical	-11.7185
▁6.3	-11.7186
▁price	-11.7186
▁viewing	-11.7187
▁increment	-11.7187
▁Leishmania	-11.7187
▁secrete	-11.7189
▁fentanyl	-11.7192
Cas	-11.7193
▁veterans	-11.7194
phthal	-11.7194
▁puberty	-11.7195
diol	-11.7195
1]	-11.7195
▁independence	-11.7196
cytochemistry	-11.7196
▁Gly	-11.7196
▁big	-11.7196
peri	-11.7197
▁quenching	-11.7197
3.3%	-11.7199
carbon	-11.72
8.6	-11.7202
▁recognised	-11.7203
▁CRISPR	-11.7203
▁partition	-11.7204
4.2%	-11.7205
▁consultations	-11.7206
▁electromagnetic	-11.7206
▁KD	-11.7207
▁altitude	-11.7208
▁AH	-11.7208
▁RB	-11.7209
▁episodic	-11.7209
▁prompted	-11.721
SNPs	-11.7213
ometric	-11.7214
▁releasing	-11.7214
▁thousand	-11.7215
▁MetS	-11.7215
▁TEM	-11.7215
3.5%	-11.7216
Ig	-11.7221
▁pluripotent	-11.7224
versus	-11.7224
▁multifunctional	-11.7224
▁Stat	-11.7225
▁thigh	-11.7227
▁5�	-11.723
6.3%	-11.7232
▁wind	-11.7233
contrast	-11.7234
▁companies	-11.7234
▁nasopharyngeal	-11.7234
▁Em	-11.7235
6.9	-11.7239
▁My	-11.724
▁nucleoside	-11.7241
doped	-11.7242
▁1.00	-11.7244
▁cytomegalovirus	-11.7245
▁Loss	-11.7246
Hodgkin	-11.7249
infrared	-11.7249
▁burns	-11.725
▁maturity	-11.7252
▁entero	-11.7252
▁bactericidal	-11.7253
ethanolamine	-11.7253
▁exceed	-11.7255
▁osteoblasts	-11.7255
▁robot	-11.7255
▁bacteremia	-11.7256
=0.04	-11.7259
▁hyperactivity	-11.726
rom	-11.7261
▁penetrating	-11.7262
ger	-11.7262
▁Preliminary	-11.7263
▁keratin	-11.7264
feeding	-11.7264
▁62%	-11.7265
▁transportation	-11.7266
arterial	-11.7268
sum	-11.7269
cor	-11.727
ylation	-11.7271
7.3	-11.7271
AML	-11.7272
shell	-11.7273
▁DN	-11.7273
▁Lewis	-11.7275
▁Student	-11.7275
rio	-11.7275
▁cope	-11.7275
▁polyacrylamide	-11.7276
▁arthroscopic	-11.7277
▁GT	-11.7277
retin	-11.728
▁biogenesis	-11.728
hosphodiesterase	-11.728
▁77%	-11.7281
▁specificities	-11.7282
Ti	-11.7282
▁visualize	-11.7283
▁Trial	-11.7285
▁FB	-11.7288
▁HTLV	-11.7289
hole	-11.7289
▁verapamil	-11.729
▁fairly	-11.729
▁pouch	-11.7292
▁antiplatelet	-11.7294
▁6.8	-11.7296
▁46%	-11.7296
▁91%	-11.7298
700	-11.7298
EGFR	-11.73
▁belief	-11.73
▁Seventeen	-11.7303
DN	-11.7305
▁turned	-11.7305
1.8%	-11.7305
▁hydrocephalus	-11.7311
Val	-11.7311
▁CCL	-11.7312
han	-11.7312
▁hyperthermia	-11.7314
▁dying	-11.7314
▁methylated	-11.7318
▁moved	-11.7319
half	-11.732
▁helping	-11.7321
▁reviewers	-11.7321
▁places	-11.7322
▁unprecedented	-11.7322
▁harvest	-11.7322
▁76%	-11.7322
▁extracorporeal	-11.7322
gest	-11.7323
▁doing	-11.7325
▁regards	-11.7325
▁leaders	-11.7327
▁lu	-11.7327
strain	-11.7329
++	-11.7329
▁RSV	-11.7329
▁dropped	-11.7329
▁Skin	-11.733
spectrum	-11.7331
restricted	-11.7332
▁Free	-11.7332
HBV	-11.7335
▁ciliary	-11.7337
▁keeping	-11.7339
▁cyclosporine	-11.734
globulin	-11.734
▁lived	-11.7347
ida	-11.7347
▁bioinformatics	-11.7347
▁odor	-11.7348
▁curcumin	-11.735
562	-11.7351
▁53%	-11.7351
▁immunogenicity	-11.7352
mers	-11.7352
ux	-11.7355
▁glucocorticoids	-11.7356
▁scattered	-11.7358
▁neurotoxicity	-11.736
dichloro	-11.736
▁ventilator	-11.7361
▁facilitation	-11.7362
▁ileal	-11.7362
3.7%	-11.7365
TGF	-11.7366
▁spanning	-11.7366
▁GLUT	-11.7366
▁KCl	-11.7366
3.1%	-11.7367
sil	-11.7369
▁0.13	-11.7369
▁homocysteine	-11.7371
vasoconstriction	-11.7372
oy	-11.7373
▁nigra	-11.7373
▁SLC	-11.7373
▁willingness	-11.7373
sex	-11.7375
ani	-11.7378
▁infective	-11.738
▁mechanically	-11.7382
cytes	-11.7382
Mn	-11.7383
▁Infection	-11.7384
▁PMA	-11.7384
▁lympho	-11.7385
▁offset	-11.7387
▁comprehension	-11.7388
▁spacer	-11.7388
steroid	-11.739
▁explanations	-11.7394
▁jaundice	-11.7395
▁unsuccessful	-11.7395
▁Hodgkin	-11.7395
Vs	-11.7395
5.9	-11.7398
▁Clostridium	-11.7399
blood	-11.7399
▁Conventional	-11.7401
axial	-11.7401
▁adenocarcinomas	-11.7402
▁Longitudinal	-11.7402
▁Nigeria	-11.7405
▁quantifying	-11.7405
▁writing	-11.7406
▁reconstituted	-11.7406
processing	-11.7406
▁NIH	-11.7407
▁Mini	-11.7409
▁oedema	-11.741
▁SBP	-11.741
▁facing	-11.7411
▁beef	-11.7411
▁BB	-11.7413
▁alternating	-11.7413
▁(1.5	-11.7415
lowering	-11.7417
▁beams	-11.7418
NOS	-11.7418
▁stretching	-11.7419
▁packed	-11.742
protective	-11.7421
renal	-11.7423
▁pars	-11.7423
▁amines	-11.7425
▁beats	-11.7427
wa	-11.7428
▁Computed	-11.7429
▁47%	-11.7429
▁ta	-11.7432
▁consequent	-11.7434
▁reconstructions	-11.7439
▁ghrelin	-11.7439
transfer	-11.7439
▁0.94	-11.7442
▁66%	-11.7442
▁harmonic	-11.7442
▁extrinsic	-11.7446
▁elevations	-11.7448
WI	-11.7448
▁baby	-11.745
▁costly	-11.7451
▁ticks	-11.7451
VC	-11.7452
cyto	-11.7453
-0.2	-11.7458
graft	-11.7459
hybrid	-11.7462
-80	-11.7463
▁postmortem	-11.7463
▁islands	-11.7463
▁ancient	-11.7466
▁2013.	-11.7467
UP	-11.7467
▁112	-11.7467
2.1%	-11.7469
eth	-11.7472
▁(50%)	-11.7472
▁Ap	-11.7473
▁NAC	-11.7473
▁eastern	-11.7474
MHC	-11.7474
▁glycolysis	-11.7476
▁considers	-11.748
▁psychiatry	-11.748
▁supernatants	-11.7481
promoting	-11.7481
▁huge	-11.7484
▁(32	-11.7486
Asp	-11.7487
▁11-	-11.7491
▁ASA	-11.7491
alis	-11.7492
bit	-11.7492
▁exceeding	-11.7493
▁Support	-11.7495
▁ICAM	-11.7495
▁genomics	-11.7497
▁RM	-11.7497
0.1	-11.7497
▁inward	-11.7498
GSH	-11.7501
▁sorption	-11.7502
▁vol	-11.7503
▁atropine	-11.7503
▁alloy	-11.7505
▁melting	-11.7505
▁savings	-11.7506
▁cr	-11.751
▁burnout	-11.751
▁mining	-11.7514
▁GLP	-11.7514
idin	-11.7515
▁16-	-11.7515
wk	-11.7515
▁glyco	-11.7515
▁CXCL	-11.7517
▁cage	-11.7518
▁determinations	-11.7518
▁(27	-11.7521
▁Response	-11.7521
▁nosocomial	-11.7525
▁si	-11.7527
▁ruptured	-11.7529
matic	-11.7531
▁Services	-11.7534
▁orbit	-11.7535
berg	-11.7539
▁adduct	-11.7539
▁Phylogenetic	-11.7539
▁Dietary	-11.7543
▁apex	-11.7544
▁versions	-11.7545
▁VE	-11.7546
▁fifty	-11.7547
▁6)	-11.755
▁grafted	-11.755
▁emptying	-11.7551
▁foster	-11.7552
▁firm	-11.7554
▁lies	-11.7554
▁predominance	-11.7558
-0.3	-11.7561
▁feel	-11.7561
▁0.16	-11.7561
▁17-	-11.7564
▁delineate	-11.7564
rine	-11.7565
▁terrestrial	-11.757
▁predispose	-11.7572
olysis	-11.7573
▁dried	-11.7574
▁droplet	-11.7576
cer	-11.7576
rr	-11.7576
▁goats	-11.7577
▁spatiotemporal	-11.7577
▁purity	-11.7577
aemic	-11.7581
▁bariatric	-11.7584
▁war	-11.7586
▁chemokines	-11.7586
▁flavonoids	-11.7586
▁BCR	-11.7588
▁arrival	-11.7588
▁gastritis	-11.7588
▁supervision	-11.7588
▁MH	-11.7589
▁135	-11.7592
traperitoneally	-11.7595
▁preserving	-11.7595
tain	-11.7595
▁elution	-11.7595
▁gall	-11.7595
7.7	-11.7596
▁dehydration	-11.7596
▁meals	-11.7598
▁rough	-11.7599
sorb	-11.7599
▁stabilizing	-11.7601
oxidation	-11.7603
5.7%	-11.7603
fu	-11.7604
▁lac	-11.7606
▁vagal	-11.7607
▁ch	-11.7608
▁fibrils	-11.761
MAPK	-11.761
STAT	-11.7611
▁thymidine	-11.7612
▁potato	-11.7612
▁tubule	-11.7613
▁hematocrit	-11.7613
▁symmetric	-11.7619
▁radiofrequency	-11.7623
133	-11.7628
▁NM	-11.7629
▁lasted	-11.763
▁productive	-11.7632
immuno	-11.7633
sus	-11.7633
▁sitting	-11.7633
▁ribosome	-11.7634
thymidine	-11.7636
7.7%	-11.7636
▁normative	-11.7637
comp	-11.7637
AST	-11.7638
▁slice	-11.7638
▁refer	-11.7638
<0.05	-11.7638
7.2	-11.7638
▁170	-11.7638
▁Univariate	-11.764
▁papillomavirus	-11.7641
uring	-11.7641
▁richness	-11.7643
▁catalyzes	-11.7645
▁ears	-11.7646
▁disciplines	-11.7648
▁purine	-11.7649
▁FE	-11.7649
▁Third	-11.7652
▁checklist	-11.7652
▁interested	-11.7653
▁ver	-11.7653
BH	-11.7653
▁dynamical	-11.7654
-35	-11.7654
▁Par	-11.7655
-1.5	-11.7655
▁devastating	-11.7656
▁occult	-11.7656
▁sentinel	-11.7659
▁inspection	-11.7659
pur	-11.7661
▁ALT	-11.7663
▁War	-11.7663
▁0.88	-11.7664
▁stressful	-11.7665
▁assume	-11.7667
derm	-11.7675
▁lambs	-11.7676
▁89%	-11.7676
▁triplet	-11.7676
4.8%	-11.7677
wt	-11.7678
lysin	-11.7678
▁brush	-11.7679
▁besides	-11.7679
▁Altogether	-11.7682
dimer	-11.7682
ks	-11.7684
▁favour	-11.7685
ser	-11.7685
▁livestock	-11.7686
▁invited	-11.7686
▁probing	-11.769
▁dihydro	-11.7693
▁Complications	-11.7693
▁60-	-11.7701
bar	-11.7702
model	-11.7702
▁Tg	-11.7703
▁vir	-11.7705
▁retinoic	-11.7706
phi	-11.7706
trial	-11.7707
▁2012.	-11.7707
▁pharmacodynamic	-11.7709
▁epithelia	-11.771
hyper	-11.771
inc	-11.7711
▁nanostructures	-11.7712
bor	-11.7714
cortical	-11.7715
diastolic	-11.7715
▁paucity	-11.7716
▁(1.0	-11.7716
▁Republic	-11.7716
▁catecholamine	-11.7717
▁fluxes	-11.7718
▁ADC	-11.772
▁Obesity	-11.772
▁Coronary	-11.772
Cys	-11.7721
▁cavities	-11.7724
-34	-11.7725
▁osteoblast	-11.7726
2.8%	-11.7726
6.1	-11.7727
ev	-11.7727
▁Peripheral	-11.7728
▁guiding	-11.7728
▁Physicians	-11.7728
▁CABG	-11.7729
PSA	-11.7729
-99	-11.773
▁Elevated	-11.7731
▁cingulate	-11.7735
▁0.80	-11.7736
▁swallowing	-11.7738
HLA	-11.7739
▁forebrain	-11.7739
▁VR	-11.7743
▁melanogaster	-11.7743
▁chlor	-11.7743
-70	-11.7744
▁audio	-11.7745
▁Common	-11.7746
rh	-11.7754
▁BS	-11.7757
ship	-11.7757
▁cobalt	-11.7758
▁nifedipine	-11.7758
▁oligodendrocyte	-11.7758
▁oblique	-11.7758
▁lymphoblastic	-11.7758
▁0.11	-11.7758
▁effectors	-11.7762
▁discover	-11.7762
▁hypothetical	-11.7762
▁TPA	-11.7763
hip	-11.7765
▁PrP	-11.7765
▁covers	-11.7768
lectrocardiogram	-11.7768
7.1	-11.7769
cit	-11.7769
▁Pacific	-11.777
▁tried	-11.7771
▁quarter	-11.7771
course	-11.7775
genome	-11.7779
ski	-11.7781
▁neurogenesis	-11.7782
▁hepatectomy	-11.7783
▁advantageous	-11.7783
▁CDC	-11.7787
▁transfusions	-11.7787
▁delirium	-11.7788
▁legislation	-11.7789
▁harboring	-11.7789
▁Mono	-11.7789
▁hemolytic	-11.7789
▁0.14	-11.7791
reaction	-11.7793
▁sounds	-11.7794
▁encouraged	-11.7795
▁vulgaris	-11.7796
▁pyr	-11.7796
encoded	-11.7796
▁competent	-11.7805
▁cirrhotic	-11.7807
▁Implications	-11.7808
implant	-11.7814
▁PHA	-11.7815
▁scavenging	-11.7815
unit	-11.7816
▁guanine	-11.7817
▁strips	-11.7817
ended	-11.7818
nar	-11.782
transformed	-11.7821
▁branched	-11.7821
lus	-11.7822
▁resembling	-11.7823
▁MUC	-11.7824
rays	-11.7827
▁2019.	-11.7828
▁39%	-11.7828
▁vehicles	-11.7829
tz	-11.783
▁immunoblotting	-11.7835
▁trapping	-11.7835
BMD	-11.7835
▁mega	-11.7836
▁discriminant	-11.7838
static	-11.7839
▁CIN	-11.7843
▁AVP	-11.7846
▁embryogenesis	-11.7847
▁abiotic	-11.7848
▁1984	-11.7848
▁bilaterally	-11.7849
▁129	-11.7849
▁6.7	-11.7849
dynamic	-11.785
▁sero	-11.785
▁topography	-11.785
▁imposed	-11.7852
▁0.90	-11.7852
▁HG	-11.7853
▁homogenates	-11.7854
app	-11.7854
▁PFS	-11.7855
▁karyotype	-11.7857
▁mimicking	-11.7857
▁pores	-11.7857
▁CRT	-11.7857
▁sensitivities	-11.7858
▁6.4	-11.7858
▁subscales	-11.7862
▁diabetics	-11.7862
▁quit	-11.7866
▁flanking	-11.7866
▁frameworks	-11.7868
▁equine	-11.787
▁adjustments	-11.7871
▁74%	-11.7871
regulatory	-11.7871
2.3%	-11.7872
▁tensor	-11.7873
▁vegetable	-11.7873
▁Prevalence	-11.7873
▁listed	-11.7877
▁(29	-11.7877
▁(20%)	-11.7877
moderate	-11.7878
converting	-11.7879
▁fails	-11.788
▁computing	-11.7881
▁gondii	-11.7881
8.3	-11.7884
dr	-11.7884
▁primate	-11.7887
▁SCD	-11.7889
▁opinions	-11.7891
-90	-11.7891
▁10(-5)	-11.7894
▁79%	-11.7894
MSC	-11.7894
omic	-11.7895
Gs	-11.7896
▁intracerebral	-11.7897
▁thalamic	-11.7897
▁Urinary	-11.79
▁transitional	-11.7901
ema	-11.7906
cip	-11.7909
▁intolerance	-11.7909
▁pericardial	-11.7912
▁filtering	-11.7912
helix	-11.7913
▁durations	-11.7914
lit	-11.7916
8.7	-11.7921
▁0.89	-11.7922
▁repaired	-11.7925
▁lobes	-11.7927
▁grey	-11.7928
▁grains	-11.793
▁spectrometer	-11.7931
▁deleted	-11.7931
▁refinement	-11.7933
▁Ontario	-11.7935
▁constrained	-11.7938
▁SPSS	-11.7938
▁Stroke	-11.7939
▁choosing	-11.7939
▁12.5	-11.7941
▁116	-11.7941
▁tubulin	-11.7943
▁trophoblast	-11.7944
▁primitive	-11.7946
UTR	-11.7949
▁0.92	-11.795
ding	-11.7954
▁diurnal	-11.7954
products	-11.7955
▁118	-11.7955
▁impossible	-11.7958
▁outdoor	-11.7959
▁manipulated	-11.7961
▁innovation	-11.7961
calc	-11.7962
▁Mexican	-11.7962
▁galactose	-11.7962
▁grip	-11.7963
tolerant	-11.7963
ocyte	-11.7964
oli	-11.7964
▁lot	-11.7965
2+,	-11.7967
▁Tr	-11.7967
▁.01	-11.7967
▁128	-11.7968
3.2%	-11.7969
▁retroperitoneal	-11.797
▁advent	-11.797
▁Almost	-11.797
▁readers	-11.7971
Hz	-11.7973
CAP	-11.7974
▁observer	-11.7976
treat	-11.7979
▁Cases	-11.798
▁sulfide	-11.798
▁repetition	-11.7981
▁sensorimotor	-11.7982
▁Bu	-11.7982
KI	-11.7982
▁113	-11.7982
NV	-11.7983
AOR	-11.7986
▁gating	-11.7987
▁union	-11.7989
▁photosynthesis	-11.7997
social	-11.8
echo	-11.8006
cysteine	-11.8007
WD	-11.8008
TBI	-11.8009
ral	-11.801
▁0.86	-11.801
▁ABC	-11.8011
▁modulators	-11.8012
▁0.1%	-11.8012
▁0.83	-11.8013
▁twofold	-11.8013
▁0.93	-11.8014
▁erythroid	-11.8015
▁j	-11.8016
▁message	-11.8016
▁scoliosis	-11.8017
▁counselling	-11.8017
rb	-11.8017
▁Healthcare	-11.8018
▁recognizing	-11.802
▁Comparative	-11.8021
▁Hy	-11.8022
▁receptive	-11.8024
▁investment	-11.8024
▁monomeric	-11.8024
▁IB	-11.8028
▁difficile	-11.8029
▁coral	-11.8032
myo	-11.8034
▁rock	-11.8034
▁sheet	-11.8035
immunomodulatory	-11.8035
▁handle	-11.8035
▁workforce	-11.8037
distinguishable	-11.8038
▁Ra	-11.8039
▁(31	-11.8039
▁topology	-11.8041
▁menopause	-11.8042
▁infra	-11.8044
▁Environmental	-11.8047
▁sickle	-11.8048
▁integrative	-11.8048
▁uninfected	-11.8049
▁Region	-11.805
illa	-11.8052
▁debridement	-11.8052
▁gastrin	-11.8054
▁0.76	-11.8055
▁ball	-11.8055
▁plausible	-11.8056
fr	-11.8059
ik	-11.8059
▁allosteric	-11.806
gas	-11.8061
▁uveitis	-11.8064
▁stand	-11.8065
▁Natural	-11.8068
▁dentate	-11.8068
▁Gd	-11.807
▁localize	-11.8071
▁ophthalmic	-11.8072
VF	-11.8074
▁Left	-11.8076
▁knock	-11.8078
4.3%	-11.8082
ulated	-11.8083
▁Correlation	-11.8083
▁dosages	-11.8086
▁dentists	-11.8086
▁answered	-11.8086
3.2	-11.8087
▁adiposity	-11.8087
▁defence	-11.8087
▁hallmark	-11.8088
tur	-11.8088
▁biophysical	-11.8088
▁collections	-11.8089
(10)	-11.8089
-43	-11.8094
liter	-11.8095
MU	-11.8095
▁0.87	-11.8097
generated	-11.8098
omerulonephritis	-11.8099
▁Med	-11.81
▁glandular	-11.8101
▁copolymer	-11.8102
▁EL	-11.8102
105	-11.8107
▁0.84	-11.8108
▁colleagues	-11.8109
▁MPa	-11.8111
▁sophisticated	-11.8111
▁tinnitus	-11.8111
▁Eastern	-11.8111
axis	-11.8114
▁throughput	-11.8118
azine	-11.8119
▁Poisson	-11.812
▁trachea	-11.8121
▁gaze	-11.8122
▁Su	-11.8122
don	-11.8125
▁VF	-11.8125
▁40-	-11.8126
▁fathers	-11.8126
▁PTC	-11.8128
rap	-11.8128
▁subpopulation	-11.8129
▁lignin	-11.8129
▁intent	-11.813
▁unless	-11.813
▁0.82	-11.8132
▁LG	-11.8133
seeking	-11.8133
▁0.35	-11.8135
sample	-11.8135
▁cal	-11.8136
radio	-11.8136
▁sick	-11.8136
plasma	-11.8137
4,5-	-11.8138
▁81%	-11.8139
▁os	-11.8141
▁linker	-11.8143
▁NG	-11.8143
▁granulosa	-11.8143
nor	-11.8144
3.4%	-11.8145
▁drying	-11.8145
▁BCL	-11.8148
▁Thr	-11.8148
▁ecto	-11.8151
▁LL	-11.8152
▁hydrocarbon	-11.8154
▁imperative	-11.8155
▁Open	-11.8156
▁50-	-11.8157
particle	-11.8158
▁Diseases	-11.8158
BSA	-11.8159
▁crossing	-11.8161
▁Platelet	-11.8162
▁warning	-11.8164
▁subcortical	-11.8164
▁Adverse	-11.8167
▁vasodilator	-11.8168
▁Saudi	-11.8168
ade	-11.8171
▁psychotherapy	-11.8171
▁intrahepatic	-11.8171
▁0.91	-11.8172
ination	-11.8173
▁Radio	-11.8173
▁etiological	-11.8173
▁crown	-11.8174
▁mimics	-11.8174
trioventricular	-11.8174
�=�2	-11.8176
tine	-11.8178
▁flowering	-11.8178
▁Mass	-11.8178
FB	-11.8178
▁Safety	-11.8178
1+	-11.8182
▁Bacterial	-11.8183
▁195	-11.8184
▁Pol	-11.8186
▁trophic	-11.8186
▁Practice	-11.8186
▁capsaicin	-11.8186
▁1983	-11.8187
▁multifocal	-11.8187
▁JAK	-11.8188
▁emulsion	-11.8189
tron	-11.819
▁Rac	-11.819
▁concurrently	-11.819
▁Therapeutic	-11.819
�%)	-11.8191
Gy	-11.8191
-19)	-11.8192
8.4	-11.8192
▁projected	-11.8193
▁cruciate	-11.8194
▁bifurcation	-11.8195
▁osteoclast	-11.8198
▁114	-11.8198
▁verification	-11.8198
hex	-11.8199
�=�.0	-11.82
▁Neo	-11.8203
▁advancing	-11.8204
9.6	-11.8205
▁normo	-11.8206
▁ascorbic	-11.8206
▁permeation	-11.8206
▁That	-11.8207
▁thousands	-11.8208
▁south	-11.8209
enyl	-11.8209
▁inbred	-11.821
COPD	-11.8211
iodo	-11.8214
▁PARP	-11.8218
3.6%	-11.8219
▁ACC	-11.8219
▁pole	-11.8219
diphenyl	-11.8223
▁pharmacology	-11.8226
PCI	-11.8226
bb	-11.8228
▁predictable	-11.8229
▁drift	-11.823
▁Ala	-11.8232
8.9	-11.8232
▁perfect	-11.8233
▁excreted	-11.8235
▁Src	-11.8237
7.9	-11.8238
▁constituent	-11.8239
▁9.5	-11.824
▁SAM	-11.824
▁Surface	-11.8242
▁father	-11.8243
▁carcinogenic	-11.8246
▁anastomotic	-11.8246
▁deployment	-11.8246
▁schedules	-11.8246
▁reorganization	-11.8247
▁acetabular	-11.8248
▁afferents	-11.8248
ago	-11.825
▁4�	-11.8251
▁Can	-11.8252
▁feeling	-11.8258
LB	-11.826
▁biased	-11.826
mycin	-11.8261
0.9%	-11.8262
▁vesicular	-11.8262
▁Successful	-11.8263
demographic	-11.8266
▁otitis	-11.8266
▁reconstructive	-11.8267
▁ON	-11.827
chlor	-11.827
5.3%	-11.8272
▁proteinase	-11.8272
▁methicillin	-11.8274
▁sheets	-11.8275
male	-11.8275
▁WS	-11.8276
▁ranking	-11.8277
NAME	-11.8277
▁VII	-11.8278
enol	-11.828
HN	-11.828
▁piglets	-11.8282
▁wedge	-11.8285
▁iterative	-11.8286
▁nationally	-11.8287
▁shortly	-11.8287
iform	-11.8289
▁FD	-11.829
▁frailty	-11.829
▁2010.	-11.8293
▁perceive	-11.8294
▁detoxification	-11.8294
▁converting	-11.8295
UG	-11.8297
▁instructions	-11.8297
▁underestimated	-11.8298
▁Plant	-11.8299
RG	-11.8302
▁(2-	-11.8303
▁Symptoms	-11.8304
SLE	-11.8305
structure	-11.8305
▁latex	-11.8306
▁yolk	-11.8306
spir	-11.8307
▁Flu	-11.8309
▁peaked	-11.8309
▁30�	-11.8312
▁PDT	-11.8314
▁GG	-11.8318
▁decarboxylase	-11.8318
▁authorities	-11.8319
▁VL	-11.8319
▁sequentially	-11.832
▁rotator	-11.8321
du	-11.8321
EGF	-11.8323
▁pesticide	-11.8325
▁6.6	-11.8325
4.9%	-11.8326
▁broncho	-11.8327
aortic	-11.8327
fin	-11.8328
▁deliveries	-11.8331
ones	-11.8332
RK	-11.8333
▁belonged	-11.8334
depleted	-11.8335
▁functionalized	-11.8335
▁flows	-11.8336
▁neighborhood	-11.8336
▁triphosphate	-11.8339
▁originate	-11.834
▁laws	-11.8344
lation	-11.8344
▁-3	-11.8345
▁tap	-11.8349
consuming	-11.8351
▁0.78	-11.8354
▁arbitrary	-11.8355
▁eliminating	-11.8355
▁auxin	-11.8355
(-2)	-11.8357
▁lose	-11.8357
yo	-11.8357
0.2	-11.8358
▁phone	-11.8359
www	-11.8359
▁OCD	-11.836
▁drawing	-11.8363
▁Detection	-11.8363
▁GABAergic	-11.8363
▁disaster	-11.8365
▁5.9	-11.8368
▁constituted	-11.8368
▁resemble	-11.8368
estradiol	-11.837
troph	-11.8373
ALS	-11.8376
▁MDS	-11.8377
▁straightforward	-11.8379
▁surprisingly	-11.8382
hypo	-11.8383
ust	-11.8384
▁.01)	-11.8386
▁orthogonal	-11.8391
ein	-11.8393
table	-11.8395
▁Until	-11.8396
system	-11.8396
▁Auto	-11.8396
Cd	-11.8398
▁cited	-11.8399
female	-11.8401
dt	-11.8404
glycoprotein	-11.8404
▁equipped	-11.8405
stress	-11.8406
▁jump	-11.8407
OE	-11.8408
▁dot	-11.8408
▁simulator	-11.8412
logical	-11.8414
▁eosinophilic	-11.8414
▁partitioning	-11.8414
▁Klebsiella	-11.8416
▁globulin	-11.8419
▁(10%)	-11.8419
▁deformities	-11.842
▁surrounded	-11.8422
▁1.01	-11.8424
vert	-11.8424
▁61%	-11.8427
▁implicit	-11.8427
reg	-11.8428
▁Gaussian	-11.8429
▁Phys	-11.843
▁claim	-11.8431
▁reasoning	-11.8433
▁anorexia	-11.8436
▁Dynamic	-11.8436
ash	-11.8437
▁eosinophil	-11.844
▁Ste	-11.8441
angiotensin	-11.8441
▁Measurement	-11.8443
▁bu	-11.8443
▁flora	-11.8445
▁SCA	-11.8446
▁dissected	-11.8447
▁patterning	-11.8447
St	-11.8447
Ra	-11.8448
6]	-11.8448
▁MCI	-11.8449
▁neuropeptide	-11.8449
NU	-11.8449
▁6.1	-11.8452
▁augment	-11.8455
self	-11.8456
Con	-11.846
5.2	-11.8462
-33	-11.8463
▁tricuspid	-11.8464
ute	-11.8465
▁degrade	-11.8465
operation	-11.8467
▁thematic	-11.8468
tia	-11.8468
▁shedding	-11.8469
▁possessing	-11.8469
1.1%	-11.8471
20)	-11.8471
polymer	-11.8473
▁steatosis	-11.8474
thal	-11.8474
▁Disorders	-11.8475
-0.1	-11.8476
(�)	-11.8477
▁atresia	-11.8481
1(	-11.8482
▁BF	-11.8482
▁dipole	-11.8484
eck	-11.8484
▁infiltrating	-11.8487
▁lytic	-11.8492
▁SMA	-11.8494
▁3-4	-11.8495
▁TI	-11.8496
▁Respiratory	-11.8497
▁standardization	-11.8498
▁casein	-11.8498
9.7	-11.8502
-4,	-11.8504
nano	-11.8506
▁capsular	-11.8506
5.0%	-11.8507
▁neglected	-11.8507
▁Sm	-11.8508
▁Rb	-11.851
▁fluoro	-11.8511
▁phi	-11.8511
▁governing	-11.8511
▁Less	-11.8513
▁brachytherapy	-11.8518
▁smallest	-11.8519
▁distraction	-11.8519
9.0	-11.8519
pituitary	-11.8519
▁sn	-11.8521
uri	-11.8523
-45	-11.8524
<0.0001)	-11.8524
▁relates	-11.8524
▁0.18	-11.8528
160	-11.8529
▁ascertained	-11.8529
▁Danish	-11.853
eclampsia	-11.8532
GF	-11.8533
▁21-	-11.8534
▁cassette	-11.8534
▁HGF	-11.8537
▁Sal	-11.8538
▁tacrolimus	-11.8539
SAR	-11.8541
▁0.65	-11.8542
▁1982	-11.8542
ki	-11.8545
eo	-11.8545
▁rad	-11.8547
▁vegetative	-11.8548
▁190	-11.8548
%)	-11.8549
▁MU	-11.8549
▁(2.5	-11.8549
▁(45	-11.855
▁friends	-11.855
▁occupation	-11.855
▁infectivity	-11.8551
▁coatings	-11.8552
▁utilizes	-11.8552
▁checked	-11.8554
▁Nutrition	-11.8557
▁serous	-11.8557
leg	-11.8557
▁EMT	-11.8558
Bu	-11.8558
▁methylene	-11.8561
1-3	-11.8562
▁polysaccharides	-11.8563
▁basolateral	-11.8563
▁confusion	-11.8563
▁pipeline	-11.8565
ny	-11.8566
▁(0.8	-11.8567
▁prednisone	-11.8568
era	-11.8572
ases	-11.8578
0.1%	-11.8578
adenosine	-11.8578
▁0.81	-11.8579
▁County	-11.858
▁antagonism	-11.858
▁amphetamine	-11.8581
▁sciences	-11.8581
▁Trp	-11.8581
▁substantia	-11.8583
▁CML	-11.8583
▁0.72	-11.8583
▁(25%)	-11.8584
▁Nineteen	-11.8588
▁oestrogen	-11.8588
▁infrequent	-11.8594
more	-11.8596
▁vicinity	-11.8596
▁autoimmunity	-11.8596
▁ingested	-11.8597
▁dimensional	-11.86
▁bevacizumab	-11.8601
▁Swiss	-11.8601
▁adjunctive	-11.8601
12,	-11.8602
▁op	-11.8605
neuro	-11.8608
▁warming	-11.8614
▁insensitive	-11.8622
▁north	-11.8622
▁directional	-11.8623
plant	-11.8624
▁ensemble	-11.8625
▁Cardiovascular	-11.8626
▁conferred	-11.8626
FH	-11.8627
sive	-11.8629
▁seropositive	-11.863
ulation	-11.863
▁69%	-11.8632
▁prednisolone	-11.8634
Pr	-11.8635
▁Dose	-11.8637
kinetic	-11.8638
▁rhesus	-11.8638
▁IBS	-11.8638
▁facile	-11.8638
▁0.20	-11.8639
▁resections	-11.864
rous	-11.8641
▁desensitization	-11.8647
▁bridging	-11.8649
gon	-11.865
▁metric	-11.865
16)	-11.8651
cholesterolemia	-11.8652
miss	-11.8652
▁solving	-11.8653
▁pictures	-11.8653
▁Complex	-11.8653
▁0.45	-11.8653
▁favored	-11.8655
product	-11.8657
▁(-)-	-11.8657
▁bank	-11.8657
HG	-11.8658
▁appraisal	-11.8659
▁0.17	-11.866
left	-11.866
EI	-11.8661
9.9%	-11.8663
▁pull	-11.8666
▁0.70	-11.8667
fi	-11.8668
▁priorities	-11.8669
▁worker	-11.8671
▁transparent	-11.8672
▁uniquely	-11.8672
pig	-11.8674
vers	-11.8674
▁Students	-11.8675
▁comparatively	-11.8676
family	-11.8676
br	-11.8677
▁hepatoma	-11.8677
▁14,	-11.8681
▁confers	-11.8682
▁synchronization	-11.8682
▁fulfilled	-11.8683
▁intrathecal	-11.8688
▁healed	-11.869
▁pointed	-11.869
▁aids	-11.8691
▁Effective	-11.8692
9.8	-11.8692
rot	-11.8692
▁pertinent	-11.8692
▁begun	-11.8692
17)	-11.8694
▁consecutively	-11.8694
trained	-11.8696
Ma	-11.8696
▁Maximum	-11.8696
lex	-11.8697
▁nanoscale	-11.8697
▁antagonistic	-11.8698
▁2011.	-11.8699
5.1	-11.8699
▁benzo	-11.87
▁store	-11.87
cutaneous	-11.8701
▁Controlled	-11.8701
▁WB	-11.8702
▁hips	-11.8703
▁rib	-11.8704
▁latencies	-11.8705
▁alginate	-11.8706
antigen	-11.8707
4.0%	-11.8708
▁weather	-11.8708
▁SAH	-11.8709
▁neurogenic	-11.8712
RBC	-11.8716
▁occupied	-11.8716
▁DU	-11.8718
▁interneurons	-11.8718
▁DHA	-11.8719
▁rho	-11.8719
▁GVHD	-11.8719
▁mastectomy	-11.872
9.4	-11.872
▁Descriptive	-11.8722
▁appetite	-11.8722
[...]
