<unk>	0
<s>	0
</s>	0
▁the	-3.30676
.	-3.32786
▁of	-3.36217
,	-3.41737
▁and	-3.57834
▁in	-3.9242
-	-3.96836
▁to	-4.20326
▁a	-4.42044
▁(	-4.4991
▁with	-4.65893
)	-4.8114
▁for	-4.92225
▁was	-4.93239
▁	-4.96579
▁The	-5.00795
▁were	-5.01704
s	-5.12303
▁is	-5.12382
▁that	-5.17804
▁by	-5.30812
▁on	-5.54809
▁as	-5.59962
▁patients	-5.64091
▁from	-5.67909
▁are	-5.74746
▁be	-5.84382
▁or	-5.84717
▁an	-5.90116
▁at	-5.94905
/	-6.00262
▁this	-6.02708
▁In	-6.10278
▁study	-6.19054
▁not	-6.22988
▁A	-6.25636
▁have	-6.34094
▁cells	-6.35445
▁which	-6.36918
▁between	-6.38584
▁We	-6.43339
▁than	-6.50778
).	-6.52802
;	-6.54572
2	-6.56551
),	-6.58818
▁This	-6.58829
▁after	-6.5892
▁these	-6.59413
▁we	-6.59587
▁has	-6.59678
▁been	-6.60757
▁treatment	-6.61112
1	-6.64394
▁but	-6.69043
▁using	-6.69379
'	-6.69451
▁cell	-6.70316
▁may	-6.71877
▁their	-6.72596
▁results	-6.72755
▁can	-6.73714
▁used	-6.74696
:	-6.76381
▁also	-6.78894
▁two	-6.80528
▁had	-6.81644
▁=	-6.81698
▁group	-6.81877
▁both	-6.84503
▁more	-6.84707
P	-6.87231
▁high	-6.8862
▁during	-6.89202
▁data	-6.91246
▁disease	-6.9293
▁clinical	-6.977
▁analysis	-6.99668
▁associated	-7.00123
▁activity	-7.01885
▁all	-7.03226
▁C	-7.03904
▁increased	-7.04021
▁other	-7.04431
▁significantly	-7.04627
▁found	-7.05018
▁compared	-7.05376
▁studies	-7.06067
▁protein	-7.06566
▁significant	-7.07607
▁2	-7.07722
▁P	-7.08169
▁levels	-7.08198
▁different	-7.09482
▁no	-7.11105
▁expression	-7.1115
▁time	-7.12741
▁showed	-7.134
▁it	-7.14085
▁one	-7.14216
▁effects	-7.14661
▁effect	-7.15695
▁1	-7.15888
▁its	-7.1684
▁non	-7.16923
▁use	-7.17326
▁3	-7.17956
p	-7.18325
▁risk	-7.18581
▁cancer	-7.18701
3	-7.19184
▁into	-7.20819
▁well	-7.22088
▁These	-7.23856
n	-7.24121
A	-7.24351
▁years	-7.24354
▁control	-7.24707
C	-7.25572
▁most	-7.2613
▁T	-7.28599
(	-7.28712
▁age	-7.28869
▁patient	-7.29639
▁higher	-7.2987
▁only	-7.32009
▁such	-7.32227
▁cases	-7.32259
▁human	-7.34355
▁To	-7.34401
▁observed	-7.34412
▁model	-7.34779
▁present	-7.34808
▁rate	-7.36461
▁health	-7.36673
▁who	-7.36951
▁p	-7.36986
▁groups	-7.37202
▁gene	-7.3963
▁However	-7.40023
▁when	-7.40704
▁B	-7.40873
▁three	-7.41232
▁low	-7.41388
▁system	-7.41494
▁factors	-7.43444
D	-7.4357
▁first	-7.43921
▁response	-7.44293
▁blood	-7.45635
▁role	-7.4582
▁those	-7.46791
▁performed	-7.50879
▁method	-7.51061
S	-7.51907
▁development	-7.51951
▁increase	-7.52073
-1	-7.52601
▁respectively	-7.5267
▁changes	-7.53123
▁total	-7.53626
▁could	-7.55061
▁new	-7.55614
▁function	-7.55638
▁potential	-7.55838
e	-7.56066
▁important	-7.56405
▁4	-7.56419
ing	-7.56483
▁therapy	-7.5748
▁care	-7.58987
a	-7.59622
▁number	-7.59666
▁level	-7.6084
▁among	-7.61507
▁acid	-7.61622
▁within	-7.62028
▁including	-7.62333
▁+/-	-7.63118
▁5	-7.63288
▁<	-7.64299
4	-7.64975
▁our	-7.65889
▁over	-7.66451
▁children	-7.66708
▁normal	-7.67021
▁identified	-7.67044
�	-7.67259
▁It	-7.67281
▁through	-7.68067
▁growth	-7.68955
▁lower	-7.68964
▁reported	-7.69536
H	-7.70082
▁each	-7.70441
▁tumor	-7.71139
▁S	-7.71276
▁there	-7.72446
L	-7.72472
▁without	-7.72493
▁women	-7.72611
▁DNA	-7.72746
▁6	-7.73066
T	-7.73403
▁less	-7.73888
▁suggest	-7.74113
▁did	-7.7444
▁type	-7.75488
B	-7.76071
▁based	-7.76527
▁case	-7.7667
▁findings	-7.76691
▁months	-7.77926
R	-7.78985
d	-7.78992
▁tissue	-7.79055
▁10	-7.79241
▁test	-7.81228
▁specific	-7.81469
▁factor	-7.81473
▁diagnosis	-7.82148
▁D	-7.82346
▁N	-7.82464
▁days	-7.82633
▁while	-7.82719
▁presence	-7.82858
▁evidence	-7.83086
▁under	-7.83286
▁species	-7.83597
▁about	-7.83892
▁obtained	-7.84205
▁mean	-7.84249
▁I	-7.84467
▁differences	-7.84552
N	-7.8477
▁mice	-7.85029
▁E	-7.85477
▁due	-7.8559
▁population	-7.86286
▁conditions	-7.86341
▁single	-7.86356
▁similar	-7.86392
▁related	-7.86593
▁genes	-7.86619
▁H	-7.86659
▁some	-7.86716
▁should	-7.86829
▁proteins	-7.86883
▁mg	-7.87035
▁reduced	-7.87344
▁primary	-7.87348
▁infection	-7.88359
▁show	-7.88517
based	-7.88561
▁review	-7.89101
▁early	-7.89298
▁There	-7.89312
▁developed	-7.89742
▁research	-7.89788
▁treated	-7.89817
▁surgery	-7.90053
▁L	-7.90931
▁M	-7.91119
▁addition	-7.91311
▁they	-7.91724
ly	-7.91727
▁studied	-7.91874
▁measured	-7.92271
ed	-7.93145
▁"	-7.93236
▁drug	-7.93508
▁decreased	-7.93755
▁revealed	-7.94508
▁investigated	-7.94588
▁long	-7.94717
▁receptor	-7.94814
I	-7.9494
▁included	-7.95193
▁rats	-7.95724
▁common	-7.96004
i	-7.96283
"	-7.96353
▁period	-7.96527
▁positive	-7.96653
▁demonstrated	-7.97644
▁survival	-7.98041
▁samples	-7.98486
▁h	-7.98814
▁Our	-7.98873
▁concentration	-7.98919
induced	-7.99047
up	-7.99634
▁determine	-7.99654
▁information	-7.99842
▁evaluated	-8.00217
▁provide	-8.00993
O	-8.01298
▁large	-8.01346
▁approach	-8.01398
▁dose	-8.01461
▁further	-8.01717
▁subjects	-8.01786
▁brain	-8.01895
▁methods	-8.02006
▁serum	-8.02013
▁examined	-8.02534
▁anti	-8.02576
▁concentrations	-8.02619
▁will	-8.02623
▁major	-8.03283
▁process	-8.03446
▁binding	-8.03636
▁following	-8.04023
▁complex	-8.04933
▁whether	-8.05102
▁rates	-8.05259
▁effective	-8.05517
▁surface	-8.05664
▁per	-8.0573
or	-8.06072
g	-8.06252
▁molecular	-8.08102
▁liver	-8.08167
▁symptoms	-8.08198
▁plasma	-8.08448
▁quality	-8.08694
▁same	-8.08846
▁pain	-8.08898
▁functional	-8.09078
F	-8.0927
▁either	-8.09346
▁determined	-8.09807
▁before	-8.10044
▁small	-8.10171
▁report	-8.10488
▁bone	-8.10661
▁acute	-8.11046
▁various	-8.11067
▁four	-8.11618
c	-8.11852
▁post	-8.12053
▁shown	-8.12132
▁induced	-8.12423
▁chronic	-8.12729
▁values	-8.12746
▁pressure	-8.13157
▁CD	-8.13175
▁several	-8.1326
▁current	-8.13685
M	-8.13703
▁structure	-8.14131
]	-8.14136
▁CI	-8.14282
▁7	-8.14466
▁known	-8.15215
r	-8.15271
▁activation	-8.15304
▁against	-8.15655
▁greater	-8.16022
▁outcomes	-8.1613
▁G	-8.1654
▁follow	-8.17191
▁mechanisms	-8.17237
▁body	-8.1756
▁12	-8.17561
related	-8.17601
E	-8.17773
▁models	-8.18101
▁involved	-8.18122
▁8	-8.18154
▁out	-8.18548
▁vs	-8.18872
▁stress	-8.18885
▁mortality	-8.1894
▁vitro	-8.18977
▁evaluate	-8.19366
▁range	-8.19407
▁detected	-8.19409
▁formation	-8.19486
▁assessed	-8.19644
m	-8.19884
▁up	-8.19888
▁many	-8.20279
▁any	-8.20352
▁possible	-8.2037
▁ratio	-8.20641
▁multiple	-8.20644
▁medical	-8.20828
▁change	-8.20924
▁water	-8.21236
▁management	-8.21342
▁membrane	-8.21504
▁production	-8.22399
▁analyzed	-8.22741
▁beta	-8.23059
5	-8.23212
year	-8.23456
▁weight	-8.23586
▁alpha	-8.23869
in	-8.24071
▁association	-8.24352
▁difference	-8.24655
▁whereas	-8.24685
▁exposure	-8.24741
▁life	-8.24742
▁novel	-8.24883
▁properties	-8.25175
▁performance	-8.25221
▁responses	-8.25302
G	-8.25567
▁reduction	-8.25593
▁support	-8.25714
▁work	-8.2617
▁mechanism	-8.2646
▁loss	-8.26668
▁muscle	-8.2674
▁size	-8.26972
-2	-8.27155
▁presented	-8.27227
▁pre	-8.27578
▁imaging	-8.27727
▁phase	-8.27926
▁�	-8.28419
▁surgical	-8.28462
▁region	-8.28488
▁genetic	-8.28675
▁controls	-8.28729
▁weeks	-8.28833
b	-8.29001
▁Although	-8.29031
▁20	-8.29162
dependent	-8.29395
▁All	-8.29594
term	-8.29664
▁resistance	-8.30458
▁characteristics	-8.31946
specific	-8.3197
▁technique	-8.32029
▁identify	-8.32103
▁severe	-8.32336
▁relationship	-8.32866
▁95%	-8.33069
▁K	-8.33077
▁self	-8.33256
6	-8.33402
▁diseases	-8.33424
▁area	-8.34341
▁how	-8.34534
▁conducted	-8.34608
al	-8.34699
▁available	-8.34828
▁virus	-8.34876
▁Here	-8.34886
▁considered	-8.35067
▁parameters	-8.35114
▁investigate	-8.35149
▁aim	-8.35619
▁For	-8.35761
▁outcome	-8.35771
▁contrast	-8.35788
▁syndrome	-8.35836
▁assess	-8.35952
▁systems	-8.3601
▁being	-8.36369
▁however	-8.37011
▁vivo	-8.37027
▁indicate	-8.37284
▁active	-8.37388
▁lung	-8.37443
▁very	-8.37702
▁required	-8.37857
kg	-8.37904
K	-8.38043
▁described	-8.3809
▁heart	-8.38182
▁negative	-8.38369
▁result	-8.38513
▁injury	-8.38517
▁mass	-8.38534
▁flow	-8.38658
▁decrease	-8.38898
▁value	-8.3894
▁II	-8.39251
▁highly	-8.39661
▁because	-8.39959
▁followed	-8.40074
▁incidence	-8.40112
▁reaction	-8.40141
▁order	-8.4015
▁impact	-8.40357
▁tested	-8.40513
▁status	-8.40612
▁better	-8.40696
▁detection	-8.41038
▁site	-8.41371
▁therapeutic	-8.41398
▁form	-8.41711
▁previously	-8.41918
▁isolated	-8.42
▁day	-8.42071
▁types	-8.42157
▁enzyme	-8.42199
▁lesions	-8.42397
▁F	-8.42631
▁frequency	-8.42935
▁family	-8.43209
▁healthy	-8.43218
▁complications	-8.43481
▁30	-8.43529
▁target	-8.43702
▁left	-8.4379
▁caused	-8.43798
▁second	-8.44232
▁An	-8.44281
▁9	-8.44702
▁renal	-8.44845
▁15	-8.45021
▁features	-8.45053
to	-8.45416
▁general	-8.45691
▁improved	-8.45784
▁received	-8.45903
▁re	-8.46101
▁via	-8.46259
▁individuals	-8.46335
▁sensitivity	-8.46436
▁if	-8.46475
▁influence	-8.46483
▁prevalence	-8.46496
▁IL	-8.46566
▁R	-8.46683
▁ability	-8.46686
▁cause	-8.4677
▁male	-8.46807
▁sites	-8.47522
▁need	-8.47766
▁standard	-8.47817
▁animals	-8.47879
▁sequence	-8.48117
▁hospital	-8.483
▁correlation	-8.48476
▁breast	-8.48563
▁inhibition	-8.48635
h	-8.4943
▁tumors	-8.49435
▁combination	-8.49448
▁often	-8.49716
▁distribution	-8.49888
▁sample	-8.49892
▁death	-8.49954
l	-8.50095
▁literature	-8.50487
▁overall	-8.50865
▁increasing	-8.50875
▁physical	-8.50896
▁improve	-8.50905
▁experimental	-8.50958
▁individual	-8.51362
V	-8.5142
▁state	-8.51565
▁drugs	-8.51598
▁After	-8.51795
▁likely	-8.51837
▁c	-8.52108
▁expressed	-8.52286
▁immuno	-8.52529
▁HIV	-8.5288
▁immune	-8.53027
▁efficacy	-8.53332
▁where	-8.53444
▁underwent	-8.53776
▁No	-8.53837
▁paper	-8.5406
▁n	-8.5422
▁indicated	-8.54523
▁cardiac	-8.54533
▁demonstrate	-8.54583
▁assessment	-8.54731
▁24	-8.54776
▁applied	-8.55064
▁produced	-8.5507
▁rat	-8.55292
▁evaluation	-8.55334
▁assay	-8.55362
▁five	-8.5569
o	-8.55855
▁analyses	-8.55945
▁administration	-8.56084
▁content	-8.56176
▁stage	-8.56278
▁relative	-8.56569
▁skin	-8.56791
▁As	-8.56891
▁At	-8.56986
▁participants	-8.57072
▁X	-8.5716
▁knowledge	-8.57161
▁recent	-8.57197
▁might	-8.57243
▁adult	-8.57297
▁field	-8.5745
▁disorders	-8.57464
▁Ca	-8.57668
▁failure	-8.57675
like	-8.57708
▁interaction	-8.5775
▁cross	-8.57772
▁least	-8.58037
▁release	-8.58093
▁intervention	-8.58223
▁part	-8.58368
▁made	-8.58634
▁correlated	-8.58669
▁processes	-8.58731
▁index	-8.58934
▁understanding	-8.58953
▁light	-8.59
▁characterized	-8.59005
▁techniques	-8.59206
▁men	-8.59233
▁social	-8.59252
▁mRNA	-8.59294
▁procedure	-8.59415
+	-8.59498
▁cellular	-8.59706
▁collected	-8.6027
▁average	-8.60282
▁end	-8.60362
▁volume	-8.6049
▁areas	-8.60553
▁O	-8.6056
▁glucose	-8.60625
▁RNA	-8.60775
▁energy	-8.60784
▁initial	-8.60906
▁proposed	-8.60933
▁would	-8.60937
▁diabetes	-8.61034
▁tissues	-8.61036
▁V	-8.61403
▁pathway	-8.61467
▁activities	-8.61489
▁temperature	-8.61871
▁regions	-8.62085
▁synthesis	-8.62134
▁events	-8.6218
▁diagnostic	-8.62613
▁Furthermore	-8.62891
▁year	-8.62928
▁patterns	-8.63167
▁pattern	-8.6344
▁min	-8.6378
▁discussed	-8.63924
▁local	-8.64314
▁affected	-8.64637
▁given	-8.64774
▁good	-8.64795
▁useful	-8.64931
▁them	-8.65144
▁female	-8.65191
▁co	-8.65281
▁oral	-8.65285
▁strains	-8.65394
▁limited	-8.65591
▁practice	-8.65714
▁insulin	-8.65744
▁then	-8.65911
▁occurred	-8.66076
▁across	-8.66134
▁Patients	-8.66189
▁even	-8.6621
▁behavior	-8.66249
ic	-8.6633
▁artery	-8.66419
▁measures	-8.66623
▁short	-8.67067
old	-8.67265
▁trials	-8.67392
▁tests	-8.67408
▁receptors	-8.6747
▁degrees	-8.6748
▁combined	-8.67562
▁key	-8.67679
▁regression	-8.67886
▁confirmed	-8.68281
▁stimulation	-8.68329
▁interactions	-8.68544
▁main	-8.68578
▁direct	-8.68628
t	-8.68691
▁compounds	-8.68898
▁provides	-8.68989
▁score	-8.69014
▁g	-8.69029
▁central	-8.6922
▁resulted	-8.69506
▁neurons	-8.69709
▁carcinoma	-8.69826
▁times	-8.7036
▁seen	-8.70368
▁14	-8.70517
▁suggested	-8.70629
▁adults	-8.7067
▁right	-8.70795
▁biological	-8.70902
▁experiments	-8.70959
▁history	-8.71603
▁18	-8.72008
7	-8.72253
▁previous	-8.72432
▁training	-8.72543
▁suggests	-8.72564
▁free	-8.72597
▁16	-8.72661
▁describe	-8.72909
▁vascular	-8.73022
▁antibodies	-8.73037
▁suggesting	-8.73168
▁m	-8.73173
▁strategies	-8.73227
▁culture	-8.7331
type	-8.73399
▁pulmonary	-8.73652
▁six	-8.73918
▁application	-8.74004
▁Thus	-8.74185
▁complete	-8.74319
(2)	-8.74514
▁design	-8.74528
▁amino	-8.74787
▁article	-8.74797
▁Two	-8.75288
▁containing	-8.75379
▁antibody	-8.75519
▁screening	-8.7554
▁especially	-8.75551
▁U	-8.75561
er	-8.75706
▁11	-8.75825
▁critical	-8.75916
▁scores	-8.7596
▁pH	-8.75985
▁structures	-8.75999
▁established	-8.76107
▁still	-8.76468
▁mutations	-8.76658
▁regulation	-8.76671
▁mm	-8.76818
▁selected	-8.7682
▁measurements	-8.76943
▁duration	-8.76995
▁baseline	-8.77103
▁length	-8.77131
▁density	-8.77215
▁proliferation	-8.78032
▁future	-8.78172
▁One	-8.78193
▁versus	-8.78249
▁essential	-8.78392
▁action	-8.78673
▁do	-8.78699
▁enhanced	-8.78891
beta	-8.78895
▁increases	-8.79042
▁agents	-8.79241
▁remains	-8.79254
▁independent	-8.79425
▁thus	-8.79455
▁examination	-8.79624
▁functions	-8.7996
▁play	-8.79986
▁according	-8.80111
es	-8.8019
▁basis	-8.80211
▁criteria	-8.80299
▁damage	-8.80333
▁secondary	-8.80342
▁lead	-8.8042
▁disorder	-8.80434
▁components	-8.80512
▁affect	-8.8067
▁signaling	-8.8073
▁provided	-8.80763
▁coronary	-8.80777
▁additional	-8.80804
▁Using	-8.80984
▁reduce	-8.81315
▁5-	-8.81339
alpha	-8.81402
▁testing	-8.81446
▁rare	-8.81492
▁i	-8.81517
▁inhibited	-8.81692
▁inhibitor	-8.81706
▁visual	-8.81783
▁'	-8.81798
▁populations	-8.81928
▁mouse	-8.82046
▁postoperative	-8.82165
▁improvement	-8.83264
▁side	-8.83342
▁kinase	-8.83654
▁comparison	-8.83714
▁approximately	-8.83923
▁strain	-8.83925
▁de	-8.84463
▁community	-8.84733
▁so	-8.84853
▁When	-8.85035
▁nerve	-8.85068
▁experience	-8.85154
▁does	-8.85374
▁importance	-8.85492
▁diagnosed	-8.85674
▁50	-8.85675
cell	-8.85734
day	-8.8581
▁signal	-8.86103
▁metabolic	-8.86147
▁sex	-8.86347
▁food	-8.864
▁structural	-8.86427
▁although	-8.86599
▁examine	-8.86613
▁progression	-8.86691
▁resulting	-8.86996
▁purpose	-8.87285
▁alone	-8.87294
▁condition	-8.87305
▁infections	-8.87366
▁molecules	-8.87428
▁procedures	-8.87685
▁pathways	-8.87752
▁series	-8.88213
▁13	-8.88215
▁Moreover	-8.88254
OR	-8.88296
▁rapid	-8.88383
▁lines	-8.88392
▁people	-8.88418
▁differentiation	-8.88879
▁apoptosis	-8.88899
▁cost	-8.89207
▁inflammatory	-8.895
▁oxygen	-8.89528
▁injection	-8.8983
▁transcription	-8.89834
8	-8.90192
9	-8.90285
▁trial	-8.90437
▁defined	-8.90604
▁achieved	-8.90692
▁metabolism	-8.90757
▁solution	-8.90777
mediated	-8.9085
▁safety	-8.9092
▁absence	-8.91158
v	-8.91331
▁develop	-8.91342
▁problems	-8.91623
▁peripheral	-8.91698
▁antigen	-8.91752
▁cognitive	-8.91862
y	-8.91924
▁set	-8.91961
▁include	-8.91968
▁Of	-8.92018
▁particularly	-8.92189
▁lipid	-8.92237
▁daily	-8.92285
▁x	-8.92312
▁variables	-8.92361
▁micro	-8.92434
▁needed	-8.92488
▁cohort	-8.92702
▁delivery	-8.92742
▁hours	-8.92895
1,	-8.92898
▁Both	-8.92934
▁capacity	-8.92974
▁aimed	-8.93054
▁regarding	-8.9306
▁depression	-8.93105
▁domain	-8.93326
▁poor	-8.9343
▁older	-8.93502
▁particular	-8.93668
▁Therefore	-8.93899
▁controlled	-8.93931
▁calcium	-8.93942
▁prior	-8.94093
▁pregnancy	-8.94131
▁exercise	-8.94249
▁few	-8.94416
▁CT	-8.94683
▁course	-8.94761
▁interval	-8.94769
▁degree	-8.95158
▁calculated	-8.95463
▁100	-8.95583
▁inhibitors	-8.957
▁acids	-8.95939
▁approaches	-8.95947
▁carried	-8.96395
▁products	-8.96564
▁median	-8.96681
th	-8.96691
▁adverse	-8.96726
▁On	-8.9675
▁compare	-8.9681
▁markers	-8.96817
▁bacterial	-8.96843
▁line	-8.96896
▁consistent	-8.96992
▁terms	-8.97308
▁chain	-8.97637
▁cycle	-8.97713
▁d	-8.97779
▁respiratory	-8.97799
▁host	-8.97924
▁open	-8.97952
▁sequences	-8.98154
▁therefore	-8.98157
▁medium	-8.9819
▁highest	-8.98283
▁derived	-8.98359
▁natural	-8.98507
▁kidney	-8.98617
▁recovery	-8.98671
▁conventional	-8.98707
min	-8.98761
▁sub	-8.98856
▁recorded	-8.98943
▁point	-8.9903
▁measure	-8.99054
▁chemical	-8.99636
▁uptake	-8.99661
▁chemotherapy	-8.99687
▁multi	-8.99692
▁s	-8.99703
▁program	-8.9978
▁plant	-9.00035
▁elevated	-9.00111
▁diet	-9.00138
▁cardiovascular	-9.00184
▁peptide	-9.0025
▁electron	-9.00305
▁underlying	-9.0031
free	-9.00435
▁variation	-9.00441
▁40	-9.00465
▁fluid	-9.00629
▁statistically	-9.0077
▁young	-9.01251
▁25	-9.01343
ml	-9.01449
▁environmental	-9.01488
▁doses	-9.01591
▁strong	-9.01698
▁best	-9.01893
▁mutation	-9.01936
▁causes	-9.02017
▁strategy	-9.02071
fold	-9.0208
▁whole	-9.02103
X	-9.02175
▁accuracy	-9.02312
▁environment	-9.02366
▁Results	-9.02488
▁help	-9.02624
▁estimated	-9.02841
▁distinct	-9.02877
▁interventions	-9.031
▁severity	-9.03108
▁necessary	-9.03186
▁identification	-9.03369
▁relevant	-9.03548
▁component	-9.03719
▁relatively	-9.04019
▁induction	-9.04039
▁contribute	-9.04169
▁sensitive	-9.04257
▁stable	-9.04447
▁lack	-9.04504
▁objective	-9.04552
▁stem	-9.04585
▁occur	-9.04605
▁simple	-9.04616
▁recently	-9.04626
▁network	-9.04669
▁reviewed	-9.04734
▁upon	-9.04845
▁much	-9.05022
▁appropriate	-9.05112
▁students	-9.05141
▁motor	-9.05265
▁ventricular	-9.05308
▁transport	-9.0542
▁frequently	-9.05591
▁17	-9.05779
▁specificity	-9.05829
▁onset	-9.06078
▁authors	-9.06163
▁2-	-9.06226
▁animal	-9.06258
▁administered	-9.06576
-3	-9.06637
▁developing	-9.06653
▁able	-9.06782
▁Health	-9.06875
▁viral	-9.06885
▁randomized	-9.069
2+	-9.07334
▁un	-9.07359
▁60	-9.07393
▁monitoring	-9.07412
▁leading	-9.07429
▁survey	-9.07455
▁tool	-9.07573
▁nuclear	-9.07816
▁alternative	-9.07826
▁quantitative	-9.07879
▁education	-9.07933
▁images	-9.08145
▁aged	-9.08155
▁amount	-9.08222
▁extent	-9.08237
▁systemic	-9.08261
▁mainly	-9.08345
▁little	-9.08473
▁(95%	-9.08487
▁learning	-9.08502
▁directly	-9.08551
▁problem	-9.0858
▁having	-9.08663
MS	-9.08746
▁hypertension	-9.08747
▁transfer	-9.08757
▁designed	-9.08951
▁radiation	-9.09117
▁treatments	-9.09233
▁mental	-9.09369
▁stroke	-9.09467
▁indicating	-9.0948
▁1,	-9.0962
▁subsequent	-9.09731
▁public	-9.09898
▁selection	-9.09973
▁magnetic	-9.10006
▁along	-9.10092
II	-9.10129
▁bacteria	-9.10145
associated	-9.10153
▁inflammation	-9.10431
2,	-9.10435
▁efficiency	-9.10448
▁together	-9.10551
▁laboratory	-9.10673
positive	-9.10788
▁source	-9.10871
▁exhibited	-9.10989
▁repair	-9.11246
2)	-9.11273
▁maximum	-9.11384
▁By	-9.11503
▁sleep	-9.11751
▁alcohol	-9.11816
▁material	-9.11847
▁prevention	-9.11919
▁genome	-9.12175
▁During	-9.12285
▁With	-9.12577
x	-9.12728
▁forms	-9.12825
▁anterior	-9.1286
▁measurement	-9.13053
▁dysfunction	-9.13162
▁females	-9.13171
▁position	-9.13506
▁predicted	-9.136
▁applications	-9.13613
▁appears	-9.13853
▁shows	-9.13879
▁exposed	-9.1392
▁scale	-9.14057
▁males	-9.14138
▁since	-9.14143
▁wild	-9.14182
▁endothelial	-9.14324
▁t	-9.14326
▁microscopy	-9.14336
▁involvement	-9.14452
▁Data	-9.14693
▁hypothesis	-9.14895
▁confidence	-9.1512
▁stability	-9.15194
▁means	-9.15282
▁class	-9.15423
▁unique	-9.15434
▁Among	-9.1579
▁e	-9.15887
▁double	-9.16006
▁gastric	-9.16047
▁attention	-9.16155
▁mutant	-9.16346
▁hand	-9.16471
▁J	-9.16506
▁variety	-9.1657
▁transplantation	-9.16758
▁must	-9.16829
▁moderate	-9.16983
▁+	-9.17061
▁unknown	-9.17252
▁infants	-9.17329
▁countries	-9.17344
▁advanced	-9.175
▁physiological	-9.17509
▁corresponding	-9.17634
▁21	-9.17712
▁cerebral	-9.17717
▁linear	-9.17819
▁reports	-9.17826
▁modified	-9.17841
▁intracellular	-9.18028
▁toxicity	-9.1825
▁processing	-9.18392
▁intake	-9.18425
▁hormone	-9.18492
▁late	-9.18614
▁memory	-9.1868
▁later	-9.18725
▁myocardial	-9.18777
▁secretion	-9.18888
▁published	-9.1892
▁real	-9.18994
▁matrix	-9.19072
▁services	-9.19167
▁full	-9.19567
▁commonly	-9.19602
▁3-	-9.19707
▁larger	-9.19822
▁epithelial	-9.1984
▁focus	-9.19842
▁arterial	-9.19853
1)	-9.19983
▁composition	-9.20188
▁isolates	-9.20241
▁peak	-9.20347
▁generated	-9.20486
▁internal	-9.20527
▁accumulation	-9.2075
▁recurrence	-9.20766
W	-9.20934
▁head	-9.21096
treated	-9.21157
▁III	-9.21311
▁half	-9.21321
▁remained	-9.21463
▁plants	-9.21584
▁stages	-9.2185
CI	-9.2192
▁intra	-9.21953
▁poly	-9.22058
▁strongly	-9.22139
▁cm	-9.22166
▁lesion	-9.222
▁dependent	-9.22242
f	-9.22248
▁19	-9.22507
▁(1)	-9.22673
▁intensity	-9.22918
▁prospective	-9.22923
ally	-9.23206
▁responsible	-9.23233
ity	-9.23318
▁transmission	-9.23464
ation	-9.23491
▁resection	-9.23498
▁coli	-9.23601
▁enzymes	-9.23613
▁majority	-9.23638
▁infected	-9.23692
▁clinically	-9.23696
▁birth	-9.23761
▁last	-9.23791
2-	-9.23868
▁investigation	-9.23925
▁spinal	-9.23958
J	-9.24142
▁malignant	-9.24149
▁led	-9.24157
▁resonance	-9.24496
1-	-9.24497
CD	-9.24671
▁effectiveness	-9.24811
▁proportion	-9.2508
▁cortex	-9.2521
▁sodium	-9.2529
▁specimens	-9.25369
▁reactions	-9.25475
▁prognosis	-9.25479
▁image	-9.25771
▁rather	-9.25933
▁materials	-9.2594
▁yet	-9.25992
▁inter	-9.26028
▁Three	-9.26244
▁activated	-9.26335
▁fraction	-9.26359
▁wide	-9.2641
▁become	-9.26506
time	-9.26509
us	-9.26521
▁above	-9.26551
▁produce	-9.26622
▁Further	-9.26627
▁removal	-9.26655
▁potentially	-9.26806
▁task	-9.26842
▁retrospective	-9.26908
▁fat	-9.26911
▁mechanical	-9.27076
▁profile	-9.27086
▁They	-9.27087
▁assays	-9.27159
▁wall	-9.27201
▁optimal	-9.27209
▁reference	-9.27273
▁percentage	-9.27305
▁While	-9.27334
▁longer	-9.27389
▁neural	-9.27402
▁selective	-9.27414
▁prevent	-9.27479
▁strength	-9.27497
▁dynamics	-9.27689
▁hyper	-9.27738
▁hepatic	-9.27763
▁placebo	-9.27781
▁completed	-9.27998
range	-9.28398
▁seven	-9.28413
▁(1	-9.28415
▁cholesterol	-9.28418
▁taken	-9.28441
▁induce	-9.28456
mean	-9.28581
▁agent	-9.28619
▁carbon	-9.28774
▁context	-9.28821
▁widely	-9.28823
▁percent	-9.28824
▁third	-9.28983
▁efficient	-9.28999
▁PCR	-9.29031
10	-9.29308
▁consumption	-9.29338
▁mitochondrial	-9.29445
▁morbidity	-9.29568
▁substrate	-9.29645
▁nature	-9.29698
▁biopsy	-9.29871
▁lymph	-9.29898
▁global	-9.29998
dimensional	-9.30039
▁questionnaire	-9.30161
▁interest	-9.30268
CT	-9.30457
▁smoking	-9.30469
▁difficult	-9.30555
▁prostate	-9.30596
one	-9.30606
the	-9.30633
▁complexes	-9.30649
▁explore	-9.3078
▁successful	-9.30781
▁occurs	-9.3081
▁undergoing	-9.30844
ization	-9.31039
▁power	-9.31145
▁urinary	-9.31322
▁involving	-9.31327
▁receiving	-9.31407
▁Finally	-9.3144
▁partial	-9.31479
▁relation	-9.31668
▁Most	-9.3172
▁benefit	-9.31733
is	-9.32064
▁tomography	-9.32096
▁eight	-9.32106
▁access	-9.32128
▁unit	-9.32148
53	-9.32178
▁degradation	-9.32441
▁frequent	-9.32722
▁regulatory	-9.32724
on	-9.33054
▁detect	-9.33058
▁spatial	-9.3332
▁inhibitory	-9.33423
▁mediated	-9.33444
▁(2)	-9.33516
▁operation	-9.33593
▁now	-9.336
▁generation	-9.33818
▁gender	-9.33959
▁expected	-9.34118
▁upper	-9.34294
);	-9.34342
▁significance	-9.34343
▁conclusion	-9.34371
▁cultures	-9.34395
▁old	-9.34396
▁metal	-9.34418
▁product	-9.3442
▁Group	-9.34506
▁lateral	-9.34511
▁week	-9.34525
▁manner	-9.34714
▁maternal	-9.34751
▁Despite	-9.34855
▁child	-9.35098
▁successfully	-9.35328
▁aspects	-9.35373
▁prepared	-9.35485
▁located	-9.35664
▁predictive	-9.3578
-19	-9.36051
▁sexual	-9.36093
▁fluorescence	-9.36208
of	-9.3624
▁here	-9.36334
▁discuss	-9.36364
▁laser	-9.36591
▁abnormalities	-9.36623
▁promising	-9.36642
▁prognostic	-9.36685
▁MRI	-9.36758
▁contact	-9.36764
▁relationships	-9.36811
▁predict	-9.36912
binding	-9.36947
▁fatty	-9.36958
▁oxidative	-9.36975
▁cervical	-9.37035
▁marker	-9.3708
▁tract	-9.37085
▁iron	-9.37206
▁members	-9.37357
▁certain	-9.37425
▁roles	-9.37528
▁currently	-9.37536
▁pathogenesis	-9.37568
▁differential	-9.37597
▁protocol	-9.37639
▁way	-9.37741
▁extracellular	-9.3788
▁Na	-9.3789
derived	-9.37958
▁requires	-9.37981
▁clear	-9.38222
▁points	-9.38266
▁phosphorylation	-9.38282
▁decision	-9.38284
▁22	-9.38358
▁liquid	-9.38545
▁humans	-9.3858
▁needs	-9.38593
▁statistical	-9.38988
▁r	-9.3901
▁dynamic	-9.39177
▁mild	-9.39184
▁formed	-9.39268
▁temporal	-9.39308
▁remain	-9.39458
▁continuous	-9.39482
▁posterior	-9.39533
▁fetal	-9.39643
▁basal	-9.39656
▁generally	-9.39682
▁abnormal	-9.39767
▁diabetic	-9.39871
▁divided	-9.39916
▁phenotype	-9.39952
▁anxiety	-9.40264
▁residues	-9.40325
▁challenge	-9.40475
▁conclude	-9.40516
▁external	-9.40526
▁reducing	-9.40671
▁understand	-9.40821
▁toward	-9.40839
▁medicine	-9.40851
▁variable	-9.40943
▁respect	-9.40972
▁promoter	-9.40981
▁guidelines	-9.41042
▁consecutive	-9.41047
▁step	-9.41051
▁transition	-9.41091
▁leads	-9.41112
▁altered	-9.41157
▁mixed	-9.41182
ray	-9.4124
▁intestinal	-9.41247
▁vaccine	-9.41257
▁elements	-9.41335
▁classification	-9.4146
▁represent	-9.41507
▁evolution	-9.41617
▁past	-9.41699
▁layer	-9.41734
▁living	-9.41741
▁graft	-9.41751
▁around	-9.41787
▁appear	-9.41809
▁staining	-9.41975
▁usually	-9.42155
▁search	-9.42197
▁28	-9.42286
▁pro	-9.42308
▁migration	-9.42316
▁allows	-9.42324
▁setting	-9.42331
▁neuronal	-9.42585
▁alterations	-9.42693
▁aortic	-9.42705
▁obesity	-9.42761
▁plays	-9.42909
▁targets	-9.42912
able	-9.42992
▁force	-9.43166
▁eye	-9.43216
▁throughout	-9.43264
▁trauma	-9.43466
▁miR	-9.43573
▁origin	-9.43575
▁accurate	-9.4385
▁costs	-9.43947
▁meta	-9.44063
▁systematic	-9.44113
▁near	-9.4416
▁theory	-9.44656
▁rapidly	-9.44665
▁programs	-9.44677
▁characteristic	-9.44761
▁joint	-9.44839
▁microM	-9.44967
▁make	-9.44999
▁associations	-9.45076
▁find	-9.45177
▁account	-9.45304
▁recognition	-9.45583
▁ion	-9.45585
▁comparable	-9.45662
▁abdominal	-9.45785
▁affinity	-9.45862
▁electro	-9.45869
50	-9.45944
▁differ	-9.45988
▁neuro	-9.46014
▁deficiency	-9.4604
▁ng	-9.46047
▁states	-9.4608
▁50%	-9.46294
▁technology	-9.46447
▁core	-9.46501
▁solid	-9.4659
▁48	-9.46794
▁resolution	-9.46824
▁soil	-9.46847
▁1-	-9.46904
-6	-9.47036
▁constant	-9.47044
▁impairment	-9.47225
▁(3	-9.47241
▁profiles	-9.47259
▁PD	-9.47349
▁b	-9.47448
PCR	-9.4752
▁thyroid	-9.47528
▁device	-9.47569
▁pancreatic	-9.47607
▁chromatography	-9.47665
▁tumour	-9.47679
▁implications	-9.47851
▁organic	-9.47862
▁0	-9.47877
▁dietary	-9.47916
▁estimate	-9.48048
▁employed	-9.48092
▁Based	-9.48136
▁air	-9.48295
▁sequencing	-9.48392
▁signs	-9.48511
▁invasive	-9.4852
▁safe	-9.48556
▁white	-9.48566
▁signals	-9.4857
▁metastasis	-9.48658
▁experienced	-9.48775
▁chromosome	-9.48789
▁space	-9.48818
▁domains	-9.48911
▁occurrence	-9.48917
▁variability	-9.4894
▁appeared	-9.4913
▁another	-9.49185
▁Since	-9.49253
▁grade	-9.49336
▁recommended	-9.49415
▁vitamin	-9.49445
sectional	-9.49517
▁impaired	-9.49583
▁sources	-9.49678
▁success	-9.49703
▁di	-9.49731
▁families	-9.49754
▁allow	-9.49756
0	-9.49767
▁specifically	-9.49969
▁linked	-9.49999
▁superior	-9.50031
▁traditional	-9.50063
▁molecule	-9.50163
HT	-9.50247
▁benefits	-9.50248
▁From	-9.50346
▁therapies	-9.50352
▁collagen	-9.5041
▁require	-9.50521
▁ultrasound	-9.50531
▁units	-9.50549
▁gamma	-9.5062
methyl	-9.50764
▁basic	-9.50775
▁peptides	-9.50783
▁organ	-9.50881
▁behavioral	-9.50909
▁infusion	-9.50942
▁despite	-9.50952
▁analysed	-9.51007
▁providing	-9.51016
▁cultured	-9.51097
▁eyes	-9.51126
▁elderly	-9.51151
▁bio	-9.5117
▁almost	-9.5132
▁location	-9.51384
▁cancers	-9.51417
▁propose	-9.51594
▁yield	-9.51697
▁particles	-9.51717
terminal	-9.51765
▁trans	-9.51813
▁recurrent	-9.51834
▁Twenty	-9.51837
▁membranes	-9.51839
▁root	-9.51904
▁cord	-9.51905
▁0.05).	-9.51906
U	-9.52011
▁channel	-9.52017
12	-9.52122
▁cortical	-9.52133
▁fully	-9.52139
▁purified	-9.52301
▁final	-9.52577
▁asthma	-9.52597
▁media	-9.52632
▁nucleus	-9.52644
▁completely	-9.52679
▁finding	-9.52685
▁injuries	-9.5292
▁biochemical	-9.5306
▁ratios	-9.53177
▁physicians	-9.53235
▁issues	-9.53317
▁35	-9.53436
▁defects	-9.53541
▁fracture	-9.53605
▁diameter	-9.53763
▁pediatric	-9.53766
▁noted	-9.53772
▁W	-9.53846
▁gel	-9.53857
=	-9.53927
▁urine	-9.53936
▁NO	-9.54003
▁kg	-9.54048
▁heat	-9.5413
▁(2	-9.54138
▁motion	-9.54146
▁enhance	-9.54177
▁gas	-9.5421
▁absorption	-9.54236
▁base	-9.54332
▁CO	-9.54402
▁indicates	-9.54473
▁towards	-9.54484
▁Overall	-9.54736
▁implementation	-9.54852
an	-9.54931
▁until	-9.54942
▁potent	-9.55072
▁presentation	-9.55117
q	-9.55213
ers	-9.55262
▁home	-9.55265
▁fusion	-9.55397
▁like	-9.55505
▁plus	-9.55628
▁marrow	-9.55724
▁variants	-9.55741
▁numbers	-9.5577
▁dogs	-9.5578
di	-9.55832
▁movement	-9.55967
▁determination	-9.55979
▁tools	-9.56109
▁challenges	-9.56225
▁Clinical	-9.56274
▁minutes	-9.56283
▁computed	-9.56348
▁unclear	-9.56382
▁morphology	-9.56516
▁experiment	-9.56561
▁observations	-9.56593
▁stimuli	-9.56608
▁IgG	-9.56754
▁diversity	-9.56868
▁framework	-9.56912
mg	-9.56945
▁probably	-9.56962
▁recombinant	-9.57002
▁(5	-9.57007
▁compound	-9.57161
▁optical	-9.57183
▁bleeding	-9.57315
▁ovarian	-9.57317
▁lymphocytes	-9.57382
▁23	-9.57405
▁nursing	-9.57502
▁healthcare	-9.57721
▁distal	-9.57817
▁randomly	-9.57933
w	-9.58023
▁Because	-9.58272
▁analyze	-9.58416
▁marked	-9.58489
▁agreement	-9.58548
▁close	-9.5875
▁neck	-9.58909
▁susceptibility	-9.58917
▁platelet	-9.58976
HR	-9.59034
▁resistant	-9.59107
▁RT	-9.59138
▁spectrum	-9.59164
▁preoperative	-9.59176
▁great	-9.59188
▁January	-9.59204
▁dental	-9.59275
risk	-9.59471
▁center	-9.59473
▁reconstruction	-9.59479
▁hepatitis	-9.59499
line	-9.59499
month	-9.59533
▁nm	-9.59542
negative	-9.59576
▁algorithm	-9.59791
▁donor	-9.59851
▁adolescents	-9.59926
ate	-9.59979
▁preparation	-9.60063
▁developmental	-9.60102
▁event	-9.60191
▁every	-9.60192
▁contained	-9.60245
re	-9.6031
▁red	-9.60377
▁communication	-9.60406
▁seems	-9.60415
▁whose	-9.6046
▁IV	-9.60616
▁complication	-9.6077
▁emergency	-9.61009
▁inhibit	-9.61131
▁medication	-9.61142
▁mM	-9.61181
▁tolerance	-9.61278
▁ligand	-9.61318
▁suitable	-9.61431
▁excellent	-9.61502
▁45	-9.6156
▁bladder	-9.61593
▁oxide	-9.61689
▁possibility	-9.61772
▁database	-9.62005
▁achieve	-9.62023
and	-9.62034
▁COVID	-9.62061
▁pathological	-9.62078
▁extensive	-9.62203
▁down	-9.62294
▁nervous	-9.62332
▁middle	-9.62334
▁genomic	-9.62366
▁extraction	-9.62409
▁adhesion	-9.62435
▁ml	-9.6246
▁apparent	-9.62489
▁far	-9.62555
▁reliable	-9.62628
▁hospitals	-9.62721
▁targeted	-9.62741
resistant	-9.62779
▁ATP	-9.62985
▁synthesized	-9.63136
▁address	-9.6321
▁routine	-9.63299
▁prediction	-9.6333
-4	-9.63358
k	-9.63428
▁situ	-9.63532
▁existing	-9.63545
▁Recent	-9.63555
▁protection	-9.63567
▁spectroscopy	-9.63694
▁school	-9.63735
▁4-	-9.6377
▁varied	-9.63861
▁Several	-9.64063
▁United	-9.64083
▁showing	-9.64133
▁endogenous	-9.64297
▁what	-9.6433
▁nurses	-9.64409
▁curve	-9.64431
▁26	-9.64629
▁Hospital	-9.64664
▁illness	-9.64671
▁nor	-9.64791
▁stimulated	-9.6486
▁gain	-9.64868
▁infarction	-9.64964
▁delayed	-9.64983
▁thickness	-9.64997
▁psychological	-9.65079
▁prolonged	-9.65085
▁primarily	-9.6519
▁ischemia	-9.652
▁spontaneous	-9.65228
yl	-9.65294
▁polymerase	-9.6539
▁promote	-9.65399
▁distance	-9.65413
▁MS	-9.65427
▁enrolled	-9.6545
▁metastatic	-9.65456
▁US	-9.65532
▁intact	-9.65598
▁working	-9.65628
▁choice	-9.65671
▁macrophages	-9.6573
▁venous	-9.65807
▁protective	-9.65816
at	-9.6582
▁observation	-9.65839
▁behaviors	-9.65855
▁done	-9.65892
▁bilateral	-9.66029
▁fractures	-9.6604
▁comprehensive	-9.66054
mL	-9.66136
▁crucial	-9.66311
▁growing	-9.66376
▁intravenous	-9.66413
Ca	-9.66433
▁extract	-9.66506
▁classified	-9.66512
▁maintenance	-9.6654
SD	-9.66633
▁channels	-9.66651
(-1)	-9.66777
▁random	-9.66885
▁diverse	-9.66909
▁mode	-9.66942
▁localization	-9.66978
▁intermediate	-9.67091
▁records	-9.67097
▁smaller	-9.67182
▁National	-9.6722
▁his	-9.67378
▁benign	-9.67505
▁block	-9.67654
3,	-9.67828
▁failed	-9.67869
▁nine	-9.67885
▁typical	-9.67968
▁32	-9.68064
ness	-9.68074
▁recognized	-9.68141
▁practices	-9.68256
IL	-9.68355
▁view	-9.68428
▁devices	-9.68621
▁replication	-9.68673
11	-9.68844
▁mutants	-9.68861
▁largely	-9.69003
▁service	-9.69014
▁Only	-9.69089
▁serious	-9.69361
▁invasion	-9.694
▁antibiotic	-9.69438
▁Chinese	-9.69466
▁node	-9.69494
▁extracted	-9.69567
▁improving	-9.69614
▁progressive	-9.69754
▁replacement	-9.69789
▁repeated	-9.70079
▁added	-9.701
▁comparing	-9.70118
▁sufficient	-9.70157
▁targeting	-9.70159
▁sp	-9.70163
▁understood	-9.70185
▁oxidation	-9.7027
▁others	-9.70312
▁concluded	-9.70323
▁synthetic	-9.70351
▁proximal	-9.70414
▁parents	-9.70424
▁establish	-9.70448
▁term	-9.70488
▁36	-9.70523
▁ischemic	-9.70602
-5	-9.70752
▁focused	-9.7083
▁American	-9.70911
▁subject	-9.7095
▁represents	-9.70996
▁making	-9.71039
▁knee	-9.71095
▁37	-9.71138
▁exhibit	-9.71151
▁perceived	-9.71156
▁below	-9.71196
▁minimal	-9.71219
▁goal	-9.7123
▁deep	-9.71244
▁closely	-9.71374
▁2,	-9.71406
▁retinal	-9.71433
▁shape	-9.71483
▁Treatment	-9.71497
▁describes	-9.71536
▁transient	-9.7171
group	-9.71816
▁place	-9.71879
▁man	-9.71989
▁maintained	-9.72012
▁influenced	-9.72013
▁partially	-9.72157
▁explored	-9.72158
▁pathology	-9.72432
▁substantial	-9.72529
▁networks	-9.72543
▁nano	-9.72581
3)	-9.72685
▁periods	-9.72727
▁reveal	-9.72865
▁(3)	-9.72871
▁discharge	-9.72955
▁ranged	-9.72981
▁oil	-9.73056
▁intervals	-9.7312
▁0.5	-9.73187
▁latter	-9.73247
▁milk	-9.73272
▁obtain	-9.73282
▁bound	-9.73411
▁Co	-9.73505
▁resources	-9.73522
▁variations	-9.73708
▁initiation	-9.7374
▁markedly	-9.73768
▁treat	-9.73786
▁fast	-9.73819
▁independently	-9.73836
▁logistic	-9.73939
▁27	-9.73953
▁questions	-9.73974
▁(10	-9.74179
▁wound	-9.74208
▁nanoparticles	-9.74315
▁month	-9.74426
OH	-9.74528
▁soft	-9.74561
▁Western	-9.74562
▁New	-9.74601
▁effectively	-9.74621
▁amounts	-9.74708
▁beneficial	-9.74829
▁rise	-9.74846
▁contribution	-9.74899
▁limit	-9.75023
▁solutions	-9.75026
um	-9.75101
▁facilitate	-9.75124
▁regional	-9.75182
▁workers	-9.75238
▁regulated	-9.75286
level	-9.75302
▁Scale	-9.75306
▁antigens	-9.75353
▁Additionally	-9.75376
▁balance	-9.75383
▁necrosis	-9.75428
▁Four	-9.75452
▁microg	-9.75528
▁vein	-9.75611
▁shift	-9.75611
▁AT	-9.75632
▁feeding	-9.75661
▁sampling	-9.75669
▁genotype	-9.7581
▁%	-9.75843
▁sensory	-9.7585
▁date	-9.75866
mm	-9.75876
▁colon	-9.7594
▁consequences	-9.75951
▁hundred	-9.75955
14	-9.75978
ized	-9.76037
▁neurological	-9.76117
▁died	-9.76122
▁6-	-9.76362
gastrointestinal	-9.76455
▁matter	-9.7646
▁national	-9.7653
▁example	-9.7661
▁occurring	-9.76702
▁reactive	-9.76708
▁States	-9.76717
▁hip	-9.76736
▁extended	-9.76814
▁error	-9.76856
▁affecting	-9.76868
▁earlier	-9.77034
▁allowed	-9.77044
▁validated	-9.77095
▁ethanol	-9.77096
▁metabolites	-9.77144
▁positively	-9.77197
gamma	-9.7726
▁equal	-9.77261
▁cannot	-9.77324
▁90	-9.77394
▁behaviour	-9.77452
▁remaining	-9.77534
▁explain	-9.7754
▁80	-9.77543
▁radical	-9.77547
▁recommendations	-9.77644
▁threshold	-9.77681
▁localized	-9.77786
▁fibrosis	-9.77818
▁valve	-9.77918
en	-9.77919
▁except	-9.77975
▁metastases	-9.78172
characterization	-9.78197
▁CA	-9.78237
▁Some	-9.78289
(3)	-9.78318
▁neonatal	-9.78331
▁admission	-9.78476
▁fed	-9.78486
▁poorly	-9.78509
▁reverse	-9.78544
▁vessels	-9.7862
▁estimates	-9.78665
▁introduced	-9.78739
▁conserved	-9.78778
▁MR	-9.78951
▁newly	-9.78983
▁risks	-9.78991
▁slow	-9.79023
▁modification	-9.79041
▁native	-9.79097
▁back	-9.79102
▁predictors	-9.79197
▁transcriptional	-9.79246
▁defect	-9.79283
▁us	-9.7937
▁hydrogen	-9.7942
▁satisfaction	-9.79435
▁intensive	-9.79585
▁burden	-9.79637
▁morphological	-9.79724
▁persons	-9.79747
▁fish	-9.79878
▁multivariate	-9.79954
▁clearly	-9.79965
3-	-9.79993
▁presents	-9.80061
co	-9.80094
▁aims	-9.80098
▁magnitude	-9.80108
▁identical	-9.80139
▁Compared	-9.80198
▁adequate	-9.80228
▁consisted	-9.80264
▁presenting	-9.80317
▁29	-9.80329
dose	-9.80341
▁psychiatric	-9.80361
PD	-9.8039
▁diffusion	-9.80428
▁velocity	-9.80434
▁electronic	-9.80736
▁whom	-9.80741
▁University	-9.80794
et	-9.80833
▁fibers	-9.80834
▁photo	-9.80852
▁31	-9.8089
ii	-9.80969
▁symptom	-9.80971
▁histological	-9.81023
▁skeletal	-9.81126
▁et	-9.81164
▁settings	-9.81185
▁dominant	-9.81198
▁organs	-9.81229
▁parallel	-9.81309
▁concept	-9.81325
▁childhood	-9.81434
st	-9.81481
▁AD	-9.8154
▁healing	-9.81748
▁characterize	-9.81812
▁nucleotide	-9.81852
▁SD	-9.81853
▁encoding	-9.81874
▁contain	-9.81894
▁70	-9.81905
▁confirm	-9.82183
▁affects	-9.82218
▁atrial	-9.82255
▁antagonist	-9.82305
ion	-9.82353
▁detailed	-9.82486
▁Mean	-9.82596
▁perfusion	-9.82704
▁thermal	-9.82715
▁contains	-9.82724
▁assigned	-9.82742
▁viruses	-9.8285
▁world	-9.82861
▁probe	-9.82878
▁al	-9.82968
▁decreases	-9.83044
▁ions	-9.83115
▁muscles	-9.83129
▁measuring	-9.83202
▁suppression	-9.83242
▁leukemia	-9.83272
▁broad	-9.83427
▁HR	-9.83508
▁perform	-9.83518
▁thought	-9.8358
▁colorectal	-9.83598
▁load	-9.83631
▁0.001).	-9.83801
containing	-9.83805
▁decline	-9.83834
▁nitrogen	-9.83891
▁monoclonal	-9.83908
▁face	-9.83928
▁stimulus	-9.84033
▁enhancement	-9.84041
▁China	-9.84102
RT	-9.84149
▁maximal	-9.84191
▁slightly	-9.8434
▁articles	-9.84447
▁storage	-9.84493
▁injected	-9.845
▁exchange	-9.84551
▁lymphoma	-9.84587
▁airway	-9.84649
▁residual	-9.84747
▁appearance	-9.84768
▁act	-9.84829
▁organisms	-9.84833
▁Fe	-9.84836
▁(4	-9.84866
▁accompanied	-9.84871
▁10%	-9.84899
▁reproductive	-9.84952
▁fiber	-9.85103
▁separation	-9.85157
▁radiotherapy	-9.85158
16	-9.85222
years	-9.85581
▁phosphate	-9.85656
▁placed	-9.85715
▁planning	-9.85729
▁acquired	-9.85735
▁matched	-9.85775
▁Analysis	-9.8591
III	-9.8591
inflammatory	-9.85911
▁RA	-9.85925
▁serve	-9.8595
▁trend	-9.85971
▁theoretical	-9.86031
▁subunit	-9.86208
▁antioxidant	-9.86221
▁spectra	-9.86225
▁capable	-9.86287
▁antibiotics	-9.86317
▁admitted	-9.86359
▁200	-9.86396
▁Cu	-9.86438
▁arteries	-9.86489
▁feature	-9.86529
▁HLA	-9.8654
week	-9.86576
age	-9.86621
▁vector	-9.86648
▁displayed	-9.86658
▁pregnant	-9.86744
▁0.05)	-9.86791
▁toxic	-9.86841
▁experiences	-9.86863
▁Many	-9.8687
▁extracts	-9.86872
control	-9.86881
▁surfaces	-9.86884
18	-9.86942
▁policy	-9.8699
▁validity	-9.8699
▁angle	-9.87024
▁biomarkers	-9.87082
▁retrospectively	-9.87092
▁mammalian	-9.87168
▁efforts	-9.87196
▁controlling	-9.87499
▁Study	-9.87541
▁micrograms	-9.87553
▁inclusion	-9.87726
▁persistent	-9.87739
▁Re	-9.8775
▁tuberculosis	-9.87803
▁sustained	-9.87825
-10	-9.87903
▁microbial	-9.87964
ase	-9.87996
▁longitudinal	-9.88026
▁background	-9.88067
4,	-9.88077
▁clinic	-9.88113
▁irradiation	-9.88133
▁deaths	-9.88166
▁output	-9.88183
▁v	-9.88332
▁skills	-9.88367
▁progress	-9.88369
▁considerable	-9.88375
▁scanning	-9.8839
▁numerous	-9.88488
▁chest	-9.88515
▁transplant	-9.88535
▁integrated	-9.88565
▁emotional	-9.88578
stage	-9.88584
▁implant	-9.88649
▁original	-9.88705
▁congenital	-9.88714
▁documented	-9.88756
analysis	-9.88774
▁polymorphism	-9.88849
▁supported	-9.88904
▁High	-9.88945
▁odds	-9.89022
▁separate	-9.89038
▁substrates	-9.89044
▁shock	-9.89073
▁allele	-9.89076
▁receive	-9.89102
▁demonstrates	-9.89123
▁derivatives	-9.89142
▁smooth	-9.89475
▁conversion	-9.89521
phase	-9.89542
▁yeast	-9.89655
▁clearance	-9.89717
▁mothers	-9.89789
▁limitations	-9.89857
▁spectrometry	-9.8987
▁determining	-9.89922
▁correlations	-9.89965
▁fixation	-9.8999
IV	-9.90001
▁Medical	-9.90032
▁emission	-9.90125
▁includes	-9.90125
▁simultaneously	-9.90144
▁amplitude	-9.90265
▁reliability	-9.90348
▁staff	-9.90378
57	-9.90492
▁identifying	-9.90512
▁kinetics	-9.90558
▁fact	-9.90563
▁qualitative	-9.9061
▁investigations	-9.90647
▁dependence	-9.90671
z	-9.9068
▁aging	-9.9076
▁younger	-9.90874
▁special	-9.9089
▁cluster	-9.90928
▁traits	-9.90954
▁possibly	-9.90959
▁saline	-9.91006
▁sperm	-9.91009
▁transformation	-9.91165
▁simulation	-9.91199
▁regulate	-9.91332
scale	-9.91346
▁removed	-9.91432
▁More	-9.91448
sensitive	-9.91468
▁bias	-9.91548
▁minor	-9.91592
DM	-9.91607
▁tyrosine	-9.9165
▁assessing	-9.91651
▁rehabilitation	-9.917
▁implantation	-9.9171
▁functioning	-9.91717
▁explained	-9.91719
▁variant	-9.91727
▁European	-9.91748
▁stay	-9.91754
▁availability	-9.91773
▁cytokines	-9.91869
▁frequencies	-9.91927
▁coupled	-9.91938
infected	-9.91976
▁induces	-9.92029
amino	-9.92047
▁coefficient	-9.9212
regulated	-9.92138
▁probability	-9.92139
▁methyl	-9.9219
▁Thirty	-9.92374
▁fixed	-9.92431
▁count	-9.92533
▁33	-9.92541
▁Participants	-9.92597
▁infectious	-9.92704
▁December	-9.92755
de	-9.92765
▁segment	-9.92781
linked	-9.9281
(2+)	-9.92888
ated	-9.92947
▁reached	-9.93053
▁advances	-9.93067
▁dual	-9.93152
▁ranging	-9.93183
▁nasal	-9.93205
▁melanoma	-9.93423
▁limb	-9.93504
▁users	-9.93548
▁treating	-9.93565
as	-9.93647
▁l	-9.93725
▁advantages	-9.93799
▁thereby	-9.93813
▁mono	-9.93878
▁TNF	-9.93981
▁consider	-9.93995
▁delay	-9.94136
▁height	-9.94306
▁immediately	-9.94338
▁cent	-9.94365
▁gland	-9.9438
▁constructed	-9.94384
▁fragment	-9.94385
▁generate	-9.94424
▁42	-9.9444
▁increasingly	-9.945
▁OR	-9.94574
CO	-9.94625
▁economic	-9.94711
▁vaccination	-9.94724
▁tasks	-9.94827
▁subsequently	-9.94895
▁woman	-9.94983
▁exist	-9.95021
40	-9.9505
▁modeling	-9.95098
▁ER	-9.95154
▁IFN	-9.9518
▁involves	-9.95232
▁substance	-9.95249
-8	-9.9528
▁34	-9.95322
▁hearing	-9.95346
▁suppressed	-9.95378
▁recruited	-9.95434
▁changed	-9.95522
▁implicated	-9.95565
▁computer	-9.95671
▁issue	-9.95676
▁Escherichia	-9.95742
▁retention	-9.95762
ine	-9.95846
▁subjected	-9.95855
▁salt	-9.95868
▁pharmacological	-9.95994
▁steps	-9.96024
▁soluble	-9.96059
▁f	-9.96068
▁concerning	-9.96151
▁0.1	-9.96171
▁worldwide	-9.9622
▁dopamine	-9.96227
▁phenomenon	-9.96229
▁entire	-9.96256
(+)	-9.96284
▁nodes	-9.96395
▁suspected	-9.96504
▁(6	-9.96512
▁methylation	-9.96634
▁ten	-9.96704
▁regard	-9.96723
▁symptomatic	-9.96756
▁stenosis	-9.96758
▁proved	-9.96875
▁carotid	-9.96955
▁1)	-9.96983
▁adherence	-9.97015
13	-9.97036
▁reflect	-9.97087
▁interviews	-9.97088
▁noise	-9.97143
▁element	-9.97158
▁isolation	-9.97162
▁0.01)	-9.97224
▁reporting	-9.97244
▁language	-9.9726
▁dementia	-9.97272
protein	-9.97276
▁collection	-9.97285
▁bovine	-9.9751
hydroxy	-9.97596
▁direction	-9.97614
▁barrier	-9.9765
▁utilization	-9.97668
▁arthritis	-9.9779
▁speed	-9.97799
▁spread	-9.97878
▁lowest	-9.9793
▁sections	-9.9795
▁organization	-9.9804
▁scientific	-9.98059
▁perception	-9.9817
▁distributed	-9.98239
▁catheter	-9.98298
▁UV	-9.98301
▁pairs	-9.9842
▁mature	-9.98448
▁modulation	-9.98475
▁cDNA	-9.98503
▁schizophrenia	-9.98594
▁catalytic	-9.98698
▁38	-9.98707
RA	-9.98709
▁electrical	-9.98715
▁taking	-9.98732
ia	-9.98743
▁communities	-9.98749
▁hybridization	-9.98764
▁initially	-9.98784
▁heterogeneity	-9.99001
▁circulating	-9.99022
NO	-9.99097
state	-9.99117
id	-9.9925
▁depending	-9.99287
▁BMI	-9.99487
▁epithelium	-9.99491
▁aqueous	-9.99501
▁polymer	-9.9951
▁centers	-9.9971
▁incubation	-9.9973
▁depends	-9.99773
▁simulations	-9.99787
▁fields	-9.9985
▁databases	-9.99855
▁cytokine	-9.9987
▁bowel	-9.99934
▁define	-9.99996
▁physician	-10.0001
▁fragments	-10.0001
▁tube	-10.0003
▁disability	-10.0008
▁referred	-10.0012
▁correct	-10.0014
▁varying	-10.002
▁candidate	-10.0021
▁practical	-10.0022
▁20%	-10.0031
▁femoral	-10.0039
▁valuable	-10.004
▁evaluating	-10.0056
▁extra	-10.0056
▁personal	-10.0056
▁Such	-10.0059
15	-10.0068
▁consisting	-10.007
▁software	-10.007
▁own	-10.0081
▁pathogens	-10.0089
-7	-10.0099
▁adjusted	-10.01
▁question	-10.0101
▁composed	-10.0102
▁take	-10.0105
▁maintain	-10.0105
▁sets	-10.0112
▁minimum	-10.0118
▁2.5	-10.0123
▁options	-10.0124
▁hospitalization	-10.0125
▁highlight	-10.0126
▁Five	-10.0126
▁fractions	-10.0129
▁pulse	-10.0129
▁anesthesia	-10.0138
▁variance	-10.0149
▁shorter	-10.0149
▁give	-10.0151
▁errors	-10.0154
▁murine	-10.016
▁segments	-10.0163
▁monitored	-10.0163
▁band	-10.0173
▁insights	-10.018
▁scan	-10.0181
▁fluorescent	-10.0182
▁endoscopic	-10.0183
▁mid	-10.0184
▁peri	-10.0189
▁cycles	-10.0191
▁though	-10.0206
▁occlusion	-10.0206
▁65	-10.0209
▁100%	-10.021
▁urban	-10.0211
▁feedback	-10.0213
▁ED	-10.0218
▁actions	-10.0229
▁rural	-10.0232
▁Studies	-10.024
▁surveillance	-10.0242
▁utilized	-10.0244
▁heavy	-10.0252
▁albumin	-10.0256
▁semi	-10.0267
▁adaptation	-10.0269
▁BP	-10.0278
▁ST	-10.0278
▁robust	-10.0283
▁mixture	-10.0291
▁challenging	-10.0295
▁interface	-10.03
▁gradient	-10.0301
▁categories	-10.0303
▁antimicrobial	-10.0306
▁depressive	-10.031
▁If	-10.0318
▁predominantly	-10.0326
▁equivalent	-10.0328
▁fibroblasts	-10.033
▁influenza	-10.0331
▁barriers	-10.0331
▁biology	-10.0333
▁actin	-10.0333
▁negatively	-10.0333
▁hypo	-10.0346
▁offer	-10.0347
▁immediate	-10.0349
▁tumours	-10.0352
▁1.5	-10.0354
▁wave	-10.0357
▁extremely	-10.0358
4)	-10.0358
▁arm	-10.0363
▁African	-10.0365
▁phases	-10.0371
▁released	-10.0371
rs	-10.0371
▁Each	-10.0371
▁professional	-10.0375
▁Hg	-10.0376
▁adjacent	-10.0382
▁viability	-10.0397
▁became	-10.0399
activated	-10.0418
▁coupling	-10.0421
▁utility	-10.043
▁emerging	-10.0432
▁prevented	-10.0446
▁medial	-10.0454
▁once	-10.0468
▁mostly	-10.0477
▁professionals	-10.0481
▁HPV	-10.0487
38	-10.0495
▁always	-10.0497
ol	-10.0502
▁zone	-10.0505
▁expansion	-10.051
▁demographic	-10.0512
▁deletion	-10.0512
▁immunity	-10.0525
▁reasons	-10.0532
▁operative	-10.0534
▁bind	-10.0538
▁easily	-10.0539
▁particle	-10.0543
two	-10.0544
▁laparoscopic	-10.0545
▁adsorption	-10.0552
▁residents	-10.0554
▁alter	-10.0555
▁attributed	-10.0562
▁operating	-10.0568
▁axis	-10.0569
▁rest	-10.0573
▁facial	-10.0574
▁75	-10.0578
▁composite	-10.0588
▁blot	-10.0589
▁episodes	-10.06
▁ring	-10.0602
cm	-10.0617
▁PC	-10.0618
IR	-10.0619
▁2)	-10.0625
▁clusters	-10.0631
▁PI	-10.0639
▁polymorphisms	-10.0641
▁Previous	-10.0642
▁standardized	-10.0644
▁regimen	-10.0647
▁methodology	-10.0649
▁fever	-10.0651
▁embryos	-10.0653
▁72	-10.0653
▁recipients	-10.0654
▁obese	-10.0656
▁causing	-10.0665
▁met	-10.0665
no	-10.0666
▁putative	-10.0671
▁bile	-10.0678
▁bypass	-10.0702
▁insight	-10.071
▁integration	-10.0711
▁donors	-10.0712
▁mellitus	-10.0717
▁untreated	-10.0718
▁implemented	-10.072
▁recovered	-10.0721
▁hybrid	-10.0721
▁clinicians	-10.0721
▁250	-10.0722
▁crystal	-10.0724
▁temperatures	-10.0726
▁dorsal	-10.0726
▁HCV	-10.0734
▁charge	-10.0739
un	-10.0741
▁ventilation	-10.0743
▁improvements	-10.0744
▁synaptic	-10.075
▁blocked	-10.0759
▁agonist	-10.0763
▁greatly	-10.0763
▁insertion	-10.0764
▁Research	-10.0771
▁depth	-10.0773
▁reduces	-10.0787
▁feasibility	-10.0793
▁obstruction	-10.0793
▁systolic	-10.0794
▁mucosa	-10.0797
▁LC	-10.0802
▁nuclei	-10.081
▁cytotoxic	-10.0823
19	-10.083
-9	-10.0831
],	-10.0831
▁excretion	-10.0832
▁parameter	-10.0832
▁live	-10.085
▁overexpression	-10.0856
▁commercial	-10.0858
BP	-10.0879
▁sought	-10.0883
▁55	-10.0898
▁hypothesized	-10.0899
▁volunteers	-10.0904
▁cartilage	-10.0909
▁embryonic	-10.0919
21	-10.092
▁epilepsy	-10.093
RR	-10.0939
▁typically	-10.0957
▁regulating	-10.0968
▁expressing	-10.098
▁continued	-10.0981
▁asymptomatic	-10.0985
▁(8	-10.099
▁infant	-10.099
▁arrest	-10.0994
▁providers	-10.0998
▁bi	-10.1
▁nearly	-10.1001
▁predicting	-10.1005
▁Recently	-10.1008
rich	-10.101
▁cavity	-10.1011
▁requiring	-10.1014
▁color	-10.1015
▁deficits	-10.1016
▁pharmacokinetic	-10.1018
▁abuse	-10.102
▁HCC	-10.1023
▁requirements	-10.1026
▁ligands	-10.1029
▁introduction	-10.1033
▁angiography	-10.1034
20	-10.1035
▁extension	-10.1036
▁restriction	-10.104
▁already	-10.1046
▁detectable	-10.1062
▁autoimmune	-10.1064
▁mitochondria	-10.1071
▁simultaneous	-10.1071
▁protocols	-10.1072
▁IGF	-10.1075
▁zinc	-10.1077
▁educational	-10.1084
▁her	-10.1085
▁lacking	-10.1087
▁pigs	-10.1093
▁excess	-10.1093
▁spine	-10.1102
▁fundamental	-10.1102
▁hypoxia	-10.1109
▁input	-10.1131
▁deposition	-10.1136
CH	-10.1137
▁called	-10.1146
▁items	-10.1154
-1)	-10.1155
▁curves	-10.1158
▁trends	-10.1162
▁cytoplasmic	-10.1164
▁locus	-10.1178
CA	-10.1179
▁indices	-10.1189
▁Human	-10.1199
▁bond	-10.12
▁twice	-10.1208
▁reviews	-10.1211
▁indicators	-10.122
▁tri	-10.1224
▁39	-10.1225
u	-10.1228
▁distress	-10.1237
▁sulfate	-10.1239
▁dry	-10.1243
▁medications	-10.1245
▁cleavage	-10.1254
▁undertaken	-10.1255
▁discovery	-10.1257
▁restricted	-10.1273
▁limits	-10.1277
ST	-10.1279
▁placement	-10.1289
▁influences	-10.1305
-1,	-10.1311
▁PET	-10.1311
▁indirect	-10.1312
Cl	-10.1312
▁predictor	-10.1327
▁sera	-10.1328
ating	-10.1328
less	-10.1339
▁hemorrhage	-10.1339
▁avoid	-10.134
▁NF	-10.1345
▁existence	-10.1348
▁ex	-10.1351
▁counts	-10.1354
histochemistry	-10.1355
▁participation	-10.1358
▁rabbit	-10.1365
▁translation	-10.1376
▁cyclic	-10.1379
▁pathogenic	-10.1383
▁loading	-10.1383
▁sinus	-10.1385
▁advantage	-10.1389
▁manifestations	-10.1395
▁regular	-10.1396
▁aggregation	-10.1398
▁10-	-10.14
▁0.001)	-10.14
▁express	-10.1406
▁teeth	-10.1406
▁next	-10.1412
▁correction	-10.1415
▁fewer	-10.1418
▁comparative	-10.142
▁classes	-10.142
17	-10.1422
reported	-10.1426
▁implants	-10.1427
▁gap	-10.1428
▁separated	-10.1439
▁attenuated	-10.1448
2/	-10.145
▁created	-10.1455
▁nutritional	-10.1459
▁yielded	-10.1473
▁aggressive	-10.1474
▁technologies	-10.1477
▁maturation	-10.1478
▁90%	-10.1479
-2-	-10.148
▁drinking	-10.1484
▁loci	-10.1484
(1)	-10.1489
▁consensus	-10.1491
▁spectral	-10.1494
▁homeostasis	-10.15
▁assembly	-10.1506
▁decreasing	-10.1513
▁phenotypes	-10.1514
▁pathogen	-10.1515
ta	-10.1519
▁prevalent	-10.1522
▁perspective	-10.1524
▁coverage	-10.1525
▁complement	-10.153
▁Also	-10.1535
▁adaptive	-10.1541
▁44	-10.1544
▁terminal	-10.1544
▁abundance	-10.1553
▁seem	-10.1555
▁focal	-10.1565
▁awareness	-10.1569
▁43	-10.1574
▁reactivity	-10.1574
life	-10.1576
▁room	-10.1578
▁adjuvant	-10.158
▁NMR	-10.158
▁acquisition	-10.1581
▁environments	-10.1585
▁Cancer	-10.1587
deficient	-10.1587
▁movements	-10.1588
▁pneumonia	-10.1592
▁guide	-10.1598
▁display	-10.1598
▁estrogen	-10.1599
▁interleukin	-10.1601
▁mL	-10.1601
▁estimation	-10.1602
▁regeneration	-10.1604
▁relapse	-10.1615
▁Six	-10.1615
▁susceptible	-10.1618
100	-10.1618
▁preparations	-10.162
▁elevation	-10.1621
▁heterogeneous	-10.1628
▁modifications	-10.1639
▁absolute	-10.1646
OL	-10.165
▁pretreatment	-10.1652
▁adenocarcinoma	-10.1663
▁correlate	-10.1665
▁beyond	-10.167
▁offers	-10.1671
▁injections	-10.168
▁South	-10.1681
▁evident	-10.1687
▁Serum	-10.1688
▁incorporation	-10.1698
▁etiology	-10.1701
▁Following	-10.1707
off	-10.1708
▁researchers	-10.1721
▁potentials	-10.1729
▁lipoprotein	-10.1739
▁differed	-10.174
▁department	-10.1751
▁1.0	-10.1752
▁orientation	-10.1753
▁electrophoresis	-10.1756
▁toxin	-10.1769
▁true	-10.1771
▁concerns	-10.1772
▁complexity	-10.1773
▁mapping	-10.1786
▁layers	-10.1789
▁cold	-10.179
AP	-10.1791
70	-10.1797
▁GH	-10.1797
▁(7	-10.1798
▁respond	-10.1799
▁concern	-10.18
▁relaxation	-10.1802
▁genotypes	-10.1802
▁weak	-10.1803
▁5%	-10.1807
4-	-10.1812
▁differentiated	-10.1817
▁validation	-10.182
▁green	-10.1823
▁He	-10.1824
▁undergo	-10.1826
▁analytical	-10.1827
▁Over	-10.1829
▁parent	-10.183
▁version	-10.183
▁vessel	-10.1833
▁precursor	-10.1849
▁auditory	-10.185
▁participated	-10.1853
▁precise	-10.1855
▁carcinomas	-10.1857
▁allowing	-10.1859
▁30%	-10.1862
▁80%	-10.1865
▁delta	-10.1867
▁intrinsic	-10.1876
▁LPS	-10.1883
▁fatigue	-10.1888
▁aureus	-10.1888
▁vesicles	-10.1891
▁examinations	-10.1893
▁team	-10.1906
ment	-10.1908
▁GC	-10.1909
▁neutral	-10.1915
OS	-10.1931
▁decades	-10.1931
%	-10.1932
▁k	-10.1944
▁delivered	-10.1944
▁option	-10.1953
▁thrombosis	-10.1955
▁itself	-10.1958
▁0.01).	-10.1961
▁3,	-10.1961
▁Other	-10.1963
operative	-10.1968
▁coding	-10.1974
▁mobility	-10.1989
▁41	-10.1991
▁TB	-10.1995
histochemical	-10.2
27	-10.2001
▁spleen	-10.2002
▁cutaneous	-10.2002
▁interpretation	-10.2002
AD	-10.2004
▁squamous	-10.2009
▁supporting	-10.201
▁corneal	-10.2012
▁inner	-10.2016
▁screened	-10.2017
▁tobacco	-10.2026
▁contributes	-10.2028
▁repeat	-10.2035
▁thin	-10.2041
▁Forty	-10.2049
▁malignancy	-10.2051
▁labeled	-10.2055
▁ELISA	-10.2058
▁gold	-10.2065
▁dialysis	-10.2065
▁online	-10.2065
▁inhibits	-10.2065
▁pelvic	-10.2066
▁substances	-10.2067
▁gut	-10.2071
▁surrounding	-10.2074
treatment	-10.2078
CSF	-10.2081
▁bodies	-10.2081
▁synthase	-10.2083
▁parts	-10.2083
▁thoracic	-10.2089
▁supplementation	-10.2091
▁chloride	-10.2101
▁Non	-10.2103
▁gave	-10.2108
▁detecting	-10.2114
▁none	-10.2122
▁identity	-10.2126
▁technical	-10.2128
RS	-10.2134
DNA	-10.2135
▁2000	-10.214
▁biopsies	-10.2146
▁Their	-10.2148
▁kDa	-10.2148
▁cytotoxicity	-10.2151
▁emerged	-10.2151
▁lumbar	-10.2153
▁attitudes	-10.2156
▁visits	-10.2164
▁remission	-10.2165
▁frontal	-10.2177
▁inferior	-10.2179
▁relevance	-10.2188
EC	-10.2192
▁substantially	-10.2194
▁mucosal	-10.2195
▁plasmid	-10.22
ous	-10.2208
▁anatomical	-10.2213
▁concomitant	-10.2213
▁subset	-10.2225
▁excluded	-10.2225
30	-10.2239
▁decisions	-10.2249
four	-10.2258
▁pandemic	-10.2266
grade	-10.2267
▁scales	-10.2276
▁he	-10.2278
HA	-10.2279
ER	-10.2282
ical	-10.2284
▁PA	-10.2287
▁malaria	-10.2288
▁dehydrogenase	-10.2294
▁contents	-10.2298
▁project	-10.2307
stimulated	-10.2307
25	-10.2308
PA	-10.2311
▁evolutionary	-10.2314
▁lost	-10.2314
▁MMP	-10.2319
▁consists	-10.232
▁biosynthesis	-10.2324
▁rarely	-10.2325
▁amplification	-10.2334
▁ensure	-10.2338
▁potassium	-10.2352
▁situation	-10.2352
▁parental	-10.2362
▁array	-10.2366
▁gestation	-10.2369
▁preventing	-10.2372
▁glutathione	-10.2379
▁international	-10.2382
▁similarity	-10.2384
▁respondents	-10.2385
▁120	-10.2387
▁LV	-10.2392
▁resource	-10.2393
▁simulated	-10.24
▁permeability	-10.2402
▁cytochrome	-10.2407
▁exists	-10.2409
▁positions	-10.2409
▁feasible	-10.2411
▁dimensions	-10.2413
▁seizures	-10.2422
▁transgenic	-10.2432
▁classical	-10.244
-12	-10.2443
▁adjustment	-10.2446
▁rs	-10.2448
▁degeneration	-10.245
▁grown	-10.2451
▁subjective	-10.246
1/	-10.2462
physiological	-10.2463
▁nitric	-10.2465
▁pituitary	-10.2467
▁rabbits	-10.2468
▁turn	-10.2473
▁ways	-10.2473
▁46	-10.2486
▁circulation	-10.2489
▁ocular	-10.2491
▁neither	-10.2491
▁compression	-10.2493
▁contraction	-10.2495
▁transcripts	-10.25
BL	-10.2506
▁clones	-10.2509
▁widespread	-10.2525
▁sepsis	-10.2529
▁link	-10.255
▁digital	-10.2551
▁artificial	-10.2552
▁likelihood	-10.256
▁dissection	-10.2561
▁entry	-10.2568
▁flap	-10.2569
▁section	-10.2573
▁difficulties	-10.2581
▁ablation	-10.259
IC	-10.2591
▁complicated	-10.2595
▁spin	-10.2599
▁speech	-10.2605
▁observational	-10.2608
▁VEGF	-10.2617
▁stent	-10.2625
▁construct	-10.264
▁academic	-10.2645
▁directed	-10.2648
▁calculations	-10.265
▁52	-10.2661
▁voltage	-10.2665
▁combinations	-10.2667
▁prospectively	-10.2674
▁phosphatase	-10.2677
▁ages	-10.268
five	-10.2682
▁subtypes	-10.269
pro	-10.2697
▁NK	-10.2714
▁ongoing	-10.2717
▁supports	-10.2721
▁vaccines	-10.2725
▁40%	-10.2726
▁monitor	-10.2727
▁column	-10.2729
▁pure	-10.2737
▁film	-10.2737
▁Immuno	-10.2738
▁chains	-10.2742
▁diffuse	-10.2749
▁interact	-10.2749
▁nutrition	-10.2754
▁epidemiological	-10.2757
▁raised	-10.2761
▁determinants	-10.2764
▁subunits	-10.2766
▁reach	-10.2766
SS	-10.2775
▁leaf	-10.2785
▁reversed	-10.2786
▁proven	-10.2786
4+	-10.2788
▁proper	-10.2789
▁lipids	-10.2793
▁(9	-10.2798
▁glutamate	-10.2799
▁consistently	-10.2804
▁mmol	-10.2811
▁log	-10.2816
▁LDL	-10.2816
▁LH	-10.2818
▁representative	-10.2819
▁kinetic	-10.2827
▁fungal	-10.283
▁Th	-10.283
▁depletion	-10.2838
US	-10.2841
▁enable	-10.2844
▁accurately	-10.2844
▁opioid	-10.2855
AS	-10.2859
▁enzymatic	-10.2864
▁quantum	-10.2866
▁leaves	-10.287
▁HA	-10.287
regulation	-10.2871
▁indications	-10.2881
▁47	-10.2886
▁para	-10.2889
▁Significant	-10.2896
ED	-10.2898
▁portion	-10.2901
▁duct	-10.2906
ism	-10.2908
▁embryo	-10.2912
▁sizes	-10.2915
▁steroid	-10.2915
▁copper	-10.2916
▁hair	-10.2918
▁uterine	-10.2923
▁false	-10.2925
▁timing	-10.2927
▁De	-10.2932
▁chromatin	-10.2933
▁aid	-10.2942
▁makes	-10.2943
▁12-	-10.2943
▁lymphocyte	-10.2947
▁steady	-10.2954
▁AF	-10.2955
▁addressed	-10.296
▁residue	-10.2962
▁involve	-10.2971
▁SP	-10.2972
▁adenosine	-10.2978
▁actual	-10.2981
▁compliance	-10.2984
care	-10.2988
▁discrimination	-10.299
60	-10.2991
▁maintaining	-10.2993
▁Interestingly	-10.2996
▁pseudo	-10.3008
▁elucidate	-10.3012
▁beginning	-10.3014
▁According	-10.3016
▁girls	-10.3022
all	-10.3024
▁questionnaires	-10.303
ability	-10.303
▁alleles	-10.3032
▁0.2	-10.3036
+/-	-10.3039
45	-10.3047
▁reading	-10.3051
▁evoked	-10.3052
▁attempt	-10.3052
▁starting	-10.3053
▁EC	-10.3055
▁nM	-10.306
▁Under	-10.3069
▁vary	-10.3083
▁sensor	-10.3084
▁person	-10.3093
▁overview	-10.3095
independent	-10.3098
▁teaching	-10.31
▁unusual	-10.3106
▁annual	-10.3108
▁producing	-10.3109
▁downstream	-10.3109
▁closure	-10.3112
▁diagnoses	-10.3118
▁quantify	-10.3133
for	-10.3135
▁initiated	-10.3141
▁locations	-10.3145
▁computational	-10.3145
▁quantified	-10.315
▁esophageal	-10.3151
▁million	-10.3156
▁cAMP	-10.3159
▁shared	-10.316
▁hr	-10.3164
▁fall	-10.3167
5,	-10.3168
▁deviation	-10.3172
▁antagonists	-10.3177
▁intraoperative	-10.3178
▁grafts	-10.318
▁platform	-10.3181
▁solvent	-10.3185
▁CSF	-10.3187
▁adrenal	-10.3187
ant	-10.3191
▁pronounced	-10.3192
▁namely	-10.3193
▁favorable	-10.3198
▁excision	-10.3203
▁Alzheimer	-10.3209
▁consequence	-10.3211
DR	-10.3218
▁regardless	-10.322
▁preliminary	-10.3225
▁Japanese	-10.3226
▁outer	-10.3228
matched	-10.3228
▁supply	-10.3239
▁Al	-10.324
▁instability	-10.3243
▁infiltration	-10.3254
▁8-	-10.3259
▁lactate	-10.3266
▁tertiary	-10.3266
▁outpatient	-10.3268
▁56	-10.3271
by	-10.3273
▁absent	-10.3276
▁(20	-10.3281
▁start	-10.3282
▁Blood	-10.3288
out	-10.3295
▁500	-10.3296
-3-	-10.3301
▁recruitment	-10.3302
▁considering	-10.3303
▁hemoglobin	-10.3314
▁aneurysm	-10.3314
▁faster	-10.3323
▁June	-10.3327
▁hippocampus	-10.3329
▁uses	-10.3329
▁inactivation	-10.3333
▁ET	-10.3336
▁CS	-10.3341
▁greatest	-10.3344
▁Ag	-10.3349
▁testosterone	-10.3351
▁scans	-10.3352
▁allergic	-10.3363
▁plate	-10.3366
28	-10.3373
▁outside	-10.3374
▁changing	-10.3379
▁lens	-10.338
▁member	-10.3382
man	-10.3383
▁Mg	-10.3385
AR	-10.3389
▁occupational	-10.339
PI	-10.3392
three	-10.3393
▁Pre	-10.3397
▁heparin	-10.3399
▁efficiently	-10.3401
▁demonstrating	-10.3405
▁First	-10.3405
non	-10.3405
▁protease	-10.3409
▁unchanged	-10.3414
▁representing	-10.3415
▁off	-10.3423
▁regimens	-10.3423
▁OS	-10.3424
▁vital	-10.3425
▁pylori	-10.3425
▁Type	-10.3428
▁mmHg	-10.3433
▁coefficients	-10.3439
ac	-10.3443
▁49	-10.3447
▁auto	-10.3449
▁promoting	-10.3455
▁unilateral	-10.3456
▁exogenous	-10.346
▁interference	-10.346
▁attachment	-10.3467
▁searched	-10.3473
▁performing	-10.3473
▁Children	-10.3475
▁effort	-10.3477
▁parasite	-10.3481
▁ear	-10.349
▁cut	-10.349
▁rotation	-10.3491
▁CP	-10.3494
▁beam	-10.3497
assisted	-10.3513
▁foot	-10.3514
▁blue	-10.3518
▁sessions	-10.3519
▁hormones	-10.3522
▁overcome	-10.3522
▁edema	-10.3522
▁phenotypic	-10.353
▁rejection	-10.3533
▁reveals	-10.3534
▁indicator	-10.3541
▁panel	-10.3549
▁acceptable	-10.3549
▁summary	-10.3555
▁preferred	-10.3555
▁largest	-10.3556
▁represented	-10.3556
▁March	-10.356
▁apoptotic	-10.3562
▁electrode	-10.3574
▁Cl	-10.3575
▁highlights	-10.3576
▁participate	-10.3576
▁EEG	-10.3578
▁principles	-10.3578
▁Doppler	-10.3578
▁fine	-10.3579
▁vision	-10.3588
▁cyst	-10.3589
▁improves	-10.3592
▁150	-10.3594
▁suffering	-10.3595
▁labeling	-10.3608
▁video	-10.3609
tic	-10.3617
▁percutaneous	-10.362
adjusted	-10.3622
▁hydrolysis	-10.3622
ex	-10.3624
▁resting	-10.3626
▁plaque	-10.363
▁differentially	-10.3635
▁translocation	-10.3641
▁instrument	-10.3642
▁Index	-10.3644
▁country	-10.3646
▁gestational	-10.3646
▁map	-10.3651
▁consideration	-10.3654
▁abundant	-10.3658
max	-10.3662
▁powerful	-10.3669
▁peritoneal	-10.367
▁surgeons	-10.3677
▁films	-10.3687
▁precision	-10.3688
▁assessments	-10.3691
▁mineral	-10.3714
▁contamination	-10.3714
▁genus	-10.3715
▁51	-10.3716
▁screen	-10.3717
▁modalities	-10.3729
24	-10.3741
▁dosage	-10.3749
▁closed	-10.3752
▁survivors	-10.3753
CoV	-10.3765
▁yields	-10.3765
▁subgroup	-10.3766
▁diets	-10.3767
PC	-10.3768
▁loop	-10.3772
▁probes	-10.3776
▁0.05	-10.3781
6,	-10.3786
▁International	-10.3787
▁hypertensive	-10.3797
▁300	-10.3799
▁route	-10.3799
▁Early	-10.3799
▁integrity	-10.38
controlled	-10.3802
▁diastolic	-10.3808
▁caspase	-10.381
▁lip	-10.3818
median	-10.3819
▁Pro	-10.3819
▁mother	-10.3821
▁54	-10.3825
▁Ni	-10.3826
SE	-10.3831
▁discovered	-10.3836
wide	-10.384
▁forces	-10.3845
▁elimination	-10.3845
90	-10.385
▁hippocampal	-10.385
▁creatinine	-10.3851
▁somatic	-10.3854
▁cytometry	-10.3856
1),	-10.3859
▁managed	-10.3864
▁principal	-10.3871
▁sclerosis	-10.3874
▁equilibrium	-10.3875
▁adolescent	-10.3877
▁smokers	-10.3881
▁correlates	-10.3882
▁atypical	-10.3885
▁plan	-10.3918
▁volumes	-10.3922
▁modulate	-10.3925
▁capillary	-10.3926
▁experimentally	-10.3926
test	-10.3938
▁readily	-10.3956
▁60%	-10.3959
▁CR	-10.3961
six	-10.3973
me	-10.3976
▁cumulative	-10.3977
▁prominent	-10.3978
▁responded	-10.3978
ar	-10.3978
▁tension	-10.3985
▁create	-10.3995
▁selectively	-10.3996
▁radio	-10.3998
▁hydrophobic	-10.3998
▁cortisol	-10.4004
im	-10.4011
▁quantification	-10.4016
▁engineering	-10.4018
▁intracranial	-10.402
▁systematically	-10.4026
▁carriers	-10.4028
▁AP	-10.4031
ve	-10.4032
▁atherosclerosis	-10.4033
▁situations	-10.4042
▁operations	-10.4044
▁black	-10.4048
▁reason	-10.4049
▁DM	-10.4057
▁comparisons	-10.4064
▁brief	-10.4069
▁phylogenetic	-10.4072
▁DA	-10.4073
▁preterm	-10.4073
▁HF	-10.4076
▁disc	-10.408
▁binds	-10.4083
▁microscopic	-10.4084
▁trained	-10.4085
▁Cell	-10.4085
▁equation	-10.4091
ca	-10.4092
▁pilot	-10.4097
▁fresh	-10.4102
▁suicide	-10.4106
▁selectivity	-10.4108
ian	-10.4124
▁distributions	-10.4126
▁Ten	-10.4133
▁worse	-10.4138
▁cloned	-10.4139
▁Cd	-10.4145
response	-10.4147
▁rectal	-10.4148
▁modern	-10.4154
▁interferon	-10.4154
MRI	-10.4158
▁NP	-10.4159
▁reversible	-10.416
▁algorithms	-10.416
▁acetate	-10.4161
▁preference	-10.4162
▁description	-10.4163
▁standards	-10.4168
▁aorta	-10.4171
▁cirrhosis	-10.4171
▁depend	-10.4179
▁climate	-10.4181
▁discussion	-10.4183
▁vehicle	-10.4187
▁motility	-10.4189
▁incorporated	-10.4195
▁just	-10.4202
▁facilities	-10.4205
▁postoperatively	-10.4206
▁metabolite	-10.4208
▁impacts	-10.4209
▁UK	-10.4211
▁protect	-10.4212
na	-10.4215
▁onto	-10.4218
▁genetically	-10.4226
▁never	-10.4227
▁70%	-10.4228
▁CNS	-10.4232
am	-10.4234
▁studying	-10.4237
▁easy	-10.4246
▁nurse	-10.4247
▁inhibiting	-10.4259
LC	-10.4262
▁proton	-10.4267
density	-10.4272
▁colony	-10.4278
CR	-10.4282
per	-10.4293
▁traumatic	-10.4294
▁generalized	-10.4297
▁net	-10.4297
▁elicited	-10.4301
▁pathophysiology	-10.4306
▁optic	-10.4306
▁25%	-10.4313
▁Africa	-10.4315
▁comprised	-10.4318
▁opportunities	-10.4323
▁Cox	-10.4326
▁TGF	-10.4326
▁Patient	-10.4332
▁malignancies	-10.4333
▁contributed	-10.4334
▁detail	-10.4341
PS	-10.4346
▁IC	-10.4355
▁considerably	-10.4356
▁started	-10.4362
▁decade	-10.4362
▁accounted	-10.4372
▁MI	-10.4377
▁disruption	-10.4382
<0.05).	-10.4386
ectomy	-10.4386
▁cystic	-10.4388
▁Plasma	-10.439
il	-10.4391
▁vaginal	-10.4394
▁homologous	-10.4394
▁HBV	-10.4405
▁portal	-10.4405
▁chromosomes	-10.4411
▁race	-10.4411
▁guidance	-10.4413
labeled	-10.4413
▁follows	-10.4416
▁ill	-10.4416
itis	-10.4423
SF	-10.4424
▁produces	-10.4429
▁pair	-10.443
▁IR	-10.4434
▁modes	-10.4436
▁subcutaneous	-10.4437
▁continue	-10.4437
▁anemia	-10.444
▁Given	-10.4441
2),	-10.4446
▁respective	-10.4449
▁eating	-10.4453
▁tree	-10.4469
▁differentiate	-10.4474
44	-10.4478
▁substitution	-10.4478
▁oxidase	-10.4478
▁drainage	-10.4479
▁critically	-10.4484
▁24-	-10.4486
▁leg	-10.4487
▁epidermal	-10.4488
▁perceptions	-10.4491
▁HD	-10.4492
▁focusing	-10.4493
▁stronger	-10.4497
ive	-10.4498
▁linkage	-10.4501
▁optimized	-10.4505
▁candidates	-10.4509
▁PM	-10.4512
▁proportional	-10.4521
▁0.3	-10.4529
▁May	-10.4529
▁science	-10.4531
▁enables	-10.4535
▁Con	-10.4537
making	-10.454
▁histologic	-10.4541
▁Fifty	-10.4543
▁refractory	-10.4546
tri	-10.4549
chain	-10.4549
▁pig	-10.4551
▁ms	-10.4553
▁exact	-10.4553
ur	-10.4555
-1-	-10.456
▁Primary	-10.4565
▁asked	-10.4567
▁subgroups	-10.4568
(4)	-10.4572
▁complementary	-10.4573
▁transduction	-10.4583
▁chromosomal	-10.4585
▁angiotensin	-10.4588
▁definition	-10.4591
▁regulates	-10.4593
▁remodeling	-10.4597
▁intestine	-10.4601
▁difficulty	-10.4604
▁cytoplasm	-10.4609
▁contributing	-10.4611
▁psychosocial	-10.4612
▁nutrient	-10.4614
▁recombination	-10.4615
▁boys	-10.4615
▁transfusion	-10.4615
▁viable	-10.4617
▁CH	-10.4621
▁organism	-10.4621
field	-10.4622
▁predominant	-10.4622
SO	-10.4629
ist	-10.4637
fluorescence	-10.4639
▁spp	-10.4645
▁ones	-10.4646
▁industry	-10.4648
▁object	-10.465
▁platelets	-10.4652
izing	-10.4655
▁Its	-10.4655
▁53	-10.4657
▁formulation	-10.466
▁optimization	-10.4666
CS	-10.4667
▁institution	-10.4675
(-)	-10.4679
▁NS	-10.4685
▁subtype	-10.4688
▁SF	-10.4695
▁encountered	-10.4708
▁practitioners	-10.4709
blind	-10.471
reactive	-10.4715
▁acts	-10.4716
▁ROS	-10.472
▁2010	-10.4722
transferase	-10.4723
▁sequential	-10.4727
▁Total	-10.4728
end	-10.4732
▁ground	-10.4737
ir	-10.4738
▁regulator	-10.4739
con	-10.4743
▁return	-10.4743
▁Due	-10.4744
▁carrier	-10.4745
▁400	-10.475
▁adipose	-10.4756
▁mol	-10.4759
▁secreted	-10.4761
▁AR	-10.4763
▁accepted	-10.4766
▁stimulate	-10.4771
▁58	-10.4771
▁diminished	-10.4772
▁capture	-10.4775
▁Gy	-10.4785
▁inside	-10.4785
▁sheep	-10.4791
▁needle	-10.4795
▁germ	-10.4806
months	-10.4813
▁angiogenesis	-10.4813
▁alveolar	-10.482
eight	-10.4823
oL	-10.4829
▁fasting	-10.483
▁alkaline	-10.4832
▁Taken	-10.4835
▁July	-10.4838
te	-10.484
▁Japan	-10.4847
▁filtration	-10.4847
being	-10.4849
▁postnatal	-10.4868
▁Multiple	-10.4875
▁Cr	-10.4876
▁incubated	-10.4879
▁permanent	-10.4885
bound	-10.4893
ary	-10.4895
▁vertical	-10.4898
2).	-10.4904
▁mediate	-10.4911
▁emphasis	-10.4915
ling	-10.4916
▁dis	-10.4921
▁operated	-10.4921
▁histone	-10.4931
▁super	-10.4932
▁North	-10.4933
▁endocrine	-10.4937
▁offspring	-10.4938
echocardiography	-10.4938
▁dye	-10.4946
▁withdrawal	-10.4951
ad	-10.4952
▁clarify	-10.4957
▁glands	-10.4961
▁biomarker	-10.4966
▁inducing	-10.4968
▁radiographic	-10.497
▁passive	-10.4971
▁programme	-10.4974
▁progesterone	-10.4981
▁tooth	-10.4982
▁pathologic	-10.4985
▁normally	-10.5
▁DC	-10.5011
▁controversial	-10.5011
▁assist	-10.5012
NP	-10.5013
▁reductions	-10.5016
ABSTRACT	-10.5022
GC	-10.5023
▁dissociation	-10.5026
▁prescribed	-10.5027
▁April	-10.5028
▁fit	-10.5032
▁satisfactory	-10.5035
▁record	-10.5041
▁ecological	-10.5042
▁pregnancies	-10.5045
▁preventive	-10.5048
▁born	-10.5048
▁HDL	-10.505
▁rice	-10.5057
65	-10.5062
▁immunoglobulin	-10.5066
▁3)	-10.5072
▁biliary	-10.5073
▁EGFR	-10.508
▁combining	-10.5081
▁pancreas	-10.5082
▁exhibits	-10.5082
450	-10.5083
▁mobile	-10.5083
VI	-10.5088
▁Hz	-10.509
▁57	-10.5097
▁walking	-10.51
▁reperfusion	-10.5101
▁activate	-10.5106
point	-10.5128
immunodeficiency	-10.5128
oid	-10.5142
▁Nevertheless	-10.5147
SR	-10.5149
5)	-10.5151
▁seed	-10.5153
▁atrophy	-10.5155
▁agonists	-10.5159
▁virulence	-10.516
▁Between	-10.5162
▁acuity	-10.517
▁64	-10.5171
ium	-10.5175
▁AA	-10.5176
NS	-10.5178
Fe	-10.5184
NH	-10.5187
▁implanted	-10.5189
▁Herein	-10.5192
▁125	-10.5196
▁(4)	-10.5199
▁tendon	-10.52
▁MT	-10.5201
▁1%	-10.5203
▁ventral	-10.5207
▁lobe	-10.5211
▁metals	-10.5213
▁demand	-10.5216
▁morphine	-10.5221
▁enhancing	-10.5221
▁biomass	-10.5228
▁instead	-10.5231
▁promoted	-10.5231
▁Bio	-10.5238
▁obstructive	-10.5247
▁Department	-10.5248
▁abolished	-10.5249
MT	-10.5253
▁apical	-10.5255
▁automated	-10.5256
▁contralateral	-10.5262
▁hemodynamic	-10.5262
phosphate	-10.5263
▁activator	-10.5264
▁PubMed	-10.5266
▁examples	-10.5271
▁opposite	-10.5273
▁egg	-10.5277
▁macrophage	-10.5282
nine	-10.5283
▁idiopathic	-10.5288
▁empirical	-10.529
▁conformation	-10.5294
▁opportunity	-10.53
osis	-10.5303
▁distinguish	-10.5307
▁visit	-10.5307
▁Parkinson	-10.5309
▁2006	-10.5313
▁Assessment	-10.5314
▁rupture	-10.5314
▁share	-10.5316
HS	-10.5318
▁mitral	-10.5318
35	-10.5323
▁offered	-10.5323
�=�	-10.5332
▁WORDS	-10.5337
▁seizure	-10.5339
▁premature	-10.5339
▁TRUNCATED	-10.534
▁discusses	-10.5342
▁pump	-10.5343
▁excessive	-10.535
MI	-10.5358
▁surveys	-10.5365
▁promotes	-10.537
▁1000	-10.5374
▁ulcer	-10.538
▁goals	-10.5386
26	-10.5386
▁nerves	-10.5391
▁redox	-10.5392
▁phosphatidyl	-10.5396
▁serotonin	-10.5399
▁blocks	-10.5406
▁IgE	-10.5406
▁larvae	-10.541
▁uncommon	-10.5411
▁believed	-10.5412
▁driving	-10.5414
▁registered	-10.5418
▁1.2	-10.5426
hospital	-10.5426
▁neutrophils	-10.5431
MR	-10.5432
▁roots	-10.5435
▁driven	-10.5436
▁radiological	-10.5437
▁59	-10.5443
95%	-10.5443
▁income	-10.5443
▁feed	-10.5451
-17	-10.5452
▁tended	-10.5452
▁reductase	-10.5458
▁endometrial	-10.5459
▁Within	-10.5464
▁ionic	-10.5467
▁ideal	-10.5468
▁sympathetic	-10.547
▁CC	-10.5473
▁English	-10.5477
SP	-10.5477
1/2	-10.5483
▁pressures	-10.5483
▁former	-10.5488
▁blockade	-10.5498
order	-10.5499
phenyl	-10.5501
▁prenatal	-10.5502
▁predictions	-10.5503
▁hepatocytes	-10.5504
23	-10.5506
▁retained	-10.5509
▁modality	-10.5512
resolution	-10.5515
▁themselves	-10.5516
▁policies	-10.5517
▁surgeon	-10.5522
▁junction	-10.5524
▁lifestyle	-10.5525
▁enriched	-10.5535
▁shoulder	-10.5546
▁applying	-10.5547
▁unaffected	-10.555
▁PE	-10.5558
▁perioperative	-10.5559
▁socioeconomic	-10.5559
▁undergone	-10.5561
▁CF	-10.5563
▁visible	-10.5563
▁isoforms	-10.5563
▁trait	-10.5564
step	-10.5565
▁prophylaxis	-10.5565
▁autophagy	-10.5569
▁bands	-10.5571
▁conformational	-10.5574
▁stomach	-10.5574
▁resolved	-10.5577
▁helpful	-10.5578
▁eligible	-10.5579
▁cocaine	-10.5579
hour	-10.5581
▁Current	-10.5582
▁glass	-10.5584
▁alteration	-10.5586
▁PR	-10.5587
▁coordination	-10.559
▁pg	-10.5592
▁isolate	-10.5596
▁PS	-10.5597
IP	-10.5603
▁3.5	-10.5605
▁investigating	-10.5608
▁recording	-10.5612
▁unrelated	-10.5616
ent	-10.5619
▁concepts	-10.5619
▁dendritic	-10.5623
▁caregivers	-10.5623
▁exclusively	-10.5625
it	-10.5626
▁hazard	-10.5626
receptor	-10.5627
▁canal	-10.5627
▁carrying	-10.5631
▁valid	-10.5634
▁indication	-10.5638
▁gradually	-10.564
▁signalling	-10.5647
7,	-10.5652
▁apparently	-10.5653
MB	-10.5653
▁text	-10.5654
▁fitness	-10.5654
▁ICU	-10.5655
▁tolerated	-10.5656
▁plasticity	-10.5658
▁disturbances	-10.567
▁scheme	-10.5678
▁Seven	-10.568
AC	-10.5684
▁see	-10.569
▁severely	-10.5691
▁lungs	-10.5692
▁GM	-10.5699
▁hospitalized	-10.57
aged	-10.5709
▁Disease	-10.5709
▁Expression	-10.571
▁Staphylococcus	-10.5714
▁category	-10.5716
▁paradigm	-10.5717
▁genomes	-10.572
▁68	-10.572
▁stromal	-10.5722
▁cattle	-10.5726
22	-10.5727
▁instruments	-10.5728
▁potency	-10.5728
▁concurrent	-10.573
TB	-10.5737
▁fibrillation	-10.5739
)]	-10.5745
▁requirement	-10.5747
▁FA	-10.5749
odds	-10.5749
invasive	-10.5754
▁Low	-10.5755
isation	-10.5761
▁examining	-10.5762
▁Europe	-10.5769
ities	-10.5773
▁0.4	-10.5774
▁exon	-10.5775
▁2009	-10.5776
DS	-10.5792
▁referral	-10.5792
▁descriptive	-10.5793
▁63	-10.5796
▁plane	-10.5799
AT	-10.5801
▁cisplatin	-10.5803
▁epigenetic	-10.5804
▁carbohydrate	-10.5808
▁superficial	-10.5814
▁returned	-10.5819
▁hypertrophy	-10.582
▁fatal	-10.5821
▁acidic	-10.5824
▁Women	-10.5826
▁nmol	-10.5827
▁Chronic	-10.5832
▁mood	-10.5838
▁hour	-10.5838
▁sham	-10.5842
PR	-10.5846
▁reflected	-10.5847
amine	-10.5856
▁NH	-10.5857
▁stiffness	-10.5857
ial	-10.5859
▁responsiveness	-10.586
▁statistics	-10.5862
▁extensively	-10.5862
▁insufficient	-10.5868
▁shear	-10.5871
▁topical	-10.5871
▁superoxide	-10.5873
ET	-10.5878
▁interstitial	-10.5881
▁turnover	-10.5882
▁2.0	-10.5884
▁fruit	-10.5888
PE	-10.5889
▁buffer	-10.5891
▁secretory	-10.5895
body	-10.5895
▁Center	-10.5897
▁RNAs	-10.5898
▁miRNAs	-10.5898
▁validate	-10.5902
▁interview	-10.5903
▁sound	-10.5914
▁filter	-10.5918
6)	-10.5919
▁deficit	-10.592
▁vectors	-10.5921
▁swelling	-10.5922
▁transporter	-10.5925
high	-10.593
-18	-10.5931
▁Society	-10.5931
▁foods	-10.5932
▁30-	-10.5932
▁adapted	-10.5934
▁hematopoietic	-10.5942
▁iso	-10.5943
days	-10.5943
5-	-10.5945
▁flexible	-10.5947
▁proliferative	-10.5949
▁architecture	-10.5952
▁Eight	-10.5953
▁DR	-10.5957
DC	-10.5962
▁personality	-10.5965
▁Li	-10.5972
▁67	-10.5972
▁processed	-10.5977
mo	-10.5977
▁radial	-10.5978
▁emergence	-10.5986
▁GABA	-10.5987
est	-10.599
ised	-10.5992
▁oocytes	-10.5996
▁guinea	-10.5996
▁99	-10.5996
▁Drosophila	-10.5998
▁partners	-10.6004
▁95	-10.6005
from	-10.6007
▁syndromes	-10.6008
▁Care	-10.6011
▁System	-10.6015
▁anatomy	-10.6024
▁Salmonella	-10.6024
▁possess	-10.6025
▁competitive	-10.6026
▁depressed	-10.6031
▁forming	-10.6031
▁kinases	-10.604
▁endothelium	-10.6041
▁equally	-10.6042
▁derivative	-10.6044
▁wheat	-10.6049
▁neutrophil	-10.6051
▁attempts	-10.6054
8,	-10.6055
▁chamber	-10.6062
▁tendency	-10.6071
▁chosen	-10.6074
▁glomerular	-10.6088
▁CRC	-10.6092
▁sense	-10.6092
▁newborn	-10.6094
▁ankle	-10.6096
▁September	-10.6097
▁headache	-10.6103
▁1990	-10.6104
▁bulk	-10.6105
ra	-10.6107
▁violence	-10.6107
▁cultural	-10.6108
▁library	-10.611
▁Similar	-10.6114
▁becomes	-10.6116
▁suppressor	-10.6118
▁Cochrane	-10.6118
▁numerical	-10.6118
▁scattering	-10.6119
ted	-10.6123
▁AS	-10.6128
▁macro	-10.6129
▁OA	-10.6133
▁hyperplasia	-10.6134
art	-10.6138
over	-10.6143
▁62	-10.6144
▁SARS	-10.6144
DA	-10.6148
/6	-10.6151
▁paired	-10.6153
▁sugar	-10.6153
▁Association	-10.6157
frequency	-10.6165
▁schools	-10.6167
ative	-10.6168
▁(<	-10.6174
▁usefulness	-10.6174
▁antiviral	-10.6174
ene	-10.6175
▁stained	-10.6178
ry	-10.6178
▁pool	-10.6182
MD	-10.6182
▁focuses	-10.6183
▁dramatically	-10.6185
▁manual	-10.6186
▁rRNA	-10.6191
▁construction	-10.6191
▁usage	-10.6192
▁displacement	-10.6196
▁15%	-10.6197
▁motif	-10.6197
▁adopted	-10.6199
▁Acute	-10.6204
(1	-10.6206
▁Sixty	-10.6206
▁structured	-10.6209
▁en	-10.6212
▁encoded	-10.6215
▁rheumatoid	-10.6223
▁monocytes	-10.6224
▁slight	-10.6225
▁tail	-10.6227
uestionnaire	-10.6231
▁IgM	-10.6232
▁declined	-10.6232
HIV	-10.624
low	-10.6241
▁contributions	-10.6242
▁select	-10.6244
pre	-10.6244
▁(19	-10.6245
▁October	-10.6247
▁digestion	-10.625
▁nodules	-10.6253
▁cues	-10.6256
▁histopathologic	-10.626
▁financial	-10.6262
LV	-10.6262
▁recommend	-10.6263
▁youth	-10.6268
ne	-10.627
▁latency	-10.6273
▁fungi	-10.628
▁restored	-10.6284
▁verified	-10.6286
water	-10.629
▁immunization	-10.6293
▁took	-10.6299
▁aspect	-10.6303
▁marine	-10.6307
ro	-10.631
os	-10.6312
▁bipolar	-10.6312
▁summarize	-10.6314
▁mammary	-10.6324
▁homology	-10.6326
▁Hence	-10.6328
j	-10.6335
▁retina	-10.6337
▁myeloid	-10.6338
▁western	-10.6339
▁gait	-10.6343
▁immunological	-10.6352
▁lineage	-10.6353
▁fistula	-10.6354
▁patch	-10.6354
▁cysts	-10.6354
▁flux	-10.6356
immunoreactivity	-10.6356
▁usual	-10.6357
▁machine	-10.636
▁cats	-10.6367
le	-10.6367
▁Survey	-10.6369
▁SR	-10.637
▁excitation	-10.6374
guided	-10.6375
▁2017	-10.6377
lo	-10.6387
▁illustrate	-10.6387
▁innate	-10.639
▁effector	-10.6397
▁quite	-10.64
▁ventricle	-10.6405
▁lethal	-10.6408
ide	-10.641
▁neonates	-10.6413
▁sometimes	-10.6416
▁histology	-10.6425
ter	-10.6426
FA	-10.6427
ite	-10.6429
▁birds	-10.6431
▁pollution	-10.6438
▁urea	-10.6438
generation	-10.644
▁author	-10.6445
▁Mn	-10.6458
amide	-10.6464
▁width	-10.6465
▁reporter	-10.6476
▁again	-10.6479
80	-10.648
▁coagulation	-10.6484
▁acoustic	-10.6485
▁utilizing	-10.6488
▁glaucoma	-10.6489
▁weekly	-10.649
▁None	-10.6496
▁hepatocellular	-10.6496
▁India	-10.65
▁static	-10.6501
▁preservation	-10.6502
▁Similarly	-10.6505
▁acetylcholine	-10.6507
▁inform	-10.6508
▁locally	-10.6512
▁examines	-10.6512
▁IgA	-10.6515
▁neuron	-10.6515
CP	-10.6515
onset	-10.6516
34	-10.6516
▁conservative	-10.6517
▁connectivity	-10.6518
▁Institute	-10.652
▁cessation	-10.6523
CN	-10.6525
▁transcript	-10.6527
▁overweight	-10.6529
seven	-10.6531
mol	-10.6531
▁partly	-10.6541
▁Test	-10.6547
▁transferred	-10.655
▁influencing	-10.6551
▁acting	-10.6559
▁applicable	-10.6561
▁transfected	-10.6564
▁serine	-10.6564
▁con	-10.6566
▁2008	-10.6568
▁microbiota	-10.6582
▁prescription	-10.6585
▁cows	-10.6587
▁autologous	-10.6606
▁interesting	-10.6606
▁accelerated	-10.6607
▁75%	-10.6608
▁rhythm	-10.6609
▁66	-10.6611
▁anomalies	-10.6614
▁fear	-10.662
▁3.0	-10.662
▁university	-10.6629
▁enrichment	-10.663
▁competition	-10.6633
Ds	-10.6635
▁assumed	-10.6637
ab	-10.6645
▁Methods	-10.6645
▁configuration	-10.6649
sis	-10.6655
▁waste	-10.6656
▁expanded	-10.666
▁details	-10.6664
])	-10.6667
defined	-10.6673
▁conduction	-10.6674
▁division	-10.6674
▁meet	-10.6682
▁Evidence	-10.6691
side	-10.6694
-15	-10.6696
weighted	-10.6703
▁apply	-10.6708
▁5'-	-10.6708
▁physiology	-10.6721
▁inadequate	-10.6722
▁COPD	-10.6722
▁tetra	-10.6726
▁forward	-10.6726
▁chemistry	-10.6728
▁She	-10.673
▁staging	-10.6731
▁aromatic	-10.6736
▁sign	-10.6741
▁cohorts	-10.6741
AG	-10.6743
▁clinics	-10.6744
▁leptin	-10.6746
▁4,	-10.6746
▁conservation	-10.6748
▁(12	-10.6753
▁recordings	-10.6755
▁comprising	-10.6756
▁partner	-10.6762
▁approved	-10.6767
▁shifts	-10.6769
MC	-10.677
▁2%	-10.6771
Na	-10.6772
▁capability	-10.6777
▁Gram	-10.6777
▁limiting	-10.6779
▁2005	-10.678
ie	-10.6791
▁Australia	-10.6797
▁peroxidase	-10.6799
▁frame	-10.6799
▁bearing	-10.68
▁polypeptide	-10.6801
▁functionally	-10.6802
▁distant	-10.6802
▁industrial	-10.6804
▁words	-10.6811
▁androgen	-10.6812
▁aspiration	-10.6813
▁61	-10.6819
▁salivary	-10.682
▁histamine	-10.6828
dl	-10.6828
▁saturation	-10.6831
▁adjusting	-10.6833
▁microscope	-10.6833
▁anticancer	-10.6834
▁plastic	-10.6834
▁glycoprotein	-10.6836
▁Control	-10.6841
▁mammals	-10.6843
▁fertility	-10.6846
EF	-10.6847
▁incomplete	-10.6847
▁y	-10.6849
ma	-10.6851
▁randomised	-10.6855
▁specimen	-10.6856
acetyl	-10.6858
▁remarkable	-10.6864
▁axial	-10.6873
genic	-10.6874
▁nonlinear	-10.688
AL	-10.6883
▁covered	-10.6886
▁0.8	-10.6886
AF	-10.6888
▁aerobic	-10.6889
CF	-10.6892
▁Increased	-10.6893
▁Changes	-10.6894
▁similarly	-10.6895
-100	-10.6902
▁0.6	-10.6907
▁objectives	-10.6911
▁World	-10.6913
anti	-10.6914
▁85	-10.6917
▁completion	-10.6918
▁property	-10.6923
▁coping	-10.6927
▁1.1	-10.6927
NC	-10.6929
▁breathing	-10.6929
▁separately	-10.6929
▁served	-10.6932
▁2007	-10.6933
▁HPLC	-10.6939
PP	-10.6945
driven	-10.6955
▁microorganisms	-10.6958
36	-10.6959
▁pooled	-10.6963
▁achieving	-10.6964
▁transformed	-10.6971
SI	-10.6974
▁list	-10.6977
▁eggs	-10.6984
kappaB	-10.6988
ize	-10.6991
▁hormonal	-10.6995
▁sensing	-10.6996
▁gives	-10.6997
▁familial	-10.7
▁palliative	-10.7001
6-	-10.7001
▁CB	-10.7002
▁SC	-10.7005
▁season	-10.7007
▁Si	-10.7011
1).	-10.7012
CL	-10.7013
PM	-10.7022
▁electrodes	-10.7022
▁why	-10.7027
MA	-10.7029
▁bp	-10.7029
▁vertebral	-10.7031
▁Future	-10.7034
▁enhances	-10.7034
▁exposures	-10.7034
▁SA	-10.7036
▁periodontal	-10.7038
▁breeding	-10.704
▁Long	-10.7041
▁private	-10.7041
▁fashion	-10.7042
▁miRNA	-10.7042
▁ligament	-10.7046
▁cis	-10.7046
▁upregulated	-10.7047
▁calculate	-10.7048
▁Anti	-10.7049
site	-10.7049
▁restoration	-10.7051
▁user	-10.7054
▁ester	-10.7056
▁Ad	-10.7059
▁AIDS	-10.7062
▁compartment	-10.707
▁representation	-10.7072
▁relief	-10.7073
▁analyzing	-10.7074
ata	-10.7075
▁Asian	-10.7079
9,	-10.7079
▁olfactory	-10.7082
▁biofilm	-10.7089
▁mixtures	-10.7091
▁2013	-10.7091
with	-10.7092
▁recognize	-10.7094
▁becoming	-10.7096
▁causal	-10.7106
▁porcine	-10.711
(2	-10.7112
ies	-10.7118
▁equipment	-10.7122
▁2002	-10.7123
▁antitumor	-10.7124
▁observe	-10.7125
▁stored	-10.7127
rin	-10.7136
▁balloon	-10.714
▁MHC	-10.714
▁mesenchymal	-10.7141
▁fourth	-10.7144
▁maps	-10.7148
▁circadian	-10.715
▁Post	-10.7152
▁Un	-10.7156
▁epidemic	-10.7157
▁she	-10.716
▁institutions	-10.7164
▁enough	-10.7169
▁constants	-10.7174
▁TLR	-10.7176
▁rich	-10.7176
▁naturally	-10.7182
▁parasites	-10.7187
▁atomic	-10.719
▁modulated	-10.7193
▁mRNAs	-10.7194
▁promotion	-10.7195
▁ultimately	-10.7196
ch	-10.7196
rd	-10.7196
▁SS	-10.7197
As	-10.7197
75	-10.7203
▁Pb	-10.7206
▁defense	-10.721
▁transmembrane	-10.721
▁96	-10.7213
Me	-10.7216
▁mononuclear	-10.7217
▁weights	-10.7219
▁continuously	-10.7225
AB	-10.7227
▁2015	-10.7229
▁Pseudomonas	-10.723
▁elucidated	-10.7232
▁inverse	-10.7232
AA	-10.7239
▁RV	-10.7239
▁arise	-10.7242
HF	-10.7242
▁socio	-10.7242
▁preserved	-10.7245
ID	-10.725
▁reflux	-10.7253
▁minimally	-10.7254
effective	-10.7254
▁believe	-10.7258
▁o	-10.7264
▁elective	-10.7268
▁nicotine	-10.7268
▁deficient	-10.7269
▁(30	-10.7272
▁arising	-10.7273
▁Subjects	-10.7276
iv	-10.7277
HD	-10.7281
kDa	-10.7282
BA	-10.7283
▁revision	-10.7284
▁evolved	-10.7284
▁(15	-10.7286
▁Surgical	-10.7287
▁tubular	-10.7288
▁protected	-10.729
▁aeruginosa	-10.7292
▁pharmaceutical	-10.7296
7)	-10.7297
FU	-10.7298
▁dark	-10.73
▁kidneys	-10.7301
CV	-10.7301
▁uncertainty	-10.7306
▁diarrhea	-10.7309
PO	-10.7312
▁precursors	-10.7312
▁informed	-10.7313
▁upstream	-10.732
▁incident	-10.7323
▁purposes	-10.7323
-4-	-10.7332
▁anaerobic	-10.7337
▁anatomic	-10.7341
▁lifetime	-10.7345
▁introduce	-10.7349
TL	-10.7349
▁dysplasia	-10.7349
▁cysteine	-10.7351
▁diffraction	-10.7354
▁endo	-10.7356
▁optimum	-10.7358
▁neurologic	-10.7362
uality	-10.7365
PT	-10.7368
▁7-	-10.7371
▁too	-10.7375
32	-10.7377
▁phenomena	-10.7377
▁analog	-10.7381
▁neuropathy	-10.7382
▁session	-10.7384
▁themes	-10.7386
▁comorbidities	-10.7392
NA	-10.7401
AM	-10.7404
▁epidemiology	-10.7409
TG	-10.7411
▁scoring	-10.7413
▁bonds	-10.7414
▁1.3	-10.7419
▁alignment	-10.7429
▁attached	-10.7431
▁electric	-10.7435
▁2019	-10.7437
▁chicken	-10.744
▁pancreatitis	-10.7444
▁quantitatively	-10.7447
▁blocking	-10.745
▁cyclin	-10.7452
length	-10.7458
▁2012	-10.7458
io	-10.7463
▁spontaneously	-10.7466
▁zero	-10.7475
▁osteoporosis	-10.7476
8+	-10.7481
▁dosing	-10.7481
▁analogue	-10.7481
▁noninvasive	-10.7483
▁engagement	-10.7487
▁datasets	-10.7488
including	-10.7488
▁reticulum	-10.7491
CC	-10.7494
▁leukocyte	-10.7495
▁pore	-10.7505
▁establishment	-10.7505
▁additive	-10.7509
ES	-10.7511
▁highlighted	-10.7512
▁obvious	-10.7515
▁2016	-10.7519
▁inpatient	-10.752
▁optimize	-10.7521
▁2011	-10.7524
▁stabilization	-10.7524
▁sucrose	-10.7524
▁August	-10.7526
▁outbreak	-10.7531
▁student	-10.754
▁sequenced	-10.7541
▁intense	-10.7541
▁axons	-10.7549
▁insufficiency	-10.7552
▁mandibular	-10.7554
▁pneumoniae	-10.7554
▁dog	-10.7555
ATPase	-10.7562
▁MC	-10.7563
▁aneurysms	-10.7574
▁ethical	-10.7579
▁accumulated	-10.7579
Co	-10.758
▁connected	-10.7584
▁waves	-10.7594
directed	-10.7595
CM	-10.7599
▁peer	-10.7605
RNA	-10.7606
ul	-10.7608
▁interpreted	-10.7608
▁0.001),	-10.761
way	-10.7624
▁placental	-10.7626
▁PKC	-10.7628
▁Administration	-10.763
▁muscular	-10.7631
▁resin	-10.7634
▁serial	-10.7635
▁polar	-10.7635
▁definitive	-10.7636
▁purification	-10.7638
56	-10.764
▁directions	-10.7641
▁meat	-10.765
▁Arabidopsis	-10.7653
▁dataset	-10.7656
95	-10.7657
▁Age	-10.7658
▁enabled	-10.7658
▁inactive	-10.7664
▁manipulation	-10.7665
▁phosphorylated	-10.7667
▁persistence	-10.7669
▁Di	-10.767
▁matching	-10.7671
▁visualization	-10.7672
▁Even	-10.7675
▁ultrasonography	-10.7676
▁exclusion	-10.7677
▁equations	-10.768
▁discrete	-10.768
▁PP	-10.7681
3).	-10.7681
▁CAD	-10.7683
▁2004	-10.7684
vascularization	-10.7687
▁Median	-10.7688
▁calculation	-10.7689
▁attractive	-10.769
▁cerebellar	-10.769
▁extend	-10.7693
▁clone	-10.7695
▁neoplasms	-10.77
▁opening	-10.7706
▁orally	-10.7707
▁sudden	-10.7707
▁follicular	-10.7708
▁objects	-10.7709
enhanced	-10.7711
▁describing	-10.7715
▁Micro	-10.7718
▁NSCLC	-10.7725
▁principle	-10.7728
▁unable	-10.7741
▁circular	-10.7745
▁polymers	-10.7745
▁amplified	-10.7748
▁bed	-10.775
▁69	-10.775
▁America	-10.7756
▁molar	-10.7758
▁novo	-10.776
▁mo	-10.7762
mer	-10.7765
▁regulators	-10.7771
▁1.4	-10.7772
▁mu	-10.7772
▁colonic	-10.7777
▁SE	-10.7779
▁corrected	-10.7781
▁uniform	-10.7789
▁Information	-10.7793
▁Drug	-10.7795
▁AMP	-10.7796
▁expressions	-10.78
▁electrochemical	-10.78
▁encodes	-10.7801
▁moderately	-10.7801
▁currents	-10.7802
▁thresholds	-10.7804
▁steroids	-10.7805
▁hosts	-10.7807
▁extreme	-10.781
shaped	-10.7812
▁mediators	-10.7814
▁abilities	-10.7818
▁carry	-10.7821
GM	-10.7821
▁reflex	-10.7823
▁insurance	-10.783
ME	-10.7833
▁preclinical	-10.7836
▁suffered	-10.784
▁athletes	-10.7844
▁cure	-10.7846
▁deterioration	-10.7853
▁estradiol	-10.7853
-2,	-10.7854
▁meal	-10.7856
▁fibroblast	-10.786
<0.001).	-10.7861
bp	-10.7874
▁grafting	-10.7879
▁minimize	-10.788
▁exploration	-10.788
▁activating	-10.7885
▁ethnic	-10.7885
▁elastic	-10.7885
▁testicular	-10.7885
▁immunotherapy	-10.7887
▁injured	-10.7891
▁Additional	-10.7893
▁horizontal	-10.7897
▁building	-10.7906
▁picture	-10.7913
▁prove	-10.7915
LA	-10.7922
▁correctly	-10.7922
▁cytosolic	-10.7924
▁hard	-10.7927
▁erythrocytes	-10.7928
▁otherwise	-10.793
▁consistency	-10.7936
▁w	-10.7938
▁clustering	-10.7941
▁inserted	-10.7946
ance	-10.7951
▁copy	-10.7951
▁atoms	-10.7952
forming	-10.7954
▁pleural	-10.7955
▁constitute	-10.7957
▁microm	-10.7957
eg	-10.7958
ton	-10.7963
▁gained	-10.7963
▁transmitted	-10.7964
▁CL	-10.7966
▁promise	-10.7967
▁Different	-10.798
▁deprivation	-10.7983
▁2.4	-10.7985
▁belonging	-10.7991
▁branch	-10.7991
▁mast	-10.7991
BC	-10.7992
▁specialized	-10.7992
SA	-10.7995
▁hence	-10.8001
▁sarcoma	-10.8001
▁lymphoid	-10.8004
▁ganglion	-10.8004
▁Then	-10.8005
producing	-10.8006
▁behavioural	-10.8018
▁criterion	-10.8022
▁colitis	-10.8036
▁drawn	-10.8036
lin	-10.8038
▁trigger	-10.8042
▁peaks	-10.8042
▁arthroplasty	-10.8043
▁Bcl	-10.8045
microenvironment	-10.8045
▁rule	-10.805
▁WT	-10.8055
▁sampled	-10.8062
▁cranial	-10.8066
▁modify	-10.8071
▁antibacterial	-10.8079
▁NaCl	-10.808
el	-10.808
▁RR	-10.808
▁4.5	-10.8083
▁Se	-10.8084
▁2014	-10.8085
▁analogues	-10.8086
▁autosomal	-10.809
▁microarray	-10.8098
▁tip	-10.8101
▁fold	-10.8101
▁Central	-10.8104
▁calibration	-10.8104
▁hemodialysis	-10.8107
▁land	-10.8108
▁ECG	-10.8109
CE	-10.811
▁conduct	-10.8115
▁vulnerable	-10.8116
▁USA	-10.8117
▁perspectives	-10.8117
▁splicing	-10.8119
▁Medicine	-10.8125
▁flexion	-10.8126
▁(25	-10.813
▁stratified	-10.8135
▁replaced	-10.8135
▁labor	-10.8137
▁oligonucleotide	-10.8138
▁disturbance	-10.8139
▁hetero	-10.8139
▁Canada	-10.8144
SM	-10.8145
eurodegenerative	-10.8147
▁radiographs	-10.8149
GA	-10.8155
BMI	-10.8155
LD	-10.8164
NT	-10.8168
▁canine	-10.817
PET	-10.8172
▁methodological	-10.8174
▁infrared	-10.8175
▁Ki	-10.8179
▁5'	-10.8181
▁ADHD	-10.8182
▁AND	-10.8184
▁mediating	-10.8185
▁chemicals	-10.8185
▁efflux	-10.819
▁Brazil	-10.8191
▁suppress	-10.8195
▁formulations	-10.8198
▁preferences	-10.8202
▁expert	-10.8203
▁evaluations	-10.8205
ae	-10.8206
▁losses	-10.8206
▁varies	-10.8208
�=	-10.8208
▁reaching	-10.8212
▁analgesia	-10.8213
▁immature	-10.8213
▁Wistar	-10.8214
▁finger	-10.8215
▁glioma	-10.8217
In	-10.8217
▁geometry	-10.8219
▁destruction	-10.8221
▁bronchial	-10.8224
▁synergistic	-10.8226
▁1999	-10.8231
▁lesser	-10.8241
▁Poly	-10.8243
TM	-10.8245
▁Statistical	-10.8247
▁Findings	-10.8251
▁(100	-10.8255
▁Risk	-10.8257
▁job	-10.8257
▁drive	-10.8259
poly	-10.8262
▁mis	-10.8263
▁MAP	-10.8264
▁courses	-10.827
▁run	-10.8273
▁ES	-10.8278
▁provision	-10.8279
▁routinely	-10.8283
▁ejection	-10.8285
▁latent	-10.8286
▁entity	-10.8286
▁homogeneous	-10.8286
▁constructs	-10.8292
▁mathematical	-10.8294
▁blotting	-10.8299
ella	-10.8301
▁PTSD	-10.8301
▁aspirin	-10.8302
▁historical	-10.8308
▁ratings	-10.831
▁doctors	-10.832
▁aware	-10.8328
▁1.6	-10.8329
▁tracking	-10.8334
▁perinatal	-10.8335
▁74	-10.8338
▁exert	-10.8343
▁joints	-10.8344
FT	-10.8349
▁lumen	-10.8349
▁SH	-10.8349
▁St	-10.8353
▁(50	-10.8353
▁massive	-10.8358
▁sea	-10.8362
nd	-10.8362
▁nitrate	-10.8364
▁giving	-10.8365
▁manage	-10.8371
▁SNPs	-10.8371
▁Consequently	-10.8379
▁progenitor	-10.8381
▁overlap	-10.8381
▁ranges	-10.8386
▁night	-10.8387
▁laboratories	-10.8391
▁quantity	-10.8391
▁scenarios	-10.8393
▁attending	-10.8393
▁TP	-10.8397
▁February	-10.8408
▁attack	-10.8411
▁triggered	-10.8412
▁etc	-10.8412
4%	-10.8416
▁2.6	-10.842
GS	-10.842
▁HER	-10.8425
AI	-10.8429
▁decay	-10.8429
quality	-10.8435
▁COX	-10.8437
▁forest	-10.8438
▁missing	-10.8439
���	-10.8441
▁76	-10.8443
▁conjunction	-10.8447
▁wk	-10.8452
▁Protein	-10.8454
but	-10.8455
▁polarization	-10.8455
▁attempted	-10.8459
selective	-10.8461
▁relations	-10.8463
▁densities	-10.8463
▁narrow	-10.8467
Ps	-10.8468
43	-10.8473
42	-10.8475
▁centre	-10.8477
▁fetuses	-10.848
▁November	-10.8483
▁beliefs	-10.8496
▁postpartum	-10.8502
▁Nine	-10.8502
▁generating	-10.8503
▁Heart	-10.8504
▁foreign	-10.8509
bi	-10.8514
▁attributable	-10.8515
▁episode	-10.8517
▁Gene	-10.8521
▁plans	-10.8527
ci	-10.8531
▁domestic	-10.8536
▁Specifically	-10.8539
▁Neuro	-10.854
▁Mo	-10.8542
▁recipient	-10.8545
▁BC	-10.8545
▁colonization	-10.8548
▁capsule	-10.8549
▁78	-10.8551
HC	-10.8552
▁1.8	-10.8552
▁employing	-10.8556
▁endemic	-10.8558
▁1998	-10.8559
▁0.9	-10.8564
▁State	-10.8565
▁hearts	-10.8568
threatening	-10.8568
tr	-10.8568
▁NA	-10.8568
▁formula	-10.857
▁cat	-10.8579
▁lupus	-10.8584
▁ERK	-10.8586
-20	-10.8595
3),	-10.8597
▁takes	-10.8601
▁73	-10.8601
▁warranted	-10.8604
▁hypotheses	-10.861
▁leakage	-10.8611
▁renin	-10.8611
▁Together	-10.8612
▁Functional	-10.8612
-13	-10.8613
▁continues	-10.8616
▁limitation	-10.8621
▁PSA	-10.8622
▁conclusions	-10.8622
▁0.7	-10.8627
oma	-10.8629
▁triple	-10.863
▁LA	-10.8633
▁penetration	-10.8639
OA	-10.8645
▁universal	-10.8645
▁attenuation	-10.8645
▁verbal	-10.8647
▁SLE	-10.8648
▁2.8	-10.8648
▁CV	-10.865
▁(18	-10.865
dL	-10.8656
▁71	-10.8658
small	-10.866
▁His	-10.8661
▁nucleotides	-10.8662
▁migraine	-10.8663
op	-10.8669
▁reflects	-10.8673
▁monkeys	-10.8675
effects	-10.8676
▁Northern	-10.8678
do	-10.8679
▁converted	-10.868
▁switch	-10.868
▁market	-10.8681
▁Intra	-10.8684
▁2.3	-10.869
▁flexibility	-10.8691
▁ipsilateral	-10.8691
▁unstable	-10.8691
BM	-10.8691
ethyl	-10.8693
ty	-10.8694
▁rated	-10.8701
▁determinant	-10.8713
▁surgically	-10.8714
▁se	-10.8724
▁silica	-10.8732
▁dexamethasone	-10.8734
wave	-10.8735
▁BM	-10.874
▁abnormality	-10.874
▁facilitated	-10.8741
▁3%	-10.8741
▁dispersion	-10.8745
▁path	-10.8746
NF	-10.8746
form	-10.8749
▁sensors	-10.8751
▁Comparison	-10.8752
▁shunt	-10.8752
▁wastewater	-10.8753
ins	-10.8756
▁masses	-10.876
▁transform	-10.8762
▁amyloid	-10.8763
son	-10.8763
▁constraints	-10.8767
67	-10.8768
▁profiling	-10.877
PF	-10.8771
▁Web	-10.8778
▁virtual	-10.8785
▁thrombin	-10.8787
▁demands	-10.8788
▁Australian	-10.8792
▁crystals	-10.8798
▁similarities	-10.8799
▁2003	-10.8804
▁1.7	-10.8804
▁ppm	-10.8805
land	-10.8806
▁contaminated	-10.8809
▁cascade	-10.8816
▁integral	-10.8818
RF	-10.8819
▁exception	-10.882
▁document	-10.8821
iii	-10.8823
▁yr	-10.8825
MM	-10.8826
▁2001	-10.8826
▁anastomosis	-10.8826
▁fermentation	-10.8826
8)	-10.8827
▁ligation	-10.8829
▁AC	-10.8829
▁frozen	-10.8832
oc	-10.8833
▁2.7	-10.8834
ang	-10.8834
▁margin	-10.8835
▁contacts	-10.8836
▁trace	-10.8836
▁But	-10.8837
▁submitted	-10.8838
▁ACE	-10.8838
▁participating	-10.8841
▁hot	-10.8843
▁counseling	-10.8844
▁supplemented	-10.8846
▁aggregates	-10.8849
▁held	-10.8851
-14	-10.8851
LT	-10.8852
▁So	-10.8855
<	-10.8857
▁careful	-10.886
ce	-10.886
▁assayed	-10.8861
▁0.02	-10.8861
▁dimension	-10.8865
▁suspension	-10.8866
▁granules	-10.8869
▁anion	-10.8871
▁geographic	-10.8873
▁fragmentation	-10.8875
▁proportions	-10.8876
▁stimulating	-10.8877
▁recall	-10.8879
SC	-10.8882
▁3'	-10.8885
cells	-10.8887
▁seasonal	-10.8888
▁poorer	-10.8893
▁intermittent	-10.8897
▁connection	-10.8898
▁reproducibility	-10.8898
▁implement	-10.8899
▁wounds	-10.8905
▁TG	-10.8905
▁maxillary	-10.8907
▁CK	-10.8908
trans	-10.891
▁Various	-10.891
▁dense	-10.8911
63	-10.8911
▁fecal	-10.8912
TR	-10.8915
▁GI	-10.8915
▁tone	-10.8918
▁publications	-10.892
▁dramatic	-10.8922
3+	-10.8931
▁surfactant	-10.8937
▁autonomic	-10.8945
▁gl	-10.8949
▁knockdown	-10.8953
▁edge	-10.8955
▁twenty	-10.896
▁Through	-10.8961
TA	-10.8962
▁transfection	-10.8963
▁distinguished	-10.8965
RP	-10.8969
▁glial	-10.8971
▁Currently	-10.8974
▁conductance	-10.8974
▁charged	-10.8976
▁leukocytes	-10.8978
▁hypothalamic	-10.8984
▁contractile	-10.8984
▁trunk	-10.8987
▁astrocytes	-10.8989
▁insect	-10.899
-11	-10.8991
CoA	-10.8992
▁EGF	-10.8992
▁Second	-10.8996
▁code	-10.8997
▁GA	-10.8997
▁smoke	-10.8998
known	-10.8999
▁ovary	-10.9
▁crude	-10.9002
▁facility	-10.9005
▁macular	-10.9005
hr	-10.9008
▁tibial	-10.901
▁explanation	-10.9013
▁SV	-10.9014
▁Evaluation	-10.9022
▁adulthood	-10.9024
▁experts	-10.9025
MV	-10.9025
▁tandem	-10.9029
dis	-10.9032
▁inoculated	-10.9032
▁modulating	-10.904
▁myocardium	-10.9043
▁Multivariate	-10.9043
▁played	-10.9046
▁BMD	-10.9056
▁regarded	-10.9058
▁reproduction	-10.9061
ana	-10.9064
▁peroxidation	-10.9065
▁CMV	-10.9071
▁reproducible	-10.9072
▁slower	-10.9072
se	-10.9073
9)	-10.9076
▁Neither	-10.9077
▁emissions	-10.9079
▁CVD	-10.9082
▁avoidance	-10.9085
responsive	-10.9088
▁2.2	-10.9088
▁subsets	-10.9088
▁transverse	-10.9089
6%	-10.909
▁inherited	-10.9093
▁defective	-10.9095
▁establishing	-10.9105
▁orbital	-10.9107
▁CM	-10.9112
3%	-10.9117
▁VP	-10.9117
▁transplanted	-10.9118
▁eliminated	-10.9122
▁Besides	-10.9124
▁cardiomyopathy	-10.9127
▁remote	-10.9134
▁intended	-10.9136
▁WHO	-10.9138
▁preferentially	-10.914
▁0.03	-10.9141
▁fibres	-10.9142
ans	-10.9142
▁silver	-10.9143
▁0.01	-10.9143
▁designated	-10.9143
▁template	-10.9146
▁pollen	-10.9146
▁77	-10.9147
▁NT	-10.9149
▁inversely	-10.9149
▁tachycardia	-10.9149
▁biomedical	-10.915
▁kinds	-10.915
▁IP	-10.9156
▁PGE	-10.9158
▁(0.1	-10.916
▁soils	-10.9163
The	-10.9168
ensis	-10.9169
use	-10.9169
▁neoplastic	-10.917
▁mini	-10.9173
▁compatible	-10.9173
▁HL	-10.9177
bearing	-10.9182
▁popular	-10.9189
▁fluctuations	-10.9194
▁mechanistic	-10.9195
patient	-10.9198
▁Differences	-10.92
▁law	-10.9201
▁NE	-10.9201
TS	-10.9202
▁eukaryotic	-10.9205
▁histologically	-10.9208
▁commercially	-10.9208
▁fluids	-10.921
▁RF	-10.9211
▁ingestion	-10.9213
▁STAT	-10.9214
▁moving	-10.9217
▁hydro	-10.9218
▁phage	-10.922
▁4%	-10.9222
energy	-10.9222
IT	-10.9228
▁peroxide	-10.9229
▁Au	-10.9231
▁finally	-10.9231
▁profound	-10.9237
▁gaps	-10.9238
▁radicals	-10.9241
▁analyse	-10.9244
▁caries	-10.9247
BR	-10.9248
▁FSH	-10.9254
2%	-10.9261
▁apparatus	-10.9261
▁Understanding	-10.9266
▁Depression	-10.9273
TE	-10.9286
expression	-10.929
performance	-10.929
▁AUC	-10.9292
▁CKD	-10.9293
▁household	-10.9294
▁MD	-10.9294
4).	-10.9297
▁ulcers	-10.9301
▁complaints	-10.9306
▁MM	-10.9306
▁magnesium	-10.9311
▁normalized	-10.9316
▁organizations	-10.9323
▁Twelve	-10.9325
▁marginal	-10.9327
▁advance	-10.9329
idae	-10.9331
▁Candida	-10.9335
▁transitions	-10.9339
▁HT	-10.934
TNF	-10.9342
▁considerations	-10.9343
▁coherence	-10.9343
▁analgesic	-10.9346
▁planned	-10.9347
▁phospho	-10.9348
Cr	-10.9349
▁label	-10.935
▁cigarette	-10.935
▁180	-10.9351
▁allograft	-10.9351
CB	-10.9353
▁PH	-10.9354
▁giant	-10.9356
OT	-10.9358
▁desired	-10.936
▁HS	-10.9364
▁intraocular	-10.9365
MG	-10.9366
▁productivity	-10.9367
▁ganglia	-10.937
TC	-10.9377
▁slowly	-10.9378
▁government	-10.9379
▁3.2	-10.9379
▁survived	-10.9391
▁carcinogenesis	-10.9396
▁Ser	-10.9397
▁extremity	-10.9397
▁accessible	-10.9402
▁multicenter	-10.9403
33	-10.9404
▁reflecting	-10.9405
▁79	-10.9407
▁burn	-10.9409
▁estimating	-10.9413
▁prosthesis	-10.9414
▁CE	-10.9418
▁adding	-10.9422
▁TA	-10.9429
▁GP	-10.9429
▁bioavailability	-10.943
LS	-10.9432
em	-10.9435
▁drop	-10.9437
iso	-10.9437
▁hypoxic	-10.9442
▁allergy	-10.9442
▁conditioning	-10.9446
▁grow	-10.9446
▁Raman	-10.9447
PG	-10.9448
▁veins	-10.945
▁incontinence	-10.9451
▁AM	-10.9452
▁addressing	-10.9453
▁cation	-10.9456
▁topic	-10.9457
▁testis	-10.9457
▁LD	-10.9459
▁cement	-10.9462
▁word	-10.9464
yr	-10.9465
▁SDS	-10.9466
ox	-10.9466
▁cognition	-10.9466
led	-10.9469
▁running	-10.947
▁developments	-10.9471
▁inoculation	-10.9476
▁embedded	-10.9476
▁personnel	-10.9478
▁Use	-10.9479
▁Germany	-10.9482
▁upregulation	-10.9484
▁84	-10.9486
▁Conversely	-10.949
▁silencing	-10.9491
▁views	-10.9493
▁Sp	-10.9495
▁anaesthesia	-10.95
▁chemo	-10.9504
▁prophylactic	-10.9508
▁CRP	-10.9509
▁cyclase	-10.9514
▁HSP	-10.9515
▁Importantly	-10.9516
▁Organization	-10.9517
▁arginine	-10.9517
ting	-10.9519
▁Genetic	-10.952
300	-10.9521
▁acceptance	-10.9526
▁horses	-10.9526
://	-10.9526
▁responding	-10.9527
▁Single	-10.9527
pa	-10.9528
▁termed	-10.9528
▁codon	-10.953
▁Ex	-10.9531
▁consumed	-10.9538
▁character	-10.9539
down	-10.9541
▁GSH	-10.9541
▁threat	-10.9546
▁meeting	-10.9546
ti	-10.9551
▁aberrant	-10.9556
ring	-10.9556
▁prostaglandin	-10.956
Cu	-10.9562
▁conceptual	-10.9571
▁named	-10.9574
▁0.0001)	-10.9576
▁curative	-10.9577
▁owing	-10.9581
▁slope	-10.9584
▁isoform	-10.9585
▁Seventy	-10.959
▁ambulatory	-10.959
▁sum	-10.9591
▁scored	-10.9592
▁Time	-10.9594
ose	-10.9597
▁papers	-10.9598
▁seeds	-10.9599
▁Self	-10.9601
▁sediment	-10.9603
GR	-10.9603
▁endoscopy	-10.9604
BD	-10.9605
▁irradiated	-10.9611
▁graphene	-10.9612
▁mV	-10.9615
function	-10.9616
▁prefrontal	-10.9617
▁0.04	-10.962
▁innovative	-10.962
5%	-10.9621
kinase	-10.9621
▁contractions	-10.9621
▁Sub	-10.9623
peptide	-10.9623
▁obtaining	-10.9626
▁tend	-10.9631
31	-10.9634
▁chi	-10.9637
▁HC	-10.9639
▁essentially	-10.9639
▁IU	-10.9639
▁asymmetric	-10.9641
▁RP	-10.9642
▁erythrocyte	-10.9643
▁1997	-10.9647
▁knockout	-10.9659
weight	-10.9659
▁Delta	-10.9661
▁postmenopausal	-10.9662
▁summarizes	-10.9663
ph	-10.9665
▁cerevisiae	-10.9671
▁slices	-10.9676
ure	-10.9676
▁General	-10.9682
▁epitopes	-10.9689
▁MAPK	-10.9691
▁Program	-10.9692
▁mitotic	-10.9692
▁cerebrospinal	-10.9692
▁responsive	-10.9693
▁Experimental	-10.9694
▁boundary	-10.9698
▁visceral	-10.9701
IFN	-10.9706
ATP	-10.9707
▁gram	-10.9707
▁epitope	-10.9707
▁eventually	-10.9707
ap	-10.9709
▁enabling	-10.9714
chloro	-10.9716
NE	-10.9716
▁categorized	-10.9722
▁gross	-10.9726
▁2.1	-10.973
DE	-10.973
suppressive	-10.9732
▁relatives	-10.9739
▁city	-10.9739
▁AML	-10.9751
▁limbs	-10.9753
▁cataract	-10.9757
▁resident	-10.9759
throughput	-10.9762
▁consent	-10.9763
▁discharged	-10.9767
▁idea	-10.9769
tumor	-10.977
▁incision	-10.9772
BI	-10.9774
▁Science	-10.9778
▁ambient	-10.978
▁zones	-10.9782
▁MG	-10.9782
▁repetitive	-10.9784
▁Me	-10.9784
▁2.9	-10.9785
▁homozygous	-10.9785
▁scaffold	-10.9786
▁programmes	-10.9787
▁segmentation	-10.9788
▁centres	-10.979
▁TM	-10.9798
▁3.1	-10.9803
2+]	-10.9804
▁phospholipid	-10.9806
▁86	-10.9812
drug	-10.9816
▁SNP	-10.9821
<0.05)	-10.9822
▁society	-10.9823
▁striatum	-10.9826
coding	-10.9827
▁interviewed	-10.9829
▁registration	-10.983
▁uncertain	-10.9832
2.5	-10.9833
glucose	-10.9835
SH	-10.9836
▁receiver	-10.9838
▁82	-10.984
la	-10.9842
1%	-10.9847
mass	-10.9847
▁ASD	-10.9852
PL	-10.9862
IM	-10.9863
▁titers	-10.9865
▁malformations	-10.9867
▁juvenile	-10.9869
▁intubation	-10.9872
EP	-10.9873
▁formal	-10.9873
▁coating	-10.9874
▁influx	-10.9882
▁heme	-10.9883
▁immunosorbent	-10.9885
▁distances	-10.9889
▁cover	-10.989
▁managing	-10.9893
▁web	-10.9896
effectiveness	-10.9897
active	-10.9898
▁conflict	-10.9901
ten	-10.9908
▁ADP	-10.991
7%	-10.9911
▁stresses	-10.9913
▁incorporating	-10.9914
▁Database	-10.9915
▁vomiting	-10.992
▁know	-10.9922
chi	-10.9926
▁retrieved	-10.9927
▁phosphorus	-10.9927
▁Molecular	-10.9928
gene	-10.9928
▁hernia	-10.993
▁5,	-10.9931
▁motifs	-10.9933
▁(11	-10.9934
▁lithium	-10.9936
73	-10.9938
▁4.0	-10.994
IS	-10.994
flow	-10.9943
▁myosin	-10.9946
▁HSV	-10.9948
▁wt	-10.995
▁oxidized	-10.9958
<0.001)	-10.9958
▁evidenced	-10.9958
▁dilution	-10.9958
▁began	-10.9959
▁mimic	-10.9962
▁manifestation	-10.9963
▁atherosclerotic	-10.9966
▁1995	-10.9969
▁bioactive	-10.9973
▁PT	-10.9975
▁HP	-10.9975
▁expectations	-10.9976
▁ultra	-10.9982
▁interacting	-10.9983
▁neo	-10.9985
▁suture	-10.9985
▁sensitization	-10.9985
▁century	-10.9988
▁kind	-10.9988
▁ectopic	-10.9991
▁Bacillus	-10.9992
▁Mycobacterium	-10.9992
exposed	-10.9992
▁Those	-10.9994
▁diagnose	-10.9994
▁resected	-11.0003
▁legal	-11.0004
▁hypothalamus	-11.0004
▁inherent	-11.0006
▁progressively	-11.0007
▁angina	-11.0007
▁seemed	-11.0007
▁cardiopulmonary	-11.0008
▁fate	-11.0009
▁dopaminergic	-11.0009
86	-11.0009
▁nephropathy	-11.0009
▁causative	-11.0013
▁nucleic	-11.002
▁conditioned	-11.0023
▁designs	-11.0026
▁remove	-11.0027
-16	-11.0028
▁pulses	-11.0034
PV	-11.0035
▁mouth	-11.0035
com	-11.0036
be	-11.0038
▁accounts	-11.0039
▁modest	-11.0039
▁physiologic	-11.0043
▁differs	-11.0046
72	-11.0048
oxo	-11.0049
▁compartments	-11.0049
▁lineages	-11.0058
Pro	-11.0058
ogenic	-11.0059
▁Inter	-11.006
▁corticosteroids	-11.0061
▁spent	-11.0062
▁carefully	-11.0064
▁admissions	-11.0068
PH	-11.0069
income	-11.007
▁accounting	-11.0073
VA	-11.0073
▁filling	-11.0075
▁prevents	-11.0075
-60	-11.0076
▁lymphatic	-11.0087
55	-11.0088
▁univariate	-11.0089
▁Cross	-11.0091
▁plates	-11.0092
▁biologically	-11.0092
▁ACTH	-11.0092
▁NMDA	-11.0094
ultidisciplinary	-11.0096
▁placenta	-11.0105
▁augmented	-11.0108
▁seeking	-11.0108
▁inputs	-11.011
▁probable	-11.0112
▁precipitation	-11.0114
▁0,	-11.0115
expressing	-11.0116
▁competence	-11.0116
▁Food	-11.0116
▁classic	-11.0117
▁affective	-11.0118
▁polymerization	-11.0118
]-	-11.0119
▁primers	-11.0123
brain	-11.0124
ator	-11.0125
delta	-11.0125
▁finite	-11.0131
▁Multi	-11.0137
stranded	-11.0139
▁raw	-11.014
▁cycling	-11.014
▁propagation	-11.014
EM	-11.0143
▁players	-11.0143
▁kappa	-11.0144
▁nutrients	-11.0148
▁immobilized	-11.0155
2;	-11.0157
▁Social	-11.0158
▁winter	-11.0162
▁septic	-11.0164
▁transporters	-11.0164
▁copies	-11.0168
cause	-11.0169
▁corn	-11.0169
▁elongation	-11.017
▁catalyst	-11.0176
ner	-11.018
opolysaccharide	-11.0184
psychological	-11.0185
▁relating	-11.0192
▁consultation	-11.0195
▁schedule	-11.0196
▁respiration	-11.0196
MP	-11.0196
▁publication	-11.0203
▁heterozygous	-11.0204
▁folding	-11.0208
▁overlapping	-11.0208
fed	-11.0212
▁bacterium	-11.0217
▁minority	-11.0218
▁abscess	-11.0219
51	-11.0227
▁periodic	-11.023
uantitative	-11.0231
▁melatonin	-11.0231
▁square	-11.0237
▁tau	-11.0242
▁Retrospective	-11.0242
▁antiretroviral	-11.0243
fluoro	-11.0245
ha	-11.0247
▁impairments	-11.0251
▁damaged	-11.0254
▁20-	-11.0258
▁facilitates	-11.026
▁reasonable	-11.026
▁forced	-11.026
▁prostatic	-11.0261
1;	-11.0262
fat	-11.0262
▁individually	-11.0263
▁osteoarthritis	-11.0264
▁Br	-11.0264
▁scaffolds	-11.0268
▁surveyed	-11.0271
▁PG	-11.0272
▁Ti	-11.0274
▁bonding	-11.0277
▁axonal	-11.0282
▁duodenal	-11.0282
▁built	-11.0283
▁Bi	-11.0288
Cs	-11.0288
▁circumstances	-11.029
coated	-11.0292
37	-11.0295
▁branches	-11.0295
▁follicles	-11.0296
▁connections	-11.0308
▁persisted	-11.0309
▁Short	-11.0309
▁behind	-11.031
▁MA	-11.031
oxy	-11.0313
pi	-11.0314
▁moiety	-11.0317
▁En	-11.032
▁epidural	-11.0321
▁epi	-11.0325
▁Higher	-11.0325
ell	-11.0326
NK	-11.0328
ng	-11.0339
▁Trans	-11.0339
4),	-11.0342
▁trees	-11.0343
▁IS	-11.0344
▁cellulose	-11.0349
▁flat	-11.0352
istopathological	-11.0352
▁retrieval	-11.0352
▁guided	-11.0353
emia	-11.0354
▁(0.5	-11.0357
▁actively	-11.0359
▁emotion	-11.036
LI	-11.036
▁Direct	-11.0361
41	-11.0363
▁clinicopatholog	-11.0364
TF	-11.0364
▁(16	-11.0369
FP	-11.037
▁recessive	-11.0371
▁psoriasis	-11.0374
ification	-11.0383
▁hazards	-11.0386
▁saliva	-11.0386
▁ago	-11.0388
ists	-11.0389
68	-11.039
▁inorganic	-11.0393
▁6,	-11.0395
5).	-11.0395
▁pigment	-11.0395
▁SEM	-11.0397
▁automatic	-11.0399
▁resuscitation	-11.0399
▁briefly	-11.0401
▁colonies	-11.0402
▁infertility	-11.0402
▁ribosomal	-11.0406
/100	-11.0408
▁screw	-11.0408
29	-11.0408
▁mapped	-11.0409
▁antigenic	-11.0416
▁positivity	-11.0416
▁parietal	-11.0416
▁6%	-11.0417
▁split	-11.0417
▁window	-11.042
▁prolactin	-11.0425
▁habits	-11.0427
▁translational	-11.0428
▁umbilical	-11.0429
▁septal	-11.0434
▁(5-	-11.0434
▁HO	-11.0437
▁verify	-11.0439
▁repeats	-11.0439
▁German	-11.0441
▁CHD	-11.0446
47	-11.0447
▁mutagenesis	-11.0447
▁apo	-11.0452
▁top	-11.0452
PK	-11.0455
0)	-11.0456
▁filled	-11.0458
▁Whereas	-11.0461
▁allogeneic	-11.0461
ib	-11.0462
▁excitatory	-11.0463
▁reversal	-11.0463
▁dioxide	-11.0466
▁SI	-11.0467
RE	-11.0468
▁3.3	-11.0469
▁collaboration	-11.0474
▁adequately	-11.0477
▁UC	-11.048
▁endovascular	-11.0481
▁circuit	-11.0484
▁parathyroid	-11.0485
▁quickly	-11.0485
▁Inventory	-11.0488
called	-11.0493
▁dairy	-11.0496
▁fetus	-11.05
▁counterparts	-11.0504
▁papillary	-11.0505
▁cholinergic	-11.0509
▁coronavirus	-11.0509
▁summarized	-11.0513
▁deliver	-11.0518
▁Surgery	-11.0524
▁reward	-11.0524
▁fluoride	-11.0526
▁termination	-11.0528
▁fertilization	-11.0531
▁multivariable	-11.0535
bio	-11.0538
▁put	-11.0544
▁gray	-11.0546
cal	-11.0547
Al	-11.0554
▁creating	-11.0555
ful	-11.0557
▁FGF	-11.0558
▁Streptococcus	-11.0563
▁round	-11.0575
▁promoters	-11.0577
▁tRNA	-11.0577
▁BD	-11.0581
▁MEDLINE	-11.0581
▁envelope	-11.059
▁structurally	-11.0593
▁theories	-11.0593
▁VA	-11.0595
▁ever	-11.0596
▁confined	-11.0597
▁guideline	-11.0598
85	-11.0601
micro	-11.0605
▁modelling	-11.0606
▁GnRH	-11.0608
▁paediatric	-11.061
▁8%	-11.0612
ors	-11.0612
acid	-11.0612
▁2018	-11.0614
▁arch	-11.062
▁agar	-11.062
▁0.05),	-11.0621
▁demonstration	-11.0623
▁3.4	-11.0623
▁disappeared	-11.0627
MO	-11.063
ler	-11.063
▁kept	-11.063
▁spite	-11.0631
▁Experiment	-11.0631
▁serves	-11.0632
SV	-11.0636
▁Asia	-11.064
▁EBV	-11.0641
long	-11.0642
▁La	-11.0643
▁AI	-11.0645
01	-11.0648
▁lowered	-11.0653
▁demographics	-11.0655
▁circumference	-11.0657
▁presumably	-11.0658
ag	-11.0664
IF	-11.0667
▁call	-11.0671
▁83	-11.0672
▁5.0	-11.0673
▁provider	-11.0675
Ag	-11.0682
▁SM	-11.0682
▁microvascular	-11.0683
▁mutated	-11.0686
▁car	-11.0689
▁habitat	-11.0692
▁IBD	-11.0695
▁vestibular	-11.0697
▁foci	-11.07
▁embolization	-11.0702
▁supportive	-11.0703
log	-11.0705
▁differing	-11.0705
(+)-	-11.0706
▁urgent	-11.0707
▁Secondary	-11.0708
▁1.9	-11.0708
precipitation	-11.0709
▁norepinephrine	-11.0711
▁newborns	-11.0712
ina	-11.072
▁0.06	-11.0721
▁endoplasmic	-11.0723
▁81	-11.0728
▁clinician	-11.0729
Rs	-11.0729
rate	-11.0729
▁0.0001).	-11.0732
human	-11.0733
EB	-11.0737
▁projection	-11.0737
▁trypsin	-11.0738
▁rational	-11.0739
▁chromatographic	-11.0742
▁preoperatively	-11.0742
▁ATPase	-11.0749
▁agricultural	-11.0751
▁starch	-11.0752
▁add	-11.0753
▁1980	-11.0756
▁fibrinogen	-11.0757
▁applicability	-11.0759
LE	-11.0761
▁employment	-11.0762
62	-11.0764
▁genetics	-11.0765
▁Tumor	-11.0766
▁lysine	-11.0771
▁liposomes	-11.0775
▁DS	-11.0777
▁herein	-11.078
ts	-11.0781
▁scar	-11.0781
arginine	-11.0784
-6-	-11.0784
choline	-11.0785
▁spectroscopic	-11.0786
▁kb	-11.0788
▁binary	-11.0792
▁wet	-11.0795
▁intravenously	-11.0795
▁motivation	-11.0796
▁gp	-11.0797
▁glycine	-11.0801
▁fail	-11.0802
nitro	-11.0802
LDL	-11.0805
▁nonspecific	-11.0806
▁meaningful	-11.0807
▁institutional	-11.0807
▁handling	-11.0809
▁southern	-11.0811
▁z	-11.0816
▁ID	-11.0817
▁nausea	-11.0819
▁myeloma	-11.082
▁illustrated	-11.0821
▁cleft	-11.0822
▁telephone	-11.0826
ence	-11.083
▁triglyceride	-11.0833
▁Eighty	-11.0836
▁wavelength	-11.0838
▁suggestive	-11.0838
▁NPs	-11.084
▁organized	-11.0843
▁TC	-11.0844
▁exhibiting	-11.0849
▁cytology	-11.0853
▁glycol	-11.0856
acting	-11.0858
▁null	-11.0861
▁atom	-11.0861
▁rank	-11.0862
ri	-11.0869
▁intraperitoneal	-11.0872
▁palsy	-11.0882
▁sexes	-11.0883
▁fibrin	-11.0883
▁chart	-11.0885
▁crop	-11.0885
▁activates	-11.0892
▁sludge	-11.0894
normal	-11.0899
▁counter	-11.0899
▁Chi	-11.09
▁gyrus	-11.0902
▁88	-11.0902
200	-11.0902
▁rose	-11.0902
▁splenic	-11.0905
▁loaded	-11.0909
▁laryngeal	-11.0909
▁predicts	-11.091
▁ubiquitin	-11.0911
▁stimulates	-11.0911
0,	-11.0911
▁glycogen	-11.0912
500	-11.0913
AUC	-11.0913
▁micromol	-11.0913
▁porous	-11.0914
▁Kaplan	-11.0916
▁written	-11.0918
▁homo	-11.0918
▁mesenteric	-11.0921
ec	-11.0921
▁powder	-11.0921
▁relate	-11.0922
ane	-11.0927
▁firing	-11.0931
▁voluntary	-11.0932
▁behaviours	-11.0937
(2))	-11.0937
▁Specific	-11.0938
▁connective	-11.0939
▁interacts	-11.0939
▁110	-11.0941
Meier	-11.0941
▁dust	-11.0943
▁retrograde	-11.0947
▁lengths	-11.0947
▁cerebellum	-11.0948
7-	-11.0953
▁outbreaks	-11.0953
99	-11.0956
▁BRCA	-11.0963
inositol	-11.0963
▁participant	-11.0966
RD	-11.0967
▁TSH	-11.0969
▁irrespective	-11.0969
WT	-11.0975
-30	-11.0978
▁sporadic	-11.0978
GP	-11.0981
UC	-11.0983
▁French	-11.0985
▁zebrafish	-11.0985
▁ammonia	-11.0988
▁pathologies	-11.0989
▁Pain	-11.0989
6).	-11.099
▁descending	-11.0991
▁dermatitis	-11.0993
▁assisted	-11.0994
▁autism	-11.0997
▁fell	-11.1005
▁solubility	-11.1007
▁TH	-11.1009
▁MDA	-11.101
▁experiencing	-11.1011
▁strongest	-11.1011
▁TF	-11.1013
▁irreversible	-11.1017
▁walls	-11.1017
▁endpoint	-11.1018
▁Prospective	-11.1018
▁siRNA	-11.1023
red	-11.1025
▁arrhythmias	-11.1026
▁engineered	-11.1027
hypersensitivity	-11.1028
▁geographical	-11.103
▁embolism	-11.1032
▁defining	-11.1033
sp	-11.1033
▁taxa	-11.104
▁dys	-11.1042
▁skull	-11.1046
▁breath	-11.105
structured	-11.1053
▁faculty	-11.1054
,"	-11.1062
▁7.5	-11.1066
▁perhaps	-11.1069
▁85%	-11.107
-2)	-11.1071
HCV	-11.1072
▁oncology	-11.1074
▁rating	-11.1075
ates	-11.1075
▁prone	-11.1078
molecular	-11.1085
▁degenerative	-11.1085
▁falls	-11.1089
▁discriminate	-11.1091
▁rigid	-11.1093
▁Per	-11.1095
▁mediates	-11.11
▁arrays	-11.1101
▁thymus	-11.1113
▁angles	-11.1118
▁strand	-11.1119
▁spermatozoa	-11.1119
▁neuromuscular	-11.1119
▁junctions	-11.1123
▁PEG	-11.1125
▁sports	-11.1128
▁fabricated	-11.1129
activity	-11.113
▁pacing	-11.1137
▁retardation	-11.1137
▁coated	-11.1137
▁alanine	-11.1142
▁summer	-11.1143
▁sufficiently	-11.1144
▁ammonium	-11.1148
▁capabilities	-11.1149
▁resorption	-11.1149
▁5.5	-11.115
▁northern	-11.1151
▁Out	-11.1152
▁averaged	-11.1152
▁switching	-11.1153
▁energies	-11.1155
▁entered	-11.1156
TP	-11.1158
▁characterised	-11.1159
▁clonal	-11.1162
▁TR	-11.1162
▁grain	-11.1165
▁unexpected	-11.1173
▁bases	-11.1173
▁debate	-11.1173
TT	-11.1175
▁rescue	-11.1176
▁perforation	-11.1179
▁adenoma	-11.1183
▁antifungal	-11.1187
▁87	-11.1188
▁mating	-11.1193
▁killing	-11.1196
RI	-11.1196
▁inhalation	-11.1196
▁registry	-11.1196
▁deformity	-11.12
▁Increasing	-11.1201
▁(14	-11.1201
▁glucocorticoid	-11.1202
▁BMP	-11.1203
BT	-11.1204
ct	-11.1204
▁agreed	-11.1207
▁meningitis	-11.1207
▁genital	-11.1209
▁plaques	-11.121
▁PV	-11.1218
depth	-11.1219
▁Development	-11.1219
▁15-	-11.122
▁vulnerability	-11.122
▁12%	-11.1221
▁mercury	-11.1221
▁0.25	-11.1223
▁spindle	-11.1223
▁unlikely	-11.1223
actin	-11.1226
▁argue	-11.1228
▁genera	-11.1233
▁Sprague	-11.1236
▁Akt	-11.1243
▁scenario	-11.1244
▁constituents	-11.1244
▁35%	-11.1244
▁confocal	-11.1244
49	-11.1247
▁covering	-11.1248
▁perceptual	-11.1249
PB	-11.1251
7).	-11.1253
▁weakness	-11.1254
▁stone	-11.1256
▁98	-11.1257
▁Ab	-11.1258
▁methanol	-11.1259
▁dilatation	-11.126
▁FT	-11.1261
Ms	-11.1265
domain	-11.1265
▁dismutase	-11.1266
▁Indian	-11.1274
▁TBI	-11.1275
GH	-11.1278
83	-11.128
▁rules	-11.128
▁stop	-11.1282
▁3.6	-11.1286
▁inducible	-11.1286
▁EF	-11.1289
▁elicit	-11.129
▁prescribing	-11.129
▁quantities	-11.1291
▁challenged	-11.1292
▁abortion	-11.1293
▁iodine	-11.1302
▁ionization	-11.1303
▁analogs	-11.1303
▁infarct	-11.1303
▁Physical	-11.1304
▁wear	-11.1305
▁89	-11.1308
▁departments	-11.1308
▁Examination	-11.1309
▁Fourier	-11.1311
▁Ang	-11.1312
▁bolus	-11.1312
▁Canadian	-11.1316
▁gradients	-11.1316
▁remarkably	-11.1317
▁mumol	-11.1317
▁chemically	-11.1323
▁minute	-11.1323
▁reconstructed	-11.1327
▁vesicle	-11.1332
▁heating	-11.1332
▁subcellular	-11.1334
▁suffer	-11.1334
▁traffic	-11.1336
▁cyclo	-11.1342
▁lowering	-11.1342
▁concentrated	-11.1345
▁assumption	-11.1348
DD	-11.1349
▁polymorphic	-11.135
▁semantic	-11.1351
▁pivotal	-11.1352
▁derive	-11.1353
▁spring	-11.1357
▁cough	-11.1357
▁92	-11.1359
BF	-11.1364
▁continuing	-11.1365
�=�0	-11.1366
▁sexually	-11.1366
▁calcification	-11.137
▁Ba	-11.1378
▁larval	-11.138
adrenergic	-11.1381
▁decomposition	-11.1386
layer	-11.1389
▁scope	-11.139
da	-11.1391
▁Exposure	-11.1392
▁Cells	-11.1393
▁disulfide	-11.1394
▁conductivity	-11.1394
(-1))	-11.1397
▁soybean	-11.1401
(-/-)	-11.1402
sh	-11.1402
▁shell	-11.1407
▁initiate	-11.1408
▁learned	-11.1418
▁priority	-11.1419
▁attacks	-11.142
▁phantom	-11.1423
▁dimer	-11.1423
▁fibronectin	-11.1425
▁divergence	-11.1426
▁wrist	-11.1426
▁hypotension	-11.1428
base	-11.143
▁propensity	-11.1434
cycle	-11.1442
▁inappropriate	-11.1445
ography	-11.1448
▁adhesive	-11.1454
▁DSM	-11.1455
▁LT	-11.1457
▁interfere	-11.1457
▁PTH	-11.1459
ork	-11.146
▁deformation	-11.1462
▁NC	-11.1463
▁tongue	-11.1465
▁autopsy	-11.1468
▁learn	-11.147
▁consequently	-11.1471
▁hierarchical	-11.1471
▁facilitating	-11.1473
▁Southern	-11.1474
tin	-11.1477
)(	-11.1478
▁viscosity	-11.1481
▁augmentation	-11.1483
▁PB	-11.1485
item	-11.1487
▁Bone	-11.149
-36	-11.149
cancer	-11.1491
▁concerned	-11.1491
gel	-11.1497
▁filaments	-11.1498
▁spike	-11.15
▁retinopathy	-11.15
▁mitogen	-11.1501
▁triglycerides	-11.1501
ras	-11.1502
ROS	-11.1503
▁haplotype	-11.1505
TH	-11.1508
▁anesthetic	-11.1509
RM	-11.151
▁transcribed	-11.151
bis	-11.1513
▁synthesize	-11.1517
▁Subsequently	-11.1517
▁sector	-11.1521
▁eliminate	-11.1522
▁preceding	-11.1523
▁stents	-11.1524
▁border	-11.1527
▁Day	-11.1527
▁adenomas	-11.1528
▁asymmetry	-11.1532
▁TCR	-11.1534
▁Hb	-11.1537
ome	-11.1539
tetra	-11.1542
Se	-11.1544
▁weighted	-11.1558
▁tumorigenesis	-11.156
▁spherical	-11.156
del	-11.1561
▁intermediates	-11.1563
▁expenditure	-11.1563
▁Le	-11.1563
8-	-11.1566
▁proteolytic	-11.1567
▁tracheal	-11.1567
▁executive	-11.157
▁monolayer	-11.1571
▁confirming	-11.1573
▁come	-11.158
98	-11.1585
▁myelin	-11.1587
▁neuroendocrine	-11.1587
▁possibilities	-11.1589
▁attitude	-11.159
▁NADPH	-11.1595
ped	-11.1596
▁antidepressant	-11.1597
▁sedation	-11.1597
▁(24	-11.16
▁comorbidity	-11.1607
▁inconsistent	-11.1609
▁amygdala	-11.161
▁NR	-11.1611
▁implementing	-11.1614
▁tight	-11.1617
LM	-11.1618
▁timely	-11.1618
▁deletions	-11.162
▁attributes	-11.1621
▁arms	-11.1622
▁Crohn	-11.1624
▁4)	-11.1625
efficacy	-11.1625
▁dermal	-11.1626
▁projections	-11.1626
▁EP	-11.1628
▁1996	-11.1629
factor	-11.1633
▁SOD	-11.1633
▁MB	-11.1633
▁7%	-11.1637
▁pulp	-11.1638
▁doxorubicin	-11.164
79	-11.1643
8).	-11.1647
▁drivers	-11.1649
▁contexts	-11.165
Group	-11.1651
▁Little	-11.1655
▁accordance	-11.1655
▁.001)	-11.1656
res	-11.166
▁perfused	-11.1665
▁positioning	-11.1665
▁shortening	-11.1665
0.0	-11.1666
▁Postoperative	-11.1667
▁Oral	-11.1673
▁investigators	-11.1673
▁emphasize	-11.1674
▁painful	-11.1676
▁Pt	-11.1676
▁synapses	-11.1677
▁VO	-11.1684
SEM	-11.1684
▁aquatic	-11.1687
-21	-11.1688
▁indicative	-11.1689
▁hemi	-11.1691
▁psycho	-11.1691
▁Unlike	-11.1692
▁safely	-11.1694
▁harm	-11.1695
▁Medicare	-11.1698
▁trafficking	-11.1699
▁cytosol	-11.17
▁Arg	-11.17
▁RS	-11.1706
▁temporary	-11.1714
cis	-11.1715
DI	-11.1717
▁Inhibition	-11.1718
▁virtually	-11.1719
▁accomplished	-11.172
toxic	-11.172
▁restore	-11.1721
▁oscillations	-11.1721
▁Pi	-11.1724
▁reliably	-11.1725
NPs	-11.1725
▁West	-11.1726
0�	-11.173
▁claims	-11.1734
▁Model	-11.1737
thio	-11.1749
▁collect	-11.1749
square	-11.1749
▁pan	-11.175
▁musculoskeletal	-11.1751
▁displays	-11.1758
▁Eleven	-11.1758
▁landscape	-11.1759
Br	-11.1763
▁standing	-11.1764
▁(13	-11.1764
▁solar	-11.1765
sa	-11.1768
ea	-11.177
54	-11.1772
▁responders	-11.1778
CRP	-11.1778
ak	-11.1778
SL	-11.1781
91	-11.1784
▁acyl	-11.1788
▁build	-11.1788
▁glycerol	-11.1789
▁fused	-11.1791
▁ca	-11.1792
▁echo	-11.1793
▁opinion	-11.1795
▁hemorrhagic	-11.1801
▁lean	-11.1805
EA	-11.1807
▁moment	-11.1811
▁Korean	-11.1817
▁electrostatic	-11.1818
48	-11.182
▁fractional	-11.1821
▁93	-11.1821
3%)	-11.1821
▁ART	-11.1826
▁articular	-11.1827
men	-11.1831
AE	-11.1833
▁deposits	-11.1837
weeks	-11.184
▁calves	-11.1845
chemotherapeutic	-11.1846
▁match	-11.1846
▁mediator	-11.1848
sided	-11.185
▁sent	-11.1851
▁expand	-11.1855
▁hereditary	-11.1856
▁raise	-11.1859
▁rely	-11.1868
▁SN	-11.1869
▁microgram	-11.1873
FI	-11.1874
▁(40	-11.1874
2%)	-11.1878
▁supra	-11.1878
▁floor	-11.1879
▁plasmids	-11.188
▁killed	-11.1882
volume	-11.1885
▁1994	-11.1886
▁monocyte	-11.1888
▁curriculum	-11.189
▁Internet	-11.189
pH	-11.1891
▁600	-11.1897
▁Ninety	-11.1901
▁97	-11.1901
▁symmetry	-11.1903
▁matrices	-11.1907
-5-	-11.1908
▁SB	-11.1913
▁(17	-11.1918
▁hemisphere	-11.1918
▁biologic	-11.1918
▁box	-11.1921
▁catalase	-11.1923
▁Lys	-11.1925
▁depolarization	-11.1926
▁exceeded	-11.1926
▁monotherapy	-11.1927
▁oxygenation	-11.1928
▁disparities	-11.1928
▁mAb	-11.193
▁encode	-11.1934
▁conjugated	-11.1935
▁neoplasia	-11.1935
▁faces	-11.1935
▁away	-11.1936
71	-11.1937
▁presentations	-11.1939
▁computerized	-11.1939
▁prosthetic	-11.194
▁SO	-11.194
5%)	-11.1944
▁ineffective	-11.1947
▁diagnosing	-11.195
▁burst	-11.1951
▁Approximately	-11.1952
▁graded	-11.1955
▁passage	-11.1956
▁Bo	-11.1957
▁lymphomas	-11.1957
▁sulfur	-11.1957
▁intention	-11.1961
▁Meta	-11.1965
▁degraded	-11.1965
IN	-11.1968
▁Considering	-11.1972
▁1991	-11.1973
▁grouped	-11.1974
▁cochlear	-11.1974
tus	-11.1975
(2+)-	-11.1976
▁PRL	-11.198
HCC	-11.1981
nm	-11.1988
gen	-11.1988
▁94	-11.199
report	-11.1993
▁breastfeeding	-11.1995
▁item	-11.1997
▁White	-11.1999
ut	-11.2001
▁trimester	-11.2001
▁get	-11.2003
▁enamel	-11.2004
▁Bayesian	-11.2006
▁era	-11.2007
▁flaps	-11.2008
▁Male	-11.201
▁lipase	-11.2011
▁simulate	-11.2013
borne	-11.2013
▁0.001	-11.2013
▁shed	-11.2014
▁catheters	-11.2014
▁Life	-11.2017
▁titanium	-11.2018
▁adoption	-11.202
▁stratification	-11.2021
▁apnea	-11.2021
4%)	-11.2022
▁Dis	-11.2027
cholesterol	-11.2027
▁glucagon	-11.2028
▁vocal	-11.2033
▁lavage	-11.2034
▁wider	-11.2037
▁25-	-11.2038
▁radius	-11.2041
▁chance	-11.2041
GT	-11.2043
▁LS	-11.2043
▁revealing	-11.2044
▁endometriosis	-11.2047
▁thick	-11.2053
▁HbA	-11.2054
▁allocation	-11.2054
▁quasi	-11.2056
▁BALB	-11.2058
▁myo	-11.206
▁stabilized	-11.2061
▁luminal	-11.2065
▁tunnel	-11.2069
▁impedance	-11.207
▁3.8	-11.2071
▁pmol	-11.2074
▁confounding	-11.2074
▁volatile	-11.208
▁coordinated	-11.2084
▁Accordingly	-11.2084
▁And	-11.2088
▁Score	-11.209
butyl	-11.2094
▁segmental	-11.2095
▁engage	-11.2095
▁differently	-11.2096
▁Her	-11.2101
▁na	-11.2103
▁sequelae	-11.2109
▁California	-11.211
▁College	-11.211
▁biomechanical	-11.2111
▁signature	-11.2113
stimulating	-11.2114
▁chiral	-11.2117
go	-11.2118
▁ecosystem	-11.2118
69	-11.2119
▁trajectories	-11.2126
0.5	-11.2129
▁hygiene	-11.2131
▁Before	-11.2134
▁adolescence	-11.2135
▁racial	-11.2135
▁lives	-11.2137
▁identifies	-11.2139
▁phospholipids	-11.2141
▁vertebrate	-11.2142
▁oocyte	-11.2146
▁effusion	-11.2148
▁BA	-11.2149
▁medicinal	-11.215
HI	-11.2151
▁yellow	-11.2152
▁albicans	-11.2153
▁stationary	-11.2153
▁routes	-11.2154
▁enter	-11.2156
▁fibrous	-11.2157
▁follicle	-11.2159
if	-11.216
ub	-11.2167
▁felt	-11.217
▁indirectly	-11.2171
therapy	-11.2172
▁mentioned	-11.2173
▁ultrasonic	-11.2174
▁autoantibodies	-11.2174
▁constitutive	-11.2175
RV	-11.2177
▁margins	-11.2177
▁dissolved	-11.2177
▁crossover	-11.2178
▁dissolution	-11.2178
▁mesh	-11.2179
▁MV	-11.2181
▁retro	-11.2182
▁MCF	-11.2185
▁allocated	-11.2186
▁arsenic	-11.2187
▁axon	-11.219
▁hope	-11.2192
▁assistance	-11.2192
▁links	-11.2194
78	-11.22
▁synovial	-11.2201
9).	-11.2205
▁Tri	-11.2212
▁meaning	-11.2213
LR	-11.2214
▁Phase	-11.2214
▁esophagus	-11.2218
▁disrupted	-11.2222
▁ad	-11.2224
▁patency	-11.2225
OC	-11.2226
▁fibre	-11.2228
▁phospholipase	-11.2229
▁91	-11.2232
▁SCC	-11.2233
▁thrombus	-11.2236
3/	-11.2236
▁Whether	-11.2238
▁contrary	-11.224
▁endotoxin	-11.2241
▁Ro	-11.2242
▁brought	-11.2242
▁maize	-11.2242
▁2020	-11.2244
▁cuff	-11.2244
NR	-11.2245
6%)	-11.2247
▁MDR	-11.2247
▁operational	-11.2248
▁tubes	-11.2251
▁cationic	-11.2252
mu	-11.2253
▁designing	-11.2255
▁4.2	-11.2257
▁actually	-11.226
▁definite	-11.2262
▁ultrastructural	-11.2262
tro	-11.2263
cadherin	-11.2264
▁dissemination	-11.2267
▁plasminogen	-11.2267
▁teams	-11.2268
▁Indeed	-11.2269
▁Fifteen	-11.2271
▁femur	-11.2273
▁avoided	-11.2273
▁confirms	-11.2277
▁shifted	-11.2277
▁mobilization	-11.2279
▁cloning	-11.228
ntihypertensive	-11.2282
ise	-11.2283
▁addiction	-11.2285
▁broader	-11.2286
▁thermo	-11.2288
▁metrics	-11.229
▁neoplasm	-11.2291
thrombocytopenia	-11.2293
light	-11.2293
▁bis	-11.2299
▁harmful	-11.23
▁thereafter	-11.23
▁Diagnostic	-11.2302
▁codes	-11.2306
▁conjugate	-11.2307
loaded	-11.2308
▁poisoning	-11.2312
▁monthly	-11.2314
▁striking	-11.2316
▁uterus	-11.2322
09	-11.2323
▁crisis	-11.2325
▁lactation	-11.2325
▁pharmacy	-11.2329
▁terminals	-11.233
▁move	-11.2331
▁locomotor	-11.2331
modified	-11.2332
▁immunized	-11.2332
58	-11.2333
▁14%	-11.2333
▁detector	-11.2333
sized	-11.2336
▁EMG	-11.2339
▁specialist	-11.2339
▁cone	-11.2343
▁tryptophan	-11.2345
▁exerted	-11.2345
▁extending	-11.2346
▁OC	-11.2347
Dawley	-11.2349
▁1992	-11.235
▁penicillin	-11.2352
97	-11.2353
64	-11.2354
▁reagents	-11.2354
▁sharing	-11.2357
▁tailored	-11.2357
▁creation	-11.2358
▁exploratory	-11.236
▁viewed	-11.2361
▁11%	-11.2363
▁SCI	-11.2363
GO	-11.2366
▁Hyper	-11.2366
▁orders	-11.2369
▁intron	-11.237
▁PO	-11.2371
▁replace	-11.2372
▁weakly	-11.2373
affinity	-11.2374
▁favor	-11.2377
▁distinctive	-11.238
▁0%	-11.2383
▁17%	-11.2386
▁absorbed	-11.2387
▁VI	-11.2388
▁hydrogel	-11.2388
▁mixing	-11.2388
▁prepare	-11.239
(6)	-11.2392
▁overexpressed	-11.2392
▁deleterious	-11.2394
▁detrimental	-11.2394
total	-11.2395
▁crystalline	-11.2401
▁percentages	-11.2402
▁reacted	-11.2402
▁voice	-11.2403
▁interactive	-11.2407
▁cadmium	-11.241
▁taste	-11.241
▁robotic	-11.2412
ealand	-11.2412
AIDS	-11.2414
▁East	-11.2416
▁twin	-11.2417
▁arrangement	-11.2417
▁angioplasty	-11.2419
▁microtubule	-11.2425
▁herpes	-11.2426
▁intensities	-11.2428
▁Experiments	-11.2428
▁TE	-11.243
▁GR	-11.2431
▁Golgi	-11.2432
▁rodent	-11.2433
soluble	-11.2433
▁PL	-11.2433
ber	-11.2436
▁disabilities	-11.2437
▁Another	-11.2438
▁cap	-11.2439
▁clients	-11.2445
acetate	-11.2446
▁rings	-11.2453
▁Follow	-11.2454
cyclophosphamide	-11.2455
▁desirable	-11.2455
▁tea	-11.2457
▁electrolyte	-11.2461
▁captured	-11.2464
▁anal	-11.2464
▁advice	-11.2464
▁1993	-11.2464
▁senescence	-11.2466
▁cytoskeleton	-11.2466
FM	-11.2469
▁afferent	-11.2472
▁medicines	-11.2473
ob	-11.2474
▁therapeutics	-11.2476
▁acceleration	-11.2479
▁seconds	-11.248
46	-11.2481
▁transforming	-11.2482
▁exploring	-11.2482
▁stones	-11.2484
▁elbow	-11.2484
▁expensive	-11.2486
▁abdomen	-11.2486
▁caffeine	-11.2487
▁colour	-11.2488
▁immunoreactive	-11.2489
Arg	-11.2492
▁13%	-11.2493
▁geometric	-11.2496
▁highlighting	-11.25
▁allergen	-11.2502
▁organizational	-11.2502
8%	-11.2504
▁contemporary	-11.2505
▁sole	-11.2507
88	-11.2508
▁discontinuation	-11.2509
3;	-11.2512
02	-11.2515
nt	-11.2519
▁module	-11.2519
▁apart	-11.2521
▁gallbladder	-11.2523
▁Upon	-11.2526
▁breakdown	-11.2528
FC	-11.2531
▁generic	-11.2531
▁topics	-11.2533
▁Saccharomyces	-11.2534
▁utilize	-11.2535
▁nodal	-11.2537
li	-11.2537
▁rodents	-11.2539
▁regime	-11.2543
approximately	-11.2545
▁Americans	-11.2545
▁confirmation	-11.2546
ps	-11.2546
▁Spanish	-11.2548
▁anesthetized	-11.2549
▁citrate	-11.2551
7%)	-11.2551
▁Global	-11.2552
▁folate	-11.2564
▁Italy	-11.2565
▁interplay	-11.2569
▁33%	-11.2572
coupled	-11.2574
▁brainstem	-11.2574
NB	-11.2576
▁harvested	-11.258
▁loads	-11.2583
▁pollutants	-11.2585
▁notion	-11.2592
120	-11.2593
▁conducting	-11.2594
▁assumptions	-11.2596
▁bones	-11.2597
CK	-11.2601
6),	-11.2602
▁downregulated	-11.2606
tissue	-11.2607
Is	-11.2609
neurotransmitter	-11.261
PEG	-11.2611
▁relies	-11.2612
only	-11.2613
NI	-11.2616
chemical	-11.2616
▁detachment	-11.2617
▁adapt	-11.2619
▁lysosomal	-11.2622
▁boy	-11.2622
mp	-11.2623
ear	-11.2625
▁substituted	-11.2626
▁140	-11.2626
▁spreading	-11.2626
▁sustainable	-11.2627
ula	-11.2628
▁origins	-11.2634
▁labelled	-11.2634
▁forearm	-11.2635
▁6.5	-11.2639
▁Few	-11.264
idine	-11.2642
▁typing	-11.2643
▁Monte	-11.2645
▁rod	-11.2645
▁solely	-11.2648
back	-11.2649
▁dB	-11.2649
▁college	-11.265
▁Rats	-11.2652
sociodemographic	-11.2658
▁entities	-11.2658
▁hands	-11.2659
▁representations	-11.266
▁grades	-11.2661
▁functionality	-11.2663
pr	-11.2664
4(+)	-11.2667
hazard	-11.267
ethylene	-11.267
▁MSCs	-11.2672
▁ends	-11.2673
▁originally	-11.2674
125	-11.2678
▁hamster	-11.268
▁hydrophilic	-11.2683
▁corpus	-11.2684
▁4.1	-11.2686
▁helix	-11.2686
od	-11.2687
GB	-11.2687
ML	-11.2688
ological	-11.269
▁front	-11.2693
▁machinery	-11.2693
39	-11.2694
▁efficacious	-11.2695
▁helps	-11.2698
▁gradual	-11.2699
▁homes	-11.2699
▁multidrug	-11.2699
▁refractive	-11.27
▁plexus	-11.2701
▁salvage	-11.2703
▁visualized	-11.2705
▁Knowledge	-11.2707
▁somewhat	-11.2707
▁suspicion	-11.2711
▁tear	-11.2712
▁About	-11.2714
▁fifth	-11.2717
▁Italian	-11.2718
▁lysis	-11.272
▁drought	-11.272
▁incorporate	-11.2721
▁suicidal	-11.2721
▁avian	-11.2721
▁couples	-11.2721
▁supplement	-11.2724
▁prompt	-11.2724
▁integrin	-11.2726
▁regularly	-11.2727
▁TS	-11.2729
ns	-11.2729
▁3.7	-11.2734
▁ethyl	-11.2734
▁endpoints	-11.2735
▁integrate	-11.2738
▁decompression	-11.274
sub	-11.2742
position	-11.2745
▁Brain	-11.2749
not	-11.2753
LPS	-11.2754
value	-11.2754
▁messenger	-11.2758
Tc	-11.2758
▁alkyl	-11.2762
▁downregulation	-11.2764
+)	-11.2765
▁gels	-11.277
▁births	-11.2772
▁reflection	-11.2776
linking	-11.2777
▁bridge	-11.2777
channel	-11.2777
▁span	-11.2778
▁proteases	-11.2779
▁menstrual	-11.278
▁eradication	-11.2781
▁cutoff	-11.2785
▁HeLa	-11.2785
▁ultraviolet	-11.2785
▁thorough	-11.2787
▁TiO	-11.2788
(50)	-11.279
GI	-11.279
▁PCI	-11.2794
▁sagittal	-11.2794
▁Black	-11.2796
2]	-11.2797
▁documentation	-11.2797
▁insects	-11.2799
52	-11.2799
▁105	-11.2801
▁excited	-11.2803
▁entirely	-11.2804
▁simply	-11.2807
▁substitutions	-11.2809
▁cations	-11.2809
▁islet	-11.281
▁ALS	-11.2812
▁lag	-11.2815
▁45%	-11.2821
▁particulate	-11.2821
▁military	-11.2821
▁priming	-11.2822
▁regurgitation	-11.2826
▁radioactivity	-11.2829
▁compromised	-11.2838
▁acupuncture	-11.284
nucleotide	-11.2841
eri	-11.2842
VO	-11.2846
▁Notch	-11.285
▁escape	-11.285
motor	-11.2851
▁bundle	-11.2851
▁vast	-11.2852
▁France	-11.2852
▁avoiding	-11.2856
▁grading	-11.2856
▁ICD	-11.2857
▁Diabetes	-11.2858
surgical	-11.2861
ero	-11.2861
▁propofol	-11.2862
▁toxins	-11.2863
▁differentiating	-11.2864
MF	-11.2865
RC	-11.2867
▁aberrations	-11.2868
▁enlargement	-11.2871
Si	-11.2871
EN	-11.2873
66	-11.2873
▁spatially	-11.2877
both	-11.2878
▁Cardiac	-11.288
▁0.07	-11.2883
ward	-11.2884
▁rationale	-11.2885
center	-11.2887
▁catheterization	-11.2888
▁scarce	-11.289
▁interventional	-11.2892
▁Adult	-11.2892
▁sac	-11.2893
▁semen	-11.2893
▁130	-11.2893
ile	-11.2896
can	-11.2896
▁GO	-11.2897
▁dilation	-11.2901
▁fabrication	-11.2901
▁falciparum	-11.2903
LP	-11.2903
▁plots	-11.2903
clinical	-11.2904
▁TT	-11.2908
▁cerebrovascular	-11.2911
▁fungus	-11.2913
▁16%	-11.2915
▁originating	-11.2918
band	-11.2919
CG	-11.292
▁OCT	-11.2921
▁esters	-11.2924
▁unlike	-11.2929
▁Stage	-11.2931
▁pretreated	-11.2931
1%)	-11.2934
▁serological	-11.2937
▁instances	-11.2937
▁IOP	-11.2943
ba	-11.2944
▁judged	-11.2945
2�	-11.2945
▁battery	-11.2946
▁Case	-11.2952
VEGF	-11.2953
<0.01).	-11.2954
▁chitosan	-11.2957
born	-11.2963
▁extinction	-11.2966
▁manifested	-11.2966
▁linking	-11.2967
tropic	-11.2967
▁Korea	-11.2973
▁discomfort	-11.2975
▁humoral	-11.2977
▁irregular	-11.2979
▁collaborative	-11.2982
cyclic	-11.2985
▁syn	-11.2987
UV	-11.2989
limiting	-11.299
▁resolve	-11.299
Re	-11.2993
▁paid	-11.3
▁solvents	-11.3
▁7,	-11.3
▁MP	-11.3006
▁survive	-11.3009
▁infused	-11.301
▁0.08	-11.301
▁selecting	-11.3014
59	-11.3015
FS	-11.3015
▁tracer	-11.302
0.9	-11.3023
uc	-11.3023
rated	-11.3024
▁saturated	-11.3024
▁18%	-11.3025
04	-11.3027
▁deal	-11.3027
▁Positive	-11.3027
IA	-11.3028
):	-11.3028
emic	-11.3029
▁primer	-11.303
linear	-11.3031
▁strengths	-11.3032
▁oligo	-11.3033
▁Liver	-11.3034
▁go	-11.3035
HP	-11.3035
▁morning	-11.3038
▁Complete	-11.3039
mic	-11.3039
ill	-11.304
▁Class	-11.304
AN	-11.3043
host	-11.3044
▁successive	-11.3045
▁convenient	-11.3045
▁scaling	-11.3046
▁dominated	-11.3048
sensitivity	-11.305
▁puncture	-11.305
8%)	-11.3051
▁explores	-11.3056
translational	-11.3056
▁circuits	-11.3058
▁MF	-11.3062
▁atmospheric	-11.3063
ND	-11.3066
▁recurrences	-11.307
▁trajectory	-11.3071
▁implies	-11.3071
▁postsynaptic	-11.3072
DF	-11.3072
▁definitions	-11.3075
ric	-11.3077
▁satisfied	-11.3078
▁phenolic	-11.3078
▁rearrangement	-11.3079
▁trade	-11.308
▁ductal	-11.3083
▁accumulate	-11.3084
▁stigma	-11.3093
▁chronically	-11.3097
▁importantly	-11.3101
9%	-11.3104
▁employees	-11.3105
ig	-11.3106
▁approval	-11.3106
pt	-11.311
▁killer	-11.311
▁iliac	-11.311
▁proinflammatory	-11.3113
▁altering	-11.3113
ot	-11.3113
▁indomethacin	-11.3113
▁silicon	-11.3117
▁osmotic	-11.312
▁OP	-11.3122
▁Wnt	-11.3124
▁proteinuria	-11.3125
▁Review	-11.3128
HL	-11.3128
▁fitted	-11.313
▁bilirubin	-11.3131
▁1�	-11.3131
▁nanoparticle	-11.3133
600	-11.3136
▁disseminated	-11.3141
▁balanced	-11.3141
▁illnesses	-11.3141
▁vasopressin	-11.3145
BE	-11.3149
▁pulsed	-11.3149
mode	-11.3151
▁lattice	-11.3154
▁000	-11.3156
▁amongst	-11.3156
9%)	-11.3156
▁proof	-11.3157
▁exerts	-11.3158
▁anticoagulation	-11.3158
▁mtDNA	-11.3162
▁interfering	-11.3166
▁disrupt	-11.3168
▁digestive	-11.317
▁cesarean	-11.3172
▁antisense	-11.3173
intensity	-11.318
▁paclitaxel	-11.3184
▁hydroxyl	-11.3184
▁CFU	-11.3184
▁modeled	-11.3185
▁phyto	-11.3185
▁read	-11.3188
▁HB	-11.319
▁photon	-11.3191
▁delays	-11.3191
▁format	-11.3192
▁glutamine	-11.3194
label	-11.3194
▁choices	-11.3198
▁comorbid	-11.32
▁proximity	-11.3201
4;	-11.3202
▁attended	-11.3203
5�	-11.3204
▁aggression	-11.3208
aria	-11.3208
nO	-11.3209
▁3'-	-11.3211
▁reagent	-11.3212
third	-11.3215
deoxy	-11.3218
suppression	-11.3218
LF	-11.3218
miR	-11.3224
▁mind	-11.3226
▁Magnetic	-11.3236
▁axillary	-11.3239
▁psychosis	-11.3241
▁transcriptome	-11.3243
ELISA	-11.3247
▁(0	-11.3247
▁65%	-11.3248
▁teachers	-11.325
target	-11.325
HDL	-11.3253
▁physicochemical	-11.3265
▁exons	-11.3267
▁CRF	-11.3269
▁salts	-11.3272
▁develops	-11.3276
▁cooling	-11.328
▁CCR	-11.3287
▁sharp	-11.3288
▁alternatives	-11.3295
▁.001).	-11.3296
1.7	-11.3297
▁Laboratory	-11.3299
▁deviations	-11.3303
▁girl	-11.3304
▁updated	-11.3305
▁corticosteroid	-11.3307
cin	-11.3309
gram	-11.3309
minute	-11.3311
▁Renal	-11.3311
▁NAD	-11.3312
▁160	-11.3312
SOD	-11.3313
▁realistic	-11.3317
▁9%	-11.3318
▁Registry	-11.3321
▁skill	-11.3326
▁imply	-11.3328
▁morphologic	-11.3328
▁Ig	-11.3329
▁blocker	-11.333
▁caudal	-11.3331
PN	-11.3334
▁Consistent	-11.3338
▁EA	-11.3338
effect	-11.3338
▁Small	-11.334
▁Tissue	-11.3346
▁blind	-11.3352
▁persist	-11.3354
▁boundaries	-11.3356
(-1),	-11.3357
+/	-11.3357
▁stretch	-11.336
61	-11.3368
gp	-11.3368
▁atopic	-11.3368
▁inhaled	-11.3368
▁GS	-11.3374
▁chickens	-11.3376
▁neutralizing	-11.3378
releasing	-11.3378
▁accessory	-11.3379
▁dead	-11.3379
▁(5)	-11.3383
▁microbiome	-11.3384
-67	-11.3386
1.5	-11.3387
▁Sch	-11.339
uria	-11.3391
▁dentin	-11.3392
▁stepwise	-11.3394
▁lambda	-11.3394
EL	-11.3397
▁residence	-11.3397
LL	-11.3401
ef	-11.3406
▁consist	-11.3408
▁3.9	-11.3411
▁interpret	-11.3412
▁phenyl	-11.3414
▁Inc	-11.3415
▁assembled	-11.3417
▁compensation	-11.3418
▁stroma	-11.3419
▁9-	-11.3419
▁lectin	-11.3426
▁aldosterone	-11.3426
▁encephalopathy	-11.3428
vi	-11.3432
▁polyclonal	-11.3433
▁triggers	-11.3434
▁meso	-11.3435
▁chapter	-11.3436
▁precisely	-11.344
▁spot	-11.3443
▁intercellular	-11.3444
▁flight	-11.3445
cost	-11.3446
▁inability	-11.3447
▁What	-11.3448
▁tightly	-11.345
▁engaged	-11.345
▁monomer	-11.3457
▁constitutes	-11.3462
▁dilated	-11.3464
▁specialists	-11.3464
▁Rh	-11.3465
myc	-11.3469
▁underlie	-11.347
DP	-11.347
▁contraceptive	-11.3475
▁ecosystems	-11.3478
▁4.3	-11.3478
▁ease	-11.3479
▁whereby	-11.3481
▁IA	-11.3481
▁mosquito	-11.3484
▁outflow	-11.3487
▁bromide	-11.3489
▁electrophoretic	-11.349
▁correspond	-11.3491
administered	-11.3492
MMP	-11.3492
FL	-11.3495
▁genotyping	-11.3496
5),	-11.3497
▁Plasmodium	-11.3497
▁vaccinated	-11.3498
▁reservoir	-11.3502
Delta	-11.3502
▁CCK	-11.3504
▁chimeric	-11.3506
▁covariates	-11.3508
cut	-11.351
po	-11.3512
▁consumers	-11.3514
▁properly	-11.3516
▁spots	-11.352
ology	-11.3526
▁deficiencies	-11.3526
06	-11.3527
▁postulated	-11.3527
▁calf	-11.3528
▁plateau	-11.3533
istic	-11.3534
",	-11.3535
▁security	-11.3535
▁adsorbed	-11.3538
post	-11.3539
▁incremental	-11.3539
FDG	-11.3541
▁rising	-11.3543
▁planar	-11.3545
▁cosmetic	-11.3545
▁lamina	-11.3549
▁granular	-11.3549
▁projects	-11.355
ica	-11.3553
▁familiar	-11.3553
▁calls	-11.3555
ometry	-11.3558
strand	-11.3561
▁leadership	-11.3561
▁PF	-11.3561
05	-11.3561
▁MN	-11.3563
▁excised	-11.3564
genetic	-11.3565
functional	-11.3568
▁transcriptase	-11.3568
reperfusion	-11.357
▁Glu	-11.3572
▁corresponded	-11.3572
▁HI	-11.3573
▁permit	-11.3573
▁Background	-11.3574
den	-11.3575
ino	-11.3576
-25	-11.3577
Met	-11.3577
▁Para	-11.358
act	-11.3581
▁cyto	-11.3582
▁modules	-11.3583
▁react	-11.3584
▁political	-11.3585
▁tubules	-11.3586
▁stochastic	-11.3586
▁addresses	-11.3587
▁physically	-11.3593
▁1:1	-11.3594
▁unnecessary	-11.3594
▁imbalance	-11.3594
▁repression	-11.3596
▁yielding	-11.3596
▁competing	-11.3596
▁latest	-11.3599
▁gains	-11.36
▁ascending	-11.3602
▁brown	-11.3603
▁polarity	-11.3606
▁Collectively	-11.3607
▁FP	-11.3607
▁negligible	-11.3609
7),	-11.361
▁Survival	-11.3614
▁methodologies	-11.3616
▁possesses	-11.3617
▁platinum	-11.3618
▁lasting	-11.3619
OM	-11.3624
▁immobilization	-11.3624
▁nude	-11.3628
▁IM	-11.363
▁my	-11.363
▁haplotypes	-11.3631
▁4.6	-11.3635
ron	-11.3636
▁today	-11.3637
-24	-11.3638
▁somatostatin	-11.3641
▁SL	-11.3641
BB	-11.3641
▁strict	-11.3641
▁soon	-11.3642
▁FL	-11.3642
ising	-11.3643
▁checkpoint	-11.3645
▁globally	-11.365
▁subtle	-11.3651
▁commitment	-11.3652
▁MRSA	-11.3653
▁pyruvate	-11.3654
▁conscious	-11.3654
▁permits	-11.3656
▁hypothesize	-11.3656
4/	-11.3662
▁paraffin	-11.3663
▁surgeries	-11.3663
▁alive	-11.3663
Ala	-11.3665
▁urethral	-11.3665
▁EM	-11.3665
▁21%	-11.3666
lic	-11.3666
▁laparotomy	-11.3666
▁breaks	-11.3667
▁ethnicity	-11.3668
▁Outcomes	-11.3668
▁explicit	-11.3669
▁Ph	-11.3669
CAT	-11.3671
▁ordered	-11.3672
▁Ras	-11.3674
▁Fourteen	-11.3676
▁supplements	-11.3676
targeted	-11.3679
▁6.0	-11.3679
dimethyl	-11.368
▁deposited	-11.368
▁neuroblastoma	-11.3681
Gly	-11.3684
▁England	-11.3688
��	-11.3689
▁patches	-11.3689
▁venom	-11.3689
▁RI	-11.369
ax	-11.3692
▁22%	-11.3692
▁Pr	-11.3694
aceae	-11.3695
▁psychometric	-11.3695
▁hydrochloride	-11.3696
▁amplitudes	-11.3697
rank	-11.3701
▁necessarily	-11.3704
▁inactivated	-11.3705
▁victims	-11.3705
▁immunoassay	-11.3705
▁granule	-11.3706
▁EMBASE	-11.3709
ni	-11.371
bo	-11.3716
/10	-11.3716
nuclear	-11.372
▁regenerative	-11.3724
▁concordance	-11.3724
▁spaces	-11.3725
▁osteo	-11.3726
ier	-11.3727
▁revised	-11.3727
▁chemokine	-11.3728
▁Large	-11.3729
▁progenitors	-11.3729
▁conjugates	-11.373
▁sputum	-11.3732
▁Standard	-11.3736
▁conflicting	-11.3737
▁modulates	-11.3739
▁scheduled	-11.374
▁tropical	-11.374
▁Brazilian	-11.3741
▁rotational	-11.3746
economic	-11.3751
▁Ac	-11.3756
▁Conclusion	-11.3759
▁necessity	-11.376
▁q	-11.3762
rp	-11.3767
▁hysterectomy	-11.3768
▁technological	-11.3769
▁brains	-11.377
▁Addition	-11.3772
cc	-11.3772
▁monkey	-11.3774
virus	-11.3775
▁isotope	-11.3776
▁recover	-11.3778
▁Aspergillus	-11.3785
▁overload	-11.3787
▁gingival	-11.3792
established	-11.3797
▁die	-11.3798
methoxy	-11.3799
▁seek	-11.38
mal	-11.38
▁keratinocytes	-11.3801
▁SPECT	-11.3802
▁alcoholic	-11.3802
▁segregation	-11.3803
▁ME	-11.3803
▁hematoma	-11.3805
▁ether	-11.3806
▁ab	-11.3806
▁workplace	-11.3808
▁forensic	-11.3809
▁23%	-11.3813
▁funding	-11.3816
▁district	-11.3817
▁diagnostics	-11.3818
▁pose	-11.3818
ADP	-11.382
si	-11.3821
average	-11.3821
late	-11.3822
▁emphasized	-11.3825
▁intrauterine	-11.3827
96	-11.383
▁duplication	-11.3832
PAGE	-11.3834
ERK	-11.3835
▁epinephrine	-11.3836
face	-11.3837
▁polypeptides	-11.384
▁notably	-11.3841
▁enlarged	-11.3841
▁cooperation	-11.3841
▁track	-11.3843
▁Factors	-11.3844
▁selenium	-11.3845
▁solve	-11.3846
substituted	-11.3847
▁doctor	-11.3848
▁Carlo	-11.3851
▁comprises	-11.3851
▁Samples	-11.3855
0).	-11.3857
87	-11.3858
▁dysregulation	-11.3862
▁Previously	-11.3862
▁BW	-11.3862
▁diameters	-11.3864
loop	-11.3864
▁stressors	-11.3866
▁extremities	-11.3866
sc	-11.3867
▁Fas	-11.3867
▁Prior	-11.3869
▁accident	-11.3869
▁belong	-11.387
▁linearly	-11.3873
▁vancomycin	-11.3873
▁dislocation	-11.3875
▁ice	-11.3876
Ab	-11.3876
▁radioactive	-11.3877
(5)	-11.3877
▁fruits	-11.3877
▁stool	-11.3878
▁striatal	-11.388
▁Taiwan	-11.3882
KO	-11.3882
▁hyperglycemia	-11.3885
▁missed	-11.3886
▁serotype	-11.3887
▁composites	-11.3887
▁problematic	-11.389
▁im	-11.3893
▁truncated	-11.3893
▁la	-11.3895
▁oncogenic	-11.3896
▁Child	-11.3897
▁ACL	-11.3899
▁Major	-11.3899
▁thirty	-11.3903
▁tablets	-11.3907
▁answer	-11.3909
▁omega	-11.391
▁presumed	-11.3911
▁sediments	-11.3912
▁managers	-11.3914
gov	-11.3915
▁kcal	-11.3916
▁bilayer	-11.3916
▁%)	-11.3916
▁foundation	-11.3917
▁ascites	-11.3919
SG	-11.3919
HE	-11.392
▁angular	-11.392
▁integrating	-11.3921
▁initiating	-11.3922
▁parenteral	-11.3923
pe	-11.3925
CNS	-11.3926
▁FEV	-11.3928
▁confer	-11.3929
▁neuroprotective	-11.3929
▁FC	-11.3929
reactivity	-11.3935
▁psychotic	-11.3937
▁PK	-11.3938
▁evolving	-11.3942
cy	-11.3943
▁microglia	-11.3943
▁microwave	-11.3944
OP	-11.3945
▁fuel	-11.3945
▁waiting	-11.3949
▁Ch	-11.395
▁contextual	-11.3951
▁depended	-11.3951
▁positron	-11.3953
▁Sixteen	-11.3953
▁Logistic	-11.3955
▁periodontitis	-11.396
▁Hsp	-11.3963
▁acquire	-11.3964
▁illustrates	-11.3965
ung	-11.3967
▁postural	-11.3967
▁0.15	-11.3968
arm	-11.3968
▁resultant	-11.3969
▁DL	-11.397
▁toxicities	-11.3977
▁Cys	-11.3979
▁dengue	-11.3979
▁Caucasian	-11.3979
▁amputation	-11.3981
cr	-11.3982
▁removing	-11.3982
af	-11.3983
▁Spain	-11.3984
74	-11.3988
▁polyps	-11.3992
▁Grade	-11.3995
▁(+/-	-11.3995
▁dedicated	-11.3997
▁walk	-11.3998
▁totally	-11.3998
▁discussions	-11.3999
▁GTP	-11.4003
▁SW	-11.4007
tion	-11.4009
▁glycoproteins	-11.401
▁River	-11.4012
▁ANOVA	-11.4014
▁0.5%	-11.4017
▁smear	-11.4018
▁thickening	-11.4019
▁failures	-11.4019
▁methotrexate	-11.4019
▁Local	-11.4023
TI	-11.4023
▁tolerability	-11.4026
▁emotions	-11.4027
▁leak	-11.4027
▁Visual	-11.4028
▁islets	-11.4031
▁blockers	-11.4034
▁orthodontic	-11.4034
fer	-11.4038
▁thiol	-11.404
logy	-11.4041
400	-11.4042
▁coil	-11.4043
Ser	-11.4045
▁antioxidants	-11.4046
temporal	-11.4048
�%	-11.4048
ICU	-11.4049
les	-11.4049
▁Initial	-11.4049
▁generates	-11.405
▁Car	-11.4054
▁beads	-11.4054
▁mandatory	-11.4056
▁microsomes	-11.4059
▁encourage	-11.4061
my	-11.4062
▁cryo	-11.4065
▁texture	-11.4066
▁backbone	-11.4069
ip	-11.4071
catalyzed	-11.4074
vitro	-11.4074
▁travel	-11.4074
▁malnutrition	-11.4077
▁airways	-11.4077
▁Family	-11.4078
Phe	-11.4078
▁filters	-11.4079
▁myocytes	-11.4081
▁polyethylene	-11.4081
▁worsening	-11.4081
IGF	-11.4083
▁24%	-11.4085
▁traditionally	-11.4085
▁1989	-11.4086
▁noradrenaline	-11.4087
▁Factor	-11.4089
▁sphincter	-11.4089
▁expanding	-11.4089
phosphorylation	-11.4093
▁anticoagulant	-11.4093
fa	-11.4096
▁vasculature	-11.4099
▁Body	-11.4099
1�	-11.4101
▁Analyses	-11.4101
▁Surprisingly	-11.4103
▁helical	-11.4104
▁expertise	-11.4104
otic	-11.4105
▁ascertain	-11.4108
▁patent	-11.4108
▁CEA	-11.4111
▁vertebrates	-11.4114
▁manifest	-11.4115
▁fitting	-11.4115
vis	-11.4117
▁waist	-11.4117
tal	-11.4119
▁epidermis	-11.4119
minotransferase	-11.412
Glu	-11.4121
▁exclude	-11.4123
▁blinded	-11.4124
▁surrogate	-11.4125
opathy	-11.4126
▁aggregate	-11.4135
▁Library	-11.4136
▁immunostaining	-11.4136
▁ubiquitous	-11.4137
▁ferritin	-11.4139
▁herbal	-11.4141
▁synthetase	-11.4141
▁Normal	-11.4143
▁accidents	-11.4145
▁lenses	-11.4145
▁1988	-11.4146
▁Os	-11.4146
-40	-11.4147
▁ulcerative	-11.415
▁clamp	-11.415
ants	-11.4151
▁LR	-11.4154
▁stimulatory	-11.4154
▁swine	-11.4155
▁100,000	-11.4158
1.8	-11.4159
▁parenchyma	-11.4161
▁journals	-11.4161
▁oriented	-11.4162
▁pesticides	-11.4164
▁combine	-11.4167
▁stakeholders	-11.4167
▁outpatients	-11.4167
ong	-11.4168
▁normotensive	-11.4168
DL	-11.4172
▁vegetation	-11.4173
▁malformation	-11.4173
▁BDNF	-11.4174
▁occasionally	-11.4175
▁acetyl	-11.4176
2.6	-11.418
metric	-11.4181
▁docking	-11.4181
▁hold	-11.4183
mRNA	-11.4183
▁solitary	-11.4184
met	-11.4185
▁neuroimaging	-11.4187
▁rearrangements	-11.4188
▁impacted	-11.4191
▁excitability	-11.4195
MSCs	-11.4197
which	-11.4198
▁aryl	-11.42
8),	-11.42
3.1	-11.4201
lysis	-11.4201
▁choline	-11.4206
▁7.4	-11.421
HPV	-11.421
▁freezing	-11.4212
so	-11.4215
▁luciferase	-11.4221
▁existed	-11.4221
▁velocities	-11.4222
▁intellectual	-11.4223
▁administrative	-11.4223
▁(200	-11.4226
infection	-11.4228
▁generations	-11.4229
▁Ma	-11.423
MAP	-11.423
▁antiserum	-11.4231
▁subpopulations	-11.4232
om	-11.4233
▁adenovirus	-11.4234
centered	-11.4235
▁7.0	-11.4237
▁shapes	-11.4237
▁ischaemic	-11.4238
lip	-11.4239
▁How	-11.424
▁crops	-11.4242
▁babies	-11.4243
▁proteasome	-11.4246
▁juice	-11.4246
▁clock	-11.4249
▁compact	-11.4251
▁adjunct	-11.4252
81	-11.4253
DH	-11.4254
▁4.4	-11.4255
▁pharmacologic	-11.4256
▁FR	-11.4257
▁break	-11.426
▁angiographic	-11.4261
▁histopathology	-11.4262
▁osteotomy	-11.4262
▁specified	-11.4266
▁bar	-11.4268
med	-11.4269
▁glycemic	-11.4269
▁check	-11.427
▁photosynthetic	-11.427
score	-11.4273
ions	-11.4274
cus	-11.4274
▁torque	-11.4276
▁scientists	-11.4277
▁exponential	-11.4282
surface	-11.4286
▁Mice	-11.4288
▁DE	-11.4294
▁prototype	-11.4294
GG	-11.4298
▁platforms	-11.4299
ow	-11.4299
par	-11.43
1.3	-11.4301
▁Network	-11.4301
▁mismatch	-11.4302
metal	-11.4304
1.6	-11.4307
▁lipoproteins	-11.4308
▁Rho	-11.431
▁divergent	-11.4311
▁(60	-11.4312
▁sigma	-11.4312
og	-11.4313
▁Baseline	-11.4317
▁Lung	-11.4318
▁broadly	-11.4321
▁104	-11.4321
▁mandible	-11.4322
SCC	-11.4325
▁covalent	-11.4326
▁whilst	-11.4327
▁manufacturing	-11.433
▁polymeric	-11.433
▁pi	-11.433
▁AV	-11.433
▁Mutations	-11.4331
▁encouraging	-11.4333
▁4.8	-11.4335
▁Men	-11.4336
▁curvature	-11.4336
▁indexes	-11.4337
▁Thirteen	-11.4338
▁responsibility	-11.4341
▁borderline	-11.4342
▁xenograft	-11.4344
▁appropriately	-11.4345
▁nitrite	-11.4347
ning	-11.435
eal	-11.435
▁Measurements	-11.435
▁realized	-11.4352
▁nodule	-11.4352
▁neoadjuvant	-11.4352
evoked	-11.4358
▁look	-11.436
07	-11.4369
▁methionine	-11.437
▁metformin	-11.4371
standard	-11.4372
▁supernatant	-11.4378
LH	-11.4379
▁cardio	-11.4381
▁sides	-11.4385
SB	-11.4385
▁warfarin	-11.4387
▁habitats	-11.4388
ified	-11.439
▁106	-11.4393
▁55%	-11.4393
▁transit	-11.4397
▁indeed	-11.4399
▁deduced	-11.4399
▁parasitic	-11.44
9),	-11.4406
▁livers	-11.4408
▁cities	-11.4409
wing	-11.4413
NM	-11.4415
▁Though	-11.4415
TOF	-11.4418
0.8	-11.4418
▁sc	-11.4418
▁0.02)	-11.4424
set	-11.4425
▁reserve	-11.4426
▁CG	-11.4428
▁libraries	-11.4434
▁Next	-11.4435
▁chondrocytes	-11.4435
▁preceded	-11.4435
▁NOS	-11.4437
-50	-11.4439
▁Clinic	-11.444
▁antenatal	-11.444
▁("	-11.4441
▁AMI	-11.4441
radioimmunoassay	-11.4442
HPLC	-11.4443
▁transplants	-11.4443
diabetic	-11.4448
▁septum	-11.4448
▁subclinical	-11.445
▁clustered	-11.4453
ish	-11.4454
▁dystrophy	-11.4455
▁(21	-11.4455
▁achievement	-11.4458
▁0.75	-11.4458
▁PAH	-11.4459
such	-11.4461
ka	-11.4462
0.6	-11.4463
▁disappearance	-11.4465
3�	-11.4465
▁progressed	-11.4465
resistance	-11.4467
03	-11.4467
lateral	-11.4468
▁pharmacists	-11.4469
Leu	-11.4469
▁resilience	-11.447
▁hydration	-11.4471
▁proteomic	-11.4473
▁configurations	-11.4477
▁bring	-11.4478
▁Fc	-11.4479
▁accessibility	-11.4482
▁vapor	-11.4483
lasting	-11.4484
77	-11.4485
▁Res	-11.4485
▁lymphocytic	-11.4488
▁collateral	-11.4489
▁trust	-11.4491
▁cannabis	-11.4492
▁microsomal	-11.4493
▁valves	-11.4494
▁NGF	-11.4494
▁RCTs	-11.4495
▁conditional	-11.4495
▁introducing	-11.4496
▁CTL	-11.4497
nes	-11.4497
▁medulla	-11.45
▁Growth	-11.4501
▁nephrectomy	-11.4502
▁cultivation	-11.4502
selectin	-11.4503
▁pelvis	-11.4504
LN	-11.4504
▁translated	-11.4506
▁stream	-11.4509
▁palate	-11.4509
▁CpG	-11.451
▁epileptic	-11.4511
▁Prevention	-11.4515
▁LP	-11.4517
▁outline	-11.4517
▁households	-11.4519
▁enhancer	-11.452
▁lidocaine	-11.452
▁cue	-11.4521
osa	-11.4521
▁SHR	-11.4522
▁HE	-11.4523
▁siblings	-11.4524
▁maximize	-11.4524
▁Severe	-11.4526
▁germination	-11.4529
▁acidosis	-11.453
▁Notably	-11.4531
▁arachidonic	-11.4534
▁compromise	-11.4535
HB	-11.4535
▁titer	-11.4537
▁Preoperative	-11.4537
Hb	-11.4537
▁fMRI	-11.4538
▁epsilon	-11.4538
▁Embase	-11.454
84	-11.454
82	-11.4541
▁microbiological	-11.4544
sec	-11.4546
Mo	-11.4549
▁catalysts	-11.455
▁heterologous	-11.455
▁Management	-11.4551
▁scintigraphy	-11.4554
noise	-11.4555
▁instrumental	-11.4556
▁sparse	-11.4556
▁surviving	-11.4558
▁Average	-11.4559
▁characterizing	-11.456
▁programmed	-11.456
▁natriuretic	-11.4562
9-	-11.4563
▁normalization	-11.4565
▁vibration	-11.4566
▁RE	-11.4566
▁Rating	-11.457
▁interpersonal	-11.4571
pathological	-11.4573
▁pocket	-11.4574
▁constitutively	-11.4575
▁Individual	-11.4576
▁expiratory	-11.458
IgG	-11.4581
▁attentional	-11.4583
▁Outcome	-11.4584
▁alters	-11.4586
FE	-11.4586
▁hepatocyte	-11.4587
OX	-11.4588
▁metallic	-11.4591
▁IT	-11.4595
▁observers	-11.4597
▁corticosterone	-11.4598
▁office	-11.4599
];	-11.46
▁erythematosus	-11.4601
limited	-11.4604
▁counting	-11.4604
▁intelligence	-11.4607
▁Met	-11.4609
▁Netherlands	-11.4609
▁Mar	-11.461
▁pyramidal	-11.4611
▁Am	-11.4612
CAM	-11.4612
▁1987	-11.4613
world	-11.4613
▁epidemiologic	-11.4616
▁road	-11.4617
tis	-11.4619
▁polysaccharide	-11.4619
ens	-11.462
▁biosynthetic	-11.4623
▁distinguishing	-11.4631
▁Committee	-11.4632
▁Iran	-11.4632
▁DCs	-11.4633
▁Mental	-11.4638
oral	-11.464
▁19%	-11.464
▁hybrids	-11.464
ley	-11.4642
▁School	-11.4643
▁Diagnosis	-11.4643
▁necrotic	-11.4645
▁stain	-11.4652
▁batch	-11.4653
▁sheath	-11.4655
-/-	-11.4657
▁Community	-11.466
he	-11.4661
ogenesis	-11.4661
▁amine	-11.4662
au	-11.4663
▁Medicaid	-11.4666
▁mechanics	-11.4666
▁contaminants	-11.4667
1.1	-11.4668
▁art	-11.4669
▁glycosylation	-11.4669
▁18-	-11.467
▁infusions	-11.4675
▁OF	-11.4679
▁labour	-11.4683
FR	-11.4685
▁silicone	-11.4685
▁audit	-11.4686
▁ML	-11.4686
▁VAS	-11.4687
93	-11.4688
▁Insulin	-11.4688
▁helper	-11.4689
▁(22	-11.4689
▁morphologically	-11.4692
▁Service	-11.4692
▁circulatory	-11.4695
▁Numerous	-11.4697
▁moral	-11.4697
▁JNK	-11.4698
Ph	-11.4698
▁methane	-11.4704
▁Up	-11.4706
▁qualitatively	-11.4706
▁skeleton	-11.4706
▁phagocytosis	-11.4706
▁1985	-11.4707
▁encephalitis	-11.4707
rit	-11.4708
▁bony	-11.4709
▁rhinitis	-11.4711
▁leucine	-11.4711
▁creatine	-11.4715
▁presynaptic	-11.4715
▁27%	-11.4721
▁microsatellite	-11.4723
▁anticipated	-11.4728
▁Meanwhile	-11.4728
▁sedentary	-11.4734
▁inversion	-11.4734
▁Do	-11.4737
▁Conclusions	-11.4738
vascular	-11.4738
▁gelatin	-11.4739
▁pools	-11.4743
2+-	-11.4744
▁searches	-11.4745
▁fire	-11.4746
space	-11.4746
▁reinforcement	-11.4748
▁suboptimal	-11.4751
fos	-11.4753
▁hypothermia	-11.4754
▁works	-11.4757
▁bottom	-11.4758
ivity	-11.4759
part	-11.4761
▁ethylene	-11.4762
▁stores	-11.4762
▁fly	-11.4764
▁OH	-11.4765
▁pedicle	-11.4769
org	-11.477
▁FM	-11.4774
HO	-11.4776
▁Ru	-11.4777
AV	-11.4779
▁proposes	-11.478
BS	-11.478
▁bending	-11.4781
▁favourable	-11.4783
▁Improvement	-11.4784
Es	-11.4784
6;	-11.4785
▁Xenopus	-11.4785
her	-11.4785
▁4.7	-11.4792
▁Special	-11.4792
▁Unfortunately	-11.4793
ids	-11.4797
▁taxonomic	-11.4804
▁histories	-11.4805
▁5.2	-11.4807
▁organelles	-11.4807
▁basement	-11.4808
net	-11.481
▁dodecyl	-11.4811
▁cardiomyocytes	-11.4813
▁fractionation	-11.4813
▁artifacts	-11.4814
angle	-11.4817
▁simplex	-11.4818
▁accelerate	-11.4819
▁camera	-11.4822
▁microspheres	-11.4826
▁anthropometric	-11.4831
▁eu	-11.4832
▁modifying	-11.4832
▁aetiology	-11.4834
vivo	-11.4835
▁Electro	-11.4836
peak	-11.4837
LO	-11.4843
VS	-11.4848
=4	-11.4848
▁hydroxy	-11.485
▁allergens	-11.4851
▁26%	-11.4852
▁elusive	-11.4854
▁investigates	-11.4857
▁compensatory	-11.486
▁biphasic	-11.486
▁nocturnal	-11.4862
▁stopped	-11.4863
terminus	-11.4863
▁duplex	-11.4864
▁accompanying	-11.4873
▁weaker	-11.4874
▁protecting	-11.4877
▁terminus	-11.4877
EE	-11.4883
▁proliferating	-11.4884
▁Sweden	-11.4885
▁Ha	-11.4889
mann	-11.4889
▁Ta	-11.4892
▁Mexico	-11.4894
▁MK	-11.4894
▁horn	-11.4896
▁opioids	-11.4899
▁indoor	-11.49
▁operator	-11.4901
▁intakes	-11.4904
well	-11.4904
▁heavily	-11.4906
▁Project	-11.4906
▁signatures	-11.4908
▁keep	-11.4908
alkyl	-11.4909
EV	-11.4914
▁Trials	-11.4915
ular	-11.4916
7;	-11.4917
-23	-11.4918
▁MO	-11.4919
▁style	-11.4919
▁initiatives	-11.4921
]).	-11.4922
▁comprise	-11.4924
Ns	-11.4924
ster	-11.4927
graphy	-11.4928
gated	-11.493
▁obstetric	-11.4937
▁update	-11.4938
traumatic	-11.4939
ug	-11.4943
expressed	-11.4943
(2)-	-11.4944
▁preeclampsia	-11.4944
▁transiently	-11.4947
▁VT	-11.4949
▁geriatric	-11.4949
ms	-11.4951
polymerase	-11.4952
▁adiponectin	-11.4952
class	-11.4954
▁elegans	-11.4955
4�	-11.4955
▁PN	-11.4955
▁10(6)	-11.4955
kb	-11.4958
seq	-11.4959
adrenoceptor	-11.496
▁caution	-11.4962
▁corresponds	-11.4962
▁acceptability	-11.4964
▁analogous	-11.4964
▁OSA	-11.4966
▁ageing	-11.4968
▁collecting	-11.4968
▁bath	-11.4969
▁macroscopic	-11.4969
▁farm	-11.4969
▁oxytocin	-11.4969
let	-11.4972
▁thermodynamic	-11.4975
89	-11.4976
▁classify	-11.4976
▁warm	-11.4978
▁28%	-11.4978
tomy	-11.4979
▁medullary	-11.498
▁game	-11.4982
08	-11.4982
▁RBC	-11.4983
CAD	-11.4984
head	-11.4984
temperature	-11.4984
IE	-11.4985
therapeutic	-11.4986
▁arousal	-11.4988
▁102	-11.4989
▁cleaved	-11.499
ible	-11.4996
analyses	-11.4996
▁Act	-11.5002
MN	-11.5002
ries	-11.5003
▁hypoglycemia	-11.5004
▁cultivars	-11.5005
ice	-11.5006
")	-11.501
▁patho	-11.5011
▁ALL	-11.5011
▁automatically	-11.5012
▁ECM	-11.5013
▁performances	-11.5014
lar	-11.5014
▁catalysis	-11.5015
▁simplified	-11.5016
▁potentiation	-11.5019
▁sand	-11.5021
OCT	-11.5022
EEG	-11.5024
▁retain	-11.5026
▁preferential	-11.5028
2.7	-11.5032
▁helped	-11.5032
▁cholecystectomy	-11.5033
▁Tyr	-11.5035
▁additionally	-11.5035
hand	-11.504
oriented	-11.504
▁inheritance	-11.5042
Ac	-11.5043
▁endothelin	-11.5043
dihydro	-11.5044
▁anomaly	-11.5045
▁narrative	-11.5048
▁transported	-11.5048
▁Da	-11.505
▁adopt	-11.505
HV	-11.5052
▁gonadotropin	-11.5054
work	-11.5054
▁begin	-11.5056
▁arrhythmia	-11.5056
segment	-11.5057
▁formulated	-11.5058
▁ha	-11.5058
4]	-11.5061
▁aerosol	-11.5062
▁microtubules	-11.5069
▁statin	-11.5069
▁house	-11.5072
▁-2	-11.5073
▁vena	-11.5077
▁discrepancy	-11.5078
▁approximate	-11.5079
▁ortho	-11.5079
▁catalyzed	-11.508
▁1,000	-11.5081
▁leaving	-11.5086
▁reciprocal	-11.5088
▁germline	-11.5088
genesis	-11.509
▁eosinophils	-11.5093
▁hypertrophic	-11.5096
▁came	-11.5096
▁Down	-11.5099
▁offering	-11.51
▁grew	-11.5104
▁consumer	-11.5105
▁mitigate	-11.5106
▁pay	-11.5108
▁instance	-11.5108
▁blast	-11.5109
▁individualized	-11.511
atus	-11.5111
▁irrigation	-11.5113
▁Km	-11.5116
▁modulus	-11.5119
some	-11.512
▁collective	-11.5121
ACE	-11.5124
▁(0.2	-11.5125
▁gastro	-11.5125
▁adenine	-11.5125
management	-11.5126
▁nov	-11.5126
▁38%	-11.5126
▁MTT	-11.513
▁approximation	-11.5131
▁transgene	-11.5131
mi	-11.5132
▁satellite	-11.5136
▁Emergency	-11.5136
▁informative	-11.5138
▁anaemia	-11.5139
▁SG	-11.5142
▁CXCR	-11.5143
Ni	-11.5145
▁donation	-11.5147
▁Histological	-11.5149
▁Ar	-11.5155
▁intravascular	-11.5155
-29	-11.5156
▁sulphate	-11.5156
▁FDG	-11.5157
▁loops	-11.5157
▁haemorrhage	-11.5157
▁interfaces	-11.5159
▁Anxiety	-11.5159
▁0.10	-11.516
▁endocarditis	-11.516
▁farms	-11.5162
▁st	-11.5162
▁reactor	-11.5162
▁PCOS	-11.5163
▁fluorescein	-11.5163
▁neuropathic	-11.5164
▁Pulmonary	-11.5166
existing	-11.5167
▁monolayers	-11.5167
pine	-11.5168
▁transferrin	-11.5169
▁schemes	-11.517
▁river	-11.5171
▁Instead	-11.5172
▁contractility	-11.5172
▁closer	-11.5175
▁preserve	-11.5175
549	-11.5175
▁Imaging	-11.5175
▁exercises	-11.5177
▁mal	-11.5178
▁entropy	-11.518
logic	-11.5182
▁expectancy	-11.5183
▁granulocyte	-11.5184
operated	-11.5184
▁histidine	-11.5186
▁fructose	-11.5187
▁Pediatric	-11.5188
▁Helicobacter	-11.5193
▁raises	-11.5195
▁deeper	-11.5196
▁name	-11.5196
epi	-11.5197
▁pertussis	-11.5197
▁Hispanic	-11.5198
6�	-11.5198
port	-11.5198
▁nickel	-11.5199
▁colonoscopy	-11.5199
▁PDE	-11.5201
▁percentile	-11.5201
▁package	-11.5202
ECs	-11.5205
▁67%	-11.5205
▁vegetables	-11.5205
MIC	-11.5208
DT	-11.5209
▁readmission	-11.5212
▁bulb	-11.5214
▁desire	-11.5216
▁hematological	-11.5217
▁1986	-11.5223
ee	-11.5224
▁literacy	-11.5226
FF	-11.5227
▁opposed	-11.5229
▁VTE	-11.523
▁atmosphere	-11.5231
SN	-11.5231
para	-11.5233
ud	-11.5233
▁titration	-11.5234
▁EB	-11.5235
▁splice	-11.5238
▁u	-11.5239
▁theoretically	-11.5245
▁thalamus	-11.5245
▁DP	-11.5246
▁robustness	-11.5246
▁infancy	-11.5247
▁collapse	-11.5248
▁83%	-11.5249
articular	-11.5249
▁career	-11.5251
▁AKI	-11.5252
▁DD	-11.5252
▁tick	-11.5253
▁MIC	-11.5253
▁1/2	-11.5254
▁RCC	-11.5254
▁isometric	-11.5255
Ga	-11.5257
▁exploited	-11.5258
▁acceptor	-11.5258
▁radiologic	-11.5258
▁92%	-11.5259
4.4	-11.5259
▁36%	-11.526
▁adducts	-11.5264
▁GD	-11.5264
▁cytogenetic	-11.5265
10)	-11.5266
▁2�	-11.5266
▁chick	-11.5268
Barr	-11.5271
ual	-11.5271
ART	-11.5272
oung	-11.5273
▁dyspnea	-11.5273
▁sec	-11.5273
▁SK	-11.5274
▁CAM	-11.5277
(-1).	-11.5279
TD	-11.5279
oxide	-11.5281
sk	-11.5282
▁export	-11.5282
▁perturbation	-11.5283
▁5.3	-11.5288
▁antipsychotic	-11.529
▁Individuals	-11.5292
1.2	-11.5293
▁recommendation	-11.5294
▁tomato	-11.5296
▁seedlings	-11.5297
▁Regard	-11.5297
▁GST	-11.5297
▁documents	-11.5299
molecule	-11.5299
▁prey	-11.53
second	-11.5301
▁attained	-11.5304
▁adipocytes	-11.5305
▁cooperative	-11.5307
▁NPC	-11.5307
▁mediastinal	-11.531
▁Activation	-11.5313
▁ataxia	-11.5313
▁chlorophyll	-11.5313
fixed	-11.5313
▁silico	-11.5316
▁charts	-11.5317
▁ozone	-11.5319
▁weaning	-11.5324
▁excluding	-11.5331
▁Objective	-11.5333
▁GPs	-11.5335
qui	-11.5335
▁impair	-11.5335
subunit	-11.5336
▁32%	-11.5337
▁sensation	-11.5338
American	-11.5339
trophic	-11.5341
▁Cx	-11.5343
corrected	-11.5345
▁custom	-11.5346
▁103	-11.5347
▁disk	-11.5348
▁fill	-11.5348
▁Photo	-11.535
▁propranolol	-11.535
Ts	-11.5352
▁choose	-11.5352
▁glioblastoma	-11.5353
▁Identification	-11.5355
▁carboxyl	-11.5361
▁Sensitivity	-11.5361
▁phenol	-11.5361
▁reality	-11.5362
▁replicated	-11.5365
2(	-11.5366
▁explaining	-11.5373
▁antidepressants	-11.538
-3,	-11.5382
5;	-11.5384
▁neutropenia	-11.5385
▁paralysis	-11.5385
▁laminin	-11.5387
▁testes	-11.5387
▁allo	-11.5395
2.1	-11.5397
▁discontinued	-11.5398
▁navigation	-11.54
COVID	-11.5401
▁muscarinic	-11.5401
▁endurance	-11.5404
▁Cognitive	-11.5409
▁(0.3	-11.5411
3]	-11.5411
▁personalized	-11.5412
lipid	-11.5414
▁wood	-11.5415
▁Lo	-11.5417
▁homogeneity	-11.5421
▁agencies	-11.5421
▁kit	-11.5422
▁cholangio	-11.5424
▁combines	-11.5424
GE	-11.5425
▁apolipoprotein	-11.5427
▁alternate	-11.5429
dia	-11.543
▁proline	-11.5432
▁housing	-11.5434
▁haemoglobin	-11.5437
pressure	-11.5441
VE	-11.5442
▁Gal	-11.5443
▁faced	-11.5444
▁specialty	-11.5444
▁dealing	-11.5447
▁disadvantages	-11.5448
▁consciousness	-11.5448
▁88%	-11.5451
▁twins	-11.5456
▁allelic	-11.5458
▁mucus	-11.5458
▁osteosarcoma	-11.5464
▁thinking	-11.5465
▁13-	-11.5469
▁freedom	-11.5471
▁crest	-11.5472
VP	-11.5479
▁CBF	-11.5484
▁outlined	-11.5484
9;	-11.5485
▁radiography	-11.5485
▁blunt	-11.5488
▁vasculitis	-11.5489
▁caregiver	-11.5489
ov	-11.5492
▁BCG	-11.5493
▁800	-11.5494
▁sterile	-11.5498
▁Systematic	-11.5501
▁42%	-11.5502
▁31,	-11.5504
membrane	-11.5504
VT	-11.5505
▁prostheses	-11.5507
▁norms	-11.5507
cl	-11.5507
▁condensation	-11.5509
▁insomnia	-11.551
▁scalp	-11.5513
▁Eighteen	-11.5513
▁exclusive	-11.5514
▁droplets	-11.5519
▁101	-11.5519
▁tele	-11.5523
▁screws	-11.5525
▁hypothyroidism	-11.5526
▁29%	-11.5526
py	-11.5526
▁innervation	-11.5527
▁triggering	-11.5527
▁ultimate	-11.5528
▁seminal	-11.5529
▁ward	-11.5533
▁Combined	-11.5535
▁trap	-11.5536
▁laparoscopy	-11.5538
▁City	-11.5538
▁attracted	-11.5539
▁ischaemia	-11.5541
▁Public	-11.5541
GL	-11.5544
tes	-11.5549
▁dyes	-11.5551
▁suppresses	-11.5556
▁cured	-11.5558
▁capacities	-11.5559
▁radiologists	-11.5562
▁endocytosis	-11.5563
▁dimethyl	-11.5565
<0.001),	-11.5565
▁carbonyl	-11.5566
▁108	-11.5567
hi	-11.5577
▁(23	-11.558
▁supine	-11.5581
▁searching	-11.5581
▁coat	-11.5582
UA	-11.5587
▁microRNA	-11.5587
nic	-11.559
▁amniotic	-11.5595
▁dominance	-11.5597
▁suggestions	-11.5598
▁delivering	-11.5599
▁clean	-11.5605
=0	-11.5608
▁intramuscular	-11.5609
Th	-11.561
▁tetracycline	-11.561
▁8,	-11.5614
▁pass	-11.5615
▁Endo	-11.5616
▁CAP	-11.562
▁moisture	-11.5621
▁draw	-11.5622
▁.05).	-11.563
▁0.99	-11.5634
▁Dutch	-11.5637
▁regulations	-11.5641
aemia	-11.5642
▁labelling	-11.5645
▁cornea	-11.5645
ard	-11.5647
▁determines	-11.5649
-450	-11.5651
▁overt	-11.5653
8;	-11.5653
▁lab	-11.5653
▁Effects	-11.5656
▁San	-11.5656
▁LM	-11.5656
GD	-11.5657
▁44%	-11.5663
lytic	-11.5664
▁98%	-11.5665
▁5.8	-11.5666
▁sensitized	-11.5666
▁96%	-11.5666
▁3�	-11.5666
air	-11.5668
▁biofilms	-11.5669
▁ND	-11.567
▁centrifugation	-11.5674
▁treadmill	-11.5674
fen	-11.5675
▁portions	-11.5676
▁microns	-11.5676
▁filament	-11.5676
▁figures	-11.5677
▁practitioner	-11.568
▁prescriptions	-11.5683
▁originated	-11.5685
▁inexpensive	-11.5687
▁procedural	-11.5688
▁table	-11.5688
▁86%	-11.5688
organ	-11.5689
VD	-11.569
▁columns	-11.5692
0),	-11.5697
ides	-11.5698
▁Level	-11.5702
▁End	-11.5702
der	-11.5704
▁Mortality	-11.5705
▁pathogenicity	-11.571
box	-11.5712
▁Electron	-11.5717
▁APC	-11.5718
▁wire	-11.5722
▁freeze	-11.5722
▁1:	-11.5726
ck	-11.5727
▁orthopedic	-11.5727
AMP	-11.5727
▁midline	-11.5728
▁Once	-11.5728
-22	-11.5728
▁driver	-11.5731
▁hole	-11.5732
▁measurable	-11.5734
▁PLA	-11.5735
▁island	-11.5736
mus	-11.5737
▁periphery	-11.574
▁IGFBP	-11.5745
▁replicate	-11.5746
▁rights	-11.575
▁neurones	-11.5752
▁distinction	-11.5757
▁formalin	-11.5758
▁thromboembolism	-11.5759
▁Mediterranean	-11.5762
▁tonic	-11.5762
3.3	-11.5764
▁agree	-11.5765
catenin	-11.5765
serine	-11.5767
▁osteogenic	-11.5768
▁coordinate	-11.5771
▁charges	-11.5771
are	-11.5771
▁ICP	-11.5771
▁dispersed	-11.5772
▁internalization	-11.5775
▁NCT	-11.5775
▁everyday	-11.5779
▁branching	-11.5779
liquid	-11.5781
exchange	-11.5786
▁Classification	-11.5787
ogen	-11.5791
▁IVF	-11.5794
▁intoxication	-11.5797
▁Bax	-11.5799
4.7	-11.5799
▁coherent	-11.58
▁LN	-11.5801
toxin	-11.5803
▁ovaries	-11.5803
enzyme	-11.5805
▁inpatients	-11.5806
▁Pd	-11.5806
▁Water	-11.581
▁proteomics	-11.581
rt	-11.5811
▁Medline	-11.5812
▁ileum	-11.5812
▁tibia	-11.5814
▁.05)	-11.5815
▁undetectable	-11.5816
▁arteriovenous	-11.582
▁assignment	-11.582
▁flies	-11.5822
▁leukemic	-11.5823
▁multiplex	-11.5823
▁GFP	-11.5825
pass	-11.5827
mes	-11.5828
▁0.98	-11.583
▁gliomas	-11.583
▁sorting	-11.5832
▁stenting	-11.5832
BG	-11.5832
RO	-11.5832
▁me	-11.5836
▁freely	-11.5838
▁Tc	-11.5839
▁isomers	-11.584
▁recycling	-11.5841
▁LDH	-11.5843
▁5.6	-11.5844
▁analytic	-11.5844
▁tamoxifen	-11.5848
▁hemodynamics	-11.5848
▁versatile	-11.585
▁unfavorable	-11.5851
TEM	-11.5851
▁anisotropy	-11.5854
insulin	-11.5856
76	-11.5856
bl	-11.5859
▁enteric	-11.5859
inter	-11.5859
▁shortened	-11.5859
▁operate	-11.5864
▁Pearson	-11.5865
▁positioned	-11.5866
IG	-11.5866
ALL	-11.5866
130	-11.5866
▁4.9	-11.5868
▁febrile	-11.587
▁province	-11.5871
2.9	-11.5875
▁tensile	-11.5876
ep	-11.5879
▁Screening	-11.588
▁GBM	-11.588
meter	-11.5881
▁cGMP	-11.5881
▁aspartate	-11.5882
▁Flow	-11.5882
ening	-11.5886
▁superfamily	-11.5886
Os	-11.5887
intervention	-11.5887
▁Education	-11.5888
▁stated	-11.5889
▁ovulation	-11.589
▁rh	-11.589
proliferative	-11.5892
▁PDGF	-11.5894
inducing	-11.5896
▁hematologic	-11.5897
▁serving	-11.5898
▁earliest	-11.5898
▁nested	-11.5898
▁raising	-11.59
▁rhythms	-11.59
▁sun	-11.5903
▁comfort	-11.5904
▁uni	-11.5904
▁foam	-11.5906
6.8	-11.5907
▁microbes	-11.5907
▁disordered	-11.5911
▁Subsequent	-11.5911
apoptotic	-11.5911
▁transducer	-11.5914
▁Register	-11.5914
▁HDAC	-11.5914
▁Swedish	-11.5914
▁residential	-11.5916
▁niche	-11.5916
▁Levels	-11.5917
▁43%	-11.5917
▁131	-11.5917
▁http	-11.5921
OD	-11.5922
▁sacrificed	-11.5925
amp	-11.5925
▁exacerbation	-11.5929
▁sport	-11.5929
ola	-11.593
▁Structural	-11.593
8�	-11.593
▁VIP	-11.5931
▁volumetric	-11.5931
▁genotyped	-11.5933
▁swimming	-11.5934
release	-11.5937
▁AG	-11.5939
▁acutely	-11.5939
▁hCG	-11.594
▁RNase	-11.5942
▁cow	-11.5947
ke	-11.5947
7.5	-11.5947
sen	-11.5948
▁ACS	-11.5948
▁associate	-11.595
▁2015.	-11.595
▁thymic	-11.595
▁adenylate	-11.595
▁micelles	-11.5952
▁progeny	-11.5953
▁leukaemia	-11.5956
▁amorphous	-11.5956
▁potentiated	-11.5956
▁2017.	-11.5957
▁polarized	-11.5957
▁lactic	-11.5958
▁caring	-11.5958
▁waters	-11.5959
▁uncontrolled	-11.596
▁prostatectomy	-11.596
▁diarrhoea	-11.5961
▁mix	-11.5964
▁Relative	-11.5965
▁cytoskeletal	-11.5965
▁desorption	-11.5966
transcriptional	-11.5967
▁render	-11.5967
▁Animals	-11.5967
▁tomographic	-11.597
▁steel	-11.5974
▁prolapse	-11.5975
▁dielectric	-11.5976
▁subtilis	-11.5977
▁serotypes	-11.598
▁characters	-11.5982
▁NAFLD	-11.5982
▁instrumentation	-11.5982
▁cervix	-11.5982
6.0	-11.5984
▁posture	-11.5988
viral	-11.5989
▁suppressing	-11.5992
▁93%	-11.5992
▁Groups	-11.5992
▁pacemaker	-11.5994
▁dispersal	-11.5994
▁31%	-11.5995
▁94%	-11.5998
▁conformations	-11.5998
▁RC	-11.5999
ey	-11.5999
retest	-11.6
▁Demographic	-11.6003
▁morphogenesis	-11.6006
fe	-11.6007
tous	-11.6008
acetic	-11.6009
▁bicarbonate	-11.6012
▁5.4	-11.6014
▁reactivation	-11.6016
▁Leu	-11.6016
mTc	-11.6018
▁poses	-11.6019
electron	-11.602
▁compositions	-11.6023
▁Part	-11.6023
PLA	-11.6026
NG	-11.6028
2.0	-11.6029
▁troponin	-11.603
syn	-11.6031
LG	-11.6031
▁British	-11.6034
▁ensuring	-11.6036
▁RD	-11.6037
▁restrictions	-11.6037
ver	-11.6038
▁subarachnoid	-11.604
▁2-3	-11.6044
rum	-11.6044
▁adversely	-11.6045
▁repeatedly	-11.6048
▁TD	-11.6049
RB	-11.6051
▁sedimentation	-11.6051
▁suited	-11.6054
▁KO	-11.6054
▁proto	-11.6055
▁board	-11.6055
graphic	-11.6056
standing	-11.6057
▁efficiencies	-11.6059
lan	-11.6059
▁uric	-11.606
▁AB	-11.6061
▁erosion	-11.6062
▁humidity	-11.6063
mia	-11.6064
GFP	-11.6069
▁Breast	-11.6072
▁protects	-11.6076
▁editing	-11.6079
component	-11.6079
▁alleviate	-11.6081
▁Nursing	-11.6082
wise	-11.6085
▁welfare	-11.6085
▁CDK	-11.6086
▁tremor	-11.6088
▁Red	-11.6089
▁missense	-11.6092
phenol	-11.6092
▁WM	-11.6093
▁tracts	-11.6094
kappa	-11.61
propyl	-11.6105
IB	-11.6105
▁2016.	-11.6106
▁asthmatic	-11.6108
▁advancement	-11.6108
transplantation	-11.611
▁hepato	-11.6113
▁ketamine	-11.6117
▁Centre	-11.6118
▁primates	-11.6118
▁CN	-11.6118
▁disturbed	-11.6119
▁possessed	-11.6121
▁endometrium	-11.6121
▁FS	-11.6124
▁illumination	-11.6126
severe	-11.6127
▁ethics	-11.6128
▁profession	-11.6128
▁quick	-11.6129
Bs	-11.6129
enriched	-11.613
CVD	-11.6133
▁Female	-11.6134
▁arises	-11.6137
▁sustain	-11.6137
▁detergent	-11.6138
▁tears	-11.6139
▁(28	-11.614
▁extends	-11.614
SK	-11.6141
▁NB	-11.6142
▁trigeminal	-11.6147
▁Vitamin	-11.6147
▁implying	-11.6147
10,	-11.6148
▁37%	-11.6149
▁affinities	-11.615
▁cava	-11.6153
culture	-11.6154
CMV	-11.6158
▁music	-11.6159
▁Form	-11.6161
▁freshwater	-11.6161
▁hydroxylase	-11.6163
▁proteolysis	-11.6163
94	-11.6164
▁lists	-11.6167
▁depleted	-11.6168
▁thaliana	-11.617
▁distortion	-11.617
▁newer	-11.6171
cation	-11.6173
▁Maternal	-11.6173
▁undergoes	-11.618
▁gathered	-11.6181
▁relapsed	-11.6188
▁sarcoidosis	-11.619
▁IF	-11.6193
▁nationwide	-11.6193
8.9%	-11.6193
▁ducts	-11.6195
▁56%	-11.6198
vir	-11.6198
▁synchronous	-11.6199
▁dysphagia	-11.6199
▁congestive	-11.6203
▁mask	-11.6203
▁ACh	-11.6208
▁reoperation	-11.6208
TX	-11.6208
assembly	-11.6209
ned	-11.621
case	-11.621
▁anions	-11.6211
▁trabecular	-11.6213
▁interfacial	-11.6213
neu	-11.6215
▁RAS	-11.6216
ei	-11.6217
▁dependency	-11.6219
▁transferase	-11.622
6.5	-11.622
▁colloidal	-11.6221
bed	-11.6225
▁Lactobacillus	-11.6226
▁111	-11.6226
▁99%	-11.6228
▁geo	-11.6232
▁mineralization	-11.6237
VAS	-11.624
▁explains	-11.6242
▁combat	-11.6245
1.0	-11.6246
▁Genome	-11.6247
▁aligned	-11.6247
NMR	-11.6248
bromo	-11.6249
▁hydrogels	-11.625
▁vibrational	-11.6252
7.8	-11.6254
▁immunologic	-11.6254
we	-11.6255
exposure	-11.6256
▁Mr	-11.6257
▁FDA	-11.6258
▁ureteral	-11.6262
▁phorbol	-11.6262
▁notable	-11.6262
▁Activity	-11.6262
▁exo	-11.6263
▁amide	-11.6263
▁effluent	-11.6263
▁ciprofloxacin	-11.6265
▁Pretreatment	-11.6267
right	-11.6267
plate	-11.6268
DG	-11.6268
rus	-11.6271
▁straight	-11.6272
▁emerge	-11.6275
▁tilt	-11.6277
▁substitute	-11.6279
▁leave	-11.628
Formula	-11.6281
▁brachial	-11.6282
▁vacuum	-11.6283
▁inguinal	-11.6285
▁clarified	-11.6285
▁Therapy	-11.6289
acyl	-11.629
000	-11.629
▁82%	-11.6294
▁adaptations	-11.6295
▁Rab	-11.6295
5.5	-11.6295
▁von	-11.6295
▁cotton	-11.6295
▁Kingdom	-11.6295
▁postprandial	-11.6296
▁capillaries	-11.6298
▁continuity	-11.6301
▁spray	-11.6305
▁suspensions	-11.6306
ano	-11.6308
▁vitreous	-11.6309
0%)	-11.6309
▁1-2	-11.631
▁diploid	-11.6311
▁daytime	-11.6312
▁jaw	-11.6313
▁varieties	-11.6315
▁radiology	-11.6316
aspartate	-11.6319
our	-11.632
1.4	-11.6321
▁hemo	-11.6321
▁EDTA	-11.6321
5.8	-11.6321
▁coastal	-11.6323
ven	-11.6325
▁fossa	-11.6325
esteem	-11.6329
ay	-11.6329
▁Sa	-11.6329
▁Lower	-11.633
▁telomere	-11.6333
▁mitosis	-11.6335
▁strictly	-11.6337
▁107	-11.6342
▁annually	-11.6342
▁nodular	-11.6343
▁carbohydrates	-11.6344
▁feelings	-11.6344
▁Hypo	-11.6349
▁iNOS	-11.6349
▁97%	-11.6351
▁carries	-11.6352
mid	-11.6355
▁occasions	-11.6356
▁Asp	-11.6361
▁opportunistic	-11.6362
transplant	-11.6363
▁diseased	-11.6363
▁analytes	-11.6366
▁MTX	-11.6366
▁adherent	-11.6369
etalloproteinase	-11.637
▁exit	-11.6372
▁displaced	-11.6373
▁religious	-11.6373
▁cast	-11.6375
▁packing	-11.6377
▁sugars	-11.6378
▁km	-11.6378
▁psychopathology	-11.6379
flu	-11.6379
▁canonical	-11.6381
▁123	-11.6381
▁Real	-11.6382
bu	-11.6386
▁cathepsin	-11.6387
ON	-11.6392
activation	-11.6397
▁oils	-11.6399
▁Go	-11.6399
EG	-11.64
pp	-11.6401
▁People	-11.6402
▁lysozyme	-11.6403
terdisciplinary	-11.6403
ho	-11.6403
▁inference	-11.6404
▁paternal	-11.6405
▁nail	-11.6406
▁Sleep	-11.6409
ventricular	-11.6411
▁Val	-11.6414
▁constipation	-11.6416
▁veterinary	-11.6416
▁enrollment	-11.6416
▁train	-11.6416
VL	-11.6418
▁71%	-11.6418
▁workload	-11.6419
▁diaphragm	-11.6419
rid	-11.642
inducible	-11.6424
▁molars	-11.6428
▁gastrectomy	-11.6428
▁PAI	-11.6429
▁marital	-11.643
patients	-11.643
▁somatosensory	-11.6432
▁confounders	-11.6433
keto	-11.6435
▁Performance	-11.6436
▁predisposition	-11.6436
child	-11.6437
cyclo	-11.6438
▁peritonitis	-11.6442
aryl	-11.6444
qu	-11.6445
▁Pa	-11.6445
▁8.5	-11.6446
▁LF	-11.6448
oplasty	-11.6449
▁PAF	-11.6449
▁Significantly	-11.645
▁permitted	-11.6454
iness	-11.6456
vol	-11.6459
▁tuning	-11.646
▁EE	-11.6462
developmental	-11.6463
▁litter	-11.6465
▁uncomplicated	-11.647
mono	-11.647
▁displaying	-11.6472
▁Possible	-11.6473
▁measles	-11.6473
▁virulent	-11.6473
ato	-11.6473
dihydroxy	-11.6476
▁encapsulated	-11.6476
▁angiogenic	-11.6478
▁telomerase	-11.648
ix	-11.6482
▁covalently	-11.6484
▁RPE	-11.6485
▁silent	-11.6487
▁109	-11.6487
▁(35	-11.6489
▁physiologically	-11.6489
▁Syndrome	-11.649
▁NADH	-11.6491
▁conception	-11.6492
plasty	-11.6494
▁coded	-11.6495
▁occipital	-11.6495
DO	-11.6495
ou	-11.6495
cAMP	-11.6498
▁benzene	-11.65
▁nose	-11.6504
▁noticed	-11.6508
▁HepG	-11.6511
▁employ	-11.6511
▁Rapid	-11.6511
▁sonography	-11.6513
ura	-11.6515
▁sciatic	-11.6517
▁par	-11.6517
▁setup	-11.6518
ency	-11.6519
▁El	-11.6519
▁VIII	-11.6523
▁Vascular	-11.6524
lac	-11.6524
▁PAR	-11.6525
TO	-11.6527
▁aiming	-11.6527
▁suitability	-11.6527
▁refined	-11.653
pl	-11.653
▁suspended	-11.6531
▁parenting	-11.6532
▁DT	-11.6533
▁app	-11.6535
▁0.95	-11.6535
▁calculating	-11.6548
-1),	-11.6549
▁clade	-11.6549
▁client	-11.655
▁antisera	-11.6551
▁Col	-11.6552
▁0.09	-11.6554
▁gentamicin	-11.6554
▁nanotubes	-11.6554
▁5.1	-11.6556
▁microRNAs	-11.6562
activating	-11.6564
▁undergraduate	-11.6564
▁minimizing	-11.6565
▁twelve	-11.6565
▁mammography	-11.6565
▁stably	-11.6565
▁aluminum	-11.6566
▁CAT	-11.6566
▁prime	-11.6569
▁atrium	-11.6572
labelled	-11.6572
▁0.12	-11.6573
Au	-11.6575
0.00	-11.6575
▁belongs	-11.6577
Fs	-11.6581
des	-11.6582
▁cultivated	-11.6582
▁uniformly	-11.6584
▁FF	-11.6585
▁Whole	-11.6586
▁Key	-11.6586
▁peers	-11.6586
4.9	-11.6587
▁playing	-11.6587
=5	-11.6589
NL	-11.6593
▁mutational	-11.6593
▁neurotrophic	-11.6593
▁homolog	-11.6593
▁Abeta	-11.6594
▁ideas	-11.6595
▁Cal	-11.6598
▁thio	-11.6598
▁78%	-11.66
9.2%	-11.6601
▁AN	-11.6605
▁Sea	-11.6606
▁mTOR	-11.6607
▁capital	-11.661
person	-11.6612
▁utero	-11.6614
ge	-11.6616
(0)	-11.6616
▁adjust	-11.6616
▁fair	-11.6617
▁lacks	-11.6621
ROC	-11.6622
7.6	-11.6622
relative	-11.6622
▁stereo	-11.6622
▁buccal	-11.6623
▁expect	-11.6624
This	-11.6628
▁HBsAg	-11.663
▁medically	-11.6631
▁trainees	-11.6632
▁CHO	-11.6633
▁multifactorial	-11.6633
undifferentiated	-11.6633
▁115	-11.6634
▁files	-11.6636
cellular	-11.6638
▁fibro	-11.6641
▁PTEN	-11.6642
▁cutting	-11.6643
▁parenchymal	-11.6643
▁cofactor	-11.6644
sion	-11.6645
acquired	-11.665
▁BT	-11.6651
polar	-11.6653
SW	-11.6653
▁declines	-11.6653
▁consolidation	-11.6654
▁Or	-11.6656
centric	-11.6656
▁choroidal	-11.6656
▁repertoire	-11.6657
▁pups	-11.6657
▁AL	-11.6659
▁intramolecular	-11.6662
▁monomers	-11.6663
8(+)	-11.6663
▁suppressive	-11.6664
▁pneumococcal	-11.6664
▁naive	-11.6664
▁OT	-11.6664
▁2014.	-11.6666
1.5%	-11.667
▁Ka	-11.667
▁lacked	-11.6671
2.2	-11.6673
▁1-3	-11.6674
til	-11.6675
▁2018.	-11.6677
ze	-11.6678
metry	-11.668
ping	-11.6681
pyridine	-11.6684
Ad	-11.6684
▁moieties	-11.6685
WS	-11.6685
▁continuum	-11.6687
▁obviously	-11.6687
▁consuming	-11.6689
▁1970	-11.669
▁perturbations	-11.669
degree	-11.6691
nus	-11.6692
▁spores	-11.6694
ham	-11.6696
▁conjugation	-11.6698
▁compares	-11.6698
▁rigorous	-11.6705
KD	-11.6706
]),	-11.6709
▁symptomatology	-11.6709
▁rDNA	-11.6709
▁73%	-11.671
▁RH	-11.6711
▁ORF	-11.6712
▁hexa	-11.6713
▁lay	-11.6713
▁starvation	-11.6716
▁48%	-11.6716
pathy	-11.6718
▁lifespan	-11.672
▁infrastructure	-11.6723
CRC	-11.6724
▁34%	-11.6726
▁emphasizes	-11.6727
(3	-11.673
▁stressed	-11.6731
6.7	-11.6731
▁PPI	-11.6731
▁SES	-11.6734
▁solved	-11.6739
▁discrepancies	-11.674
▁poultry	-11.674
▁Chem	-11.6741
▁carbonate	-11.6744
BN	-11.6744
▁acetic	-11.6746
species	-11.6748
▁concentrate	-11.6749
ualitative	-11.6754
administration	-11.676
▁biodiversity	-11.6761
+,	-11.6766
▁rheumatic	-11.6766
▁des	-11.6768
▁Linear	-11.6768
▁statins	-11.6769
▁biases	-11.677
▁58%	-11.6771
▁controversy	-11.6771
▁monocytogenes	-11.6771
▁cup	-11.6773
▁acetylation	-11.6773
▁restenosis	-11.6779
▁BL	-11.6779
▁spiral	-11.6779
7.0	-11.6779
▁inverted	-11.6783
=3	-11.6787
row	-11.6788
▁Binding	-11.6789
▁Dr	-11.6791
▁legs	-11.6791
▁prolongation	-11.6793
▁87%	-11.6794
Mg	-11.6794
▁hydrocarbons	-11.6795
▁easier	-11.6796
▁mosaic	-11.6799
▁groundwater	-11.68
▁Man	-11.6801
▁AAA	-11.6805
az	-11.6805
▁Fisher	-11.6806
▁MCP	-11.6806
▁5)	-11.6806
▁entering	-11.6807
▁plain	-11.6809
▁Unit	-11.681
▁feet	-11.681
▁plot	-11.681
2.8	-11.6811
▁thrombotic	-11.6811
ius	-11.6812
▁cigarettes	-11.6812
▁naloxone	-11.6813
▁2020.	-11.6814
▁Sequence	-11.6816
▁convergence	-11.6817
▁descriptions	-11.6818
oxa	-11.6819
atory	-11.682
▁stabilize	-11.6821
<0.01)	-11.6821
▁Mann	-11.6822
▁grid	-11.6823
▁optimizing	-11.6824
▁7.2	-11.6824
▁63%	-11.6824
-200	-11.6826
▁cyclooxygenase	-11.6827
embedded	-11.6828
lt	-11.683
kin	-11.6831
eurodegeneration	-11.6831
▁neglect	-11.6831
▁predisposing	-11.6834
▁240	-11.6836
▁Stress	-11.6838
▁LI	-11.6839
▁scanner	-11.6839
▁multimodal	-11.6845
parathyroidism	-11.6845
▁MSC	-11.6845
▁ventilatory	-11.6846
▁smears	-11.6849
▁PCA	-11.6851
▁passed	-11.6852
▁mucin	-11.6855
val	-11.6856
house	-11.6856
▁dextran	-11.6859
rat	-11.6861
+-	-11.6864
▁neighboring	-11.6864
▁rapamycin	-11.6866
▁5.7	-11.6868
▁electrons	-11.6869
▁convenience	-11.6869
VR	-11.687
▁Application	-11.687
▁PMN	-11.6872
▁note	-11.6873
▁dimers	-11.6873
▁washing	-11.6876
disciplinary	-11.6879
-6,	-11.6881
eb	-11.6882
▁seasons	-11.689
▁oncogene	-11.6891
5.6	-11.6893
su	-11.6893
▁orthopaedic	-11.6894
▁knees	-11.6895
▁AE	-11.6897
▁bundles	-11.6898
Li	-11.6901
▁ingredients	-11.6901
▁journal	-11.6902
▁broth	-11.6902
▁worked	-11.6904
ibility	-11.6907
▁subcutaneously	-11.6907
▁manganese	-11.6908
▁visually	-11.6909
▁Not	-11.6909
scan	-11.6911
▁forty	-11.6912
▁rectum	-11.6913
▁GFR	-11.6914
▁autonomy	-11.6915
▁coronal	-11.6916
DCs	-11.6919
▁0.02).	-11.6924
▁encounter	-11.6926
▁64%	-11.6931
▁locomotion	-11.6933
▁68%	-11.6936
▁frames	-11.6938
dy	-11.6939
▁penile	-11.694
▁anionic	-11.6942
Lys	-11.6943
▁TIMP	-11.6944
▁outgrowth	-11.6945
▁shaped	-11.6948
▁references	-11.6951
▁therapists	-11.6954
▁disclosed	-11.6956
6.2	-11.6957
▁hamsters	-11.6959
▁tablet	-11.696
ligand	-11.696
▁calmodulin	-11.6961
abdominal	-11.6961
▁unexplained	-11.6961
▁inferred	-11.6961
▁evolve	-11.6962
▁ecology	-11.6963
▁mosquitoes	-11.6963
▁posttraumatic	-11.6965
biocompatibility	-11.6965
stimulation	-11.6965
▁van	-11.6965
AO	-11.6966
▁Ce	-11.6967
▁regimes	-11.6967
▁residency	-11.6968
▁52%	-11.6971
dependently	-11.6971
NSCLC	-11.6971
▁MDD	-11.6972
▁ROC	-11.6972
▁chloroplast	-11.6975
▁Systemic	-11.6975
▁messages	-11.6975
▁10(-6)	-11.6976
plane	-11.6977
▁duodenum	-11.6981
▁6�	-11.6982
Tyr	-11.6985
▁holds	-11.6989
▁fundus	-11.6995
▁ulnar	-11.6997
size	-11.6998
▁BRAF	-11.6999
▁salinity	-11.7
▁senior	-11.7002
▁57%	-11.7004
▁Population	-11.7004
▁gases	-11.7008
▁discharges	-11.7008
▁feces	-11.7011
NN	-11.7012
ever	-11.7013
▁RB	-11.7013
▁Han	-11.7014
cross	-11.7014
▁eukaryotes	-11.7015
▁quantitation	-11.7015
▁programming	-11.7016
▁grass	-11.7017
▁abstinence	-11.7018
▁0.96	-11.7018
▁adrenergic	-11.7019
area	-11.7019
▁Iso	-11.702
▁attenuate	-11.702
▁CsA	-11.702
▁FN	-11.7022
▁contour	-11.7025
▁inositol	-11.7028
800	-11.7028
▁CPR	-11.7032
▁wine	-11.7034
▁72%	-11.7035
phy	-11.7035
▁CHF	-11.7036
▁dendrites	-11.7036
Akt	-11.7036
immuno	-11.7037
▁compensate	-11.7039
He	-11.7041
▁Cy	-11.7043
180	-11.7047
histochemically	-11.7048
▁horse	-11.705
▁oxy	-11.705
▁longevity	-11.705
▁strengthen	-11.7051
▁probabilities	-11.7054
▁10�	-11.7057
RN	-11.7058
▁emergent	-11.7058
8.5	-11.7058
▁Gly	-11.7061
ach	-11.7062
▁6.3	-11.7063
▁attendance	-11.7063
▁0.97	-11.7065
▁supplied	-11.7068
▁master	-11.7068
▁neutralization	-11.7069
▁0.85	-11.707
▁iodide	-11.707
▁8.0	-11.707
▁prion	-11.7071
▁anomalous	-11.7072
▁84%	-11.7073
▁faecal	-11.7075
▁neovascular	-11.7076
resolved	-11.7077
ru	-11.7077
8.0	-11.7077
cre	-11.708
Cas	-11.7081
▁elemental	-11.7082
ari	-11.7082
▁41%	-11.7083
50)	-11.7084
tocompatibility	-11.7084
▁nematode	-11.7085
ich	-11.7086
din	-11.7087
ulin	-11.7088
▁PCa	-11.7089
date	-11.709
▁Nurses	-11.709
▁morphometric	-11.7093
00	-11.7093
▁FH	-11.7094
▁arranged	-11.7094
UT	-11.7095
▁viewing	-11.7096
▁parotid	-11.7097
▁Overexpression	-11.7098
Ig	-11.7099
▁Province	-11.7101
SU	-11.7101
▁BR	-11.7102
▁Chemical	-11.7103
▁54%	-11.7104
▁Leishmania	-11.7104
▁secrete	-11.7105
ographic	-11.7106
▁consultations	-11.7106
carbon	-11.7107
▁fentanyl	-11.7108
▁veterans	-11.7109
▁price	-11.711
▁independence	-11.7112
cytochemistry	-11.7112
▁TEM	-11.7112
▁recognised	-11.7113
▁quenching	-11.7114
8.8	-11.7114
▁puberty	-11.7115
▁lipo	-11.7115
14)	-11.7116
▁CRISPR	-11.7119
col	-11.712
▁partition	-11.7122
SNPs	-11.7123
▁electromagnetic	-11.7123
ert	-11.7123
▁prompted	-11.7124
▁releasing	-11.7126
▁episodic	-11.7126
OB	-11.7126
pol	-11.7128
▁Sh	-11.713
yn	-11.7131
▁MetS	-11.7133
ense	-11.7136
versus	-11.7137
▁thousand	-11.7139
▁IN	-11.7141
(2),	-11.7142
▁multifunctional	-11.7143
▁thigh	-11.7144
DB	-11.7144
▁pluripotent	-11.7144
▁proteome	-11.7147
▁wind	-11.7149
▁burns	-11.7149
▁companies	-11.7151
▁nasopharyngeal	-11.7151
contrast	-11.7154
▁5�	-11.7156
▁DN	-11.7158
▁Loss	-11.7159
aldehyde	-11.716
▁nucleoside	-11.7161
doped	-11.7162
▁cytomegalovirus	-11.7162
▁osteoblasts	-11.7164
▁cope	-11.7167
▁maturity	-11.7168
Hodgkin	-11.7169
infrared	-11.7169
▁bactericidal	-11.7169
▁bacteremia	-11.7173
-1.0	-11.7173
▁hyperactivity	-11.7176
hosphodiesterase	-11.7176
▁transportation	-11.7177
▁62%	-11.7177
▁penetrating	-11.7178
▁places	-11.7178
▁(26	-11.7178
▁robot	-11.7179
▁Preliminary	-11.718
va	-11.7181
▁plantar	-11.7181
▁exceed	-11.7182
7.4	-11.7182
FV	-11.7183
feeding	-11.7183
AML	-11.7184
cent	-11.7188
▁polyacrylamide	-11.719
gi	-11.719
arterial	-11.719
▁Lewis	-11.7191
uric	-11.7192
shell	-11.7193
▁regards	-11.7195
▁6.8	-11.7195
▁biogenesis	-11.7196
▁specificities	-11.7196
▁77%	-11.7197
▁Student	-11.72
▁mirror	-11.72
▁visualize	-11.72
▁extensor	-11.7201
▁HTLV	-11.7204
▁Ho	-11.7205
RL	-11.7205
▁arthroscopic	-11.7205
▁fairly	-11.7206
▁verapamil	-11.7206
▁FI	-11.7206
RH	-11.7207
▁91%	-11.7208
▁couple	-11.7209
▁antiplatelet	-11.7211
▁Trial	-11.7214
ging	-11.7215
▁turned	-11.7217
▁CCL	-11.722
▁Seventeen	-11.722
EGFR	-11.7222
▁doing	-11.7222
▁46%	-11.7223
▁helping	-11.7223
▁methylated	-11.7225
▁belief	-11.7225
▁Skin	-11.7226
▁IE	-11.7227
▁hydrocephalus	-11.7227
▁hyperthermia	-11.7231
▁dying	-11.7231
▁reviewers	-11.7231
ICC	-11.7234
▁moved	-11.7234
▁RSV	-11.7236
▁leaders	-11.7236
HBV	-11.7236
▁graph	-11.7236
ren	-11.7237
▁DI	-11.7237
▁unprecedented	-11.7238
▁extracorporeal	-11.7239
▁14-	-11.724
▁harvest	-11.724
▁76%	-11.7241
▁dropped	-11.7246
▁SLC	-11.7247
▁0.13	-11.7252
spectrum	-11.7252
restricted	-11.7252
▁ciliary	-11.7252
▁lived	-11.7253
▁keeping	-11.7254
▁cyclosporine	-11.7256
▁glucocorticoids	-11.7258
++	-11.7259
▁bioinformatics	-11.726
▁pars	-11.7265
▁curcumin	-11.7266
▁immunogenicity	-11.7268
▁Nano	-11.7269
ek	-11.727
rac	-11.727
▁Potential	-11.7271
▁aesthetic	-11.7271
tan	-11.7273
▁PMA	-11.7273
▁scattered	-11.7274
ock	-11.7275
7�	-11.7275
▁neurotoxicity	-11.7276
▁odor	-11.7276
TN	-11.7277
▁ventilator	-11.7278
▁facilitation	-11.7279
▁ileal	-11.7279
▁increment	-11.7279
▁adenocarcinomas	-11.728
▁KCl	-11.7281
▁spanning	-11.7282
▁GLUT	-11.7283
TGF	-11.7284
8.4%	-11.7285
benzene	-11.7285
▁kill	-11.7286
▁53%	-11.7286
▁reconstructions	-11.7286
av	-11.7286
▁homocysteine	-11.7287
▁mechanically	-11.7288
vasoconstriction	-11.7288
▁willingness	-11.729
atum	-11.7292
▁explanations	-11.7292
NOS	-11.7296
▁infective	-11.7296
6.9	-11.7304
▁SBP	-11.7304
▁sister	-11.7305
▁comprehension	-11.7306
gr	-11.7306
▁Infection	-11.7308
▁Hodgkin	-11.7308
▁spacer	-11.7309
WM	-11.731
=2	-11.7311
▁jaundice	-11.7312
▁unsuccessful	-11.7312
▁writing	-11.7315
▁Clostridium	-11.7315
▁offset	-11.7315
▁oligosaccharide	-11.7318
▁quantifying	-11.7318
▁Longitudinal	-11.7319
blood	-11.7319
▁Conventional	-11.732
▁0.94	-11.732
▁Nigeria	-11.7322
▁reconstituted	-11.7323
▁112	-11.7323
processing	-11.7324
▁amines	-11.7324
▁beef	-11.7324
mon	-11.7324
▁elevations	-11.7325
▁facing	-11.7326
▁oedema	-11.7326
▁beams	-11.7327
▁Mini	-11.7329
3.5	-11.733
▁alternating	-11.733
▁stretching	-11.7334
▁packed	-11.7335
▁beats	-11.7339
▁Computed	-11.7345
lowering	-11.7346
cap	-11.7347
▁considers	-11.7347
sex	-11.7348
▁47%	-11.735
▁costly	-11.7351
▁consequent	-11.7352
▁Peri	-11.7353
▁NIH	-11.7354
▁echocardiograph	-11.7357
▁genomics	-11.7358
▁ticks	-11.7358
▁ghrelin	-11.7359
▁ch	-11.7359
ometer	-11.736
562	-11.736
tra	-11.7362
▁(32	-11.7362
▁determinations	-11.7362
▁extrinsic	-11.7363
▁66%	-11.7366
▁2013.	-11.7366
▁baby	-11.7367
0.05).	-11.7368
▁islands	-11.737
▁eco	-11.7373
▁NAC	-11.738
▁postmortem	-11.738
mit	-11.738
transfer	-11.7381
▁ancient	-11.7383
▁(50%)	-11.7384
▁eastern	-11.7385
▁supernatants	-11.7387
▁war	-11.7392
▁glycolysis	-11.7393
▁psychiatry	-11.7396
▁ASA	-11.7397
MHC	-11.7399
6.4	-11.74
▁huge	-11.7401
promoting	-11.7401
▁mining	-11.7408
▁microfluidic	-11.7408
▁ICAM	-11.7409
▁exceeding	-11.7409
▁MH	-11.741
WI	-11.7412
GSH	-11.7413
traperitoneally	-11.7417
▁sorption	-11.7418
▁savings	-11.7418
▁atropine	-11.742
▁GLP	-11.7421
▁VE	-11.7422
▁versions	-11.7423
▁alloy	-11.7425
▁burnout	-11.7427
▁melting	-11.743
▁CXCL	-11.7433
▁cage	-11.7439
▁Services	-11.744
▁nosocomial	-11.7441
▁ruptured	-11.7444
▁Response	-11.7446
�1	-11.7446
▁lies	-11.7449
tor	-11.7451
▁(1.5	-11.7451
▁11-	-11.7453
▁grafted	-11.7454
Di	-11.7455
-70	-11.7456
▁Dietary	-11.746
▁apex	-11.746
▁fifty	-11.7463
▁adduct	-11.7464
5.7	-11.7466
▁disposition	-11.7466
▁emptying	-11.7467
▁big	-11.7469
4.6	-11.7469
5.9	-11.7472
▁predominance	-11.7475
BH	-11.7475
core	-11.7477
▁feel	-11.7478
und	-11.748
▁EU	-11.7482
▁delineate	-11.7482
▁Mal	-11.7483
▁meals	-11.7483
wk	-11.7484
▁Ge	-11.7484
morph	-11.7485
▁terrestrial	-11.7486
▁goats	-11.7487
▁predispose	-11.7489
▁dried	-11.7489
ack	-11.749
UR	-11.7491
▁pitch	-11.7491
▁spatiotemporal	-11.7493
▁chemokines	-11.7494
▁droplet	-11.7496
▁flavonoids	-11.7498
▁purity	-11.7501
▁Ga	-11.7503
Val	-11.7503
▁bariatric	-11.7504
▁arrival	-11.7505
▁gastritis	-11.7505
▁supervision	-11.7505
▁135	-11.7505
▁Epi	-11.7505
sum	-11.751
▁preserving	-11.751
▁dehydration	-11.7512
▁rough	-11.7513
0;	-11.7515
▁stabilizing	-11.7517
▁elution	-11.7517
▁thymidine	-11.752
photon	-11.7521
▁symmetric	-11.7522
pA	-11.7522
▁fibrils	-11.7522
oxidation	-11.7524
▁ears	-11.7524
OG	-11.7526
Vs	-11.7529
▁potato	-11.7529
▁hematocrit	-11.753
▁VR	-11.7532
MAPK	-11.7532
▁vagal	-11.7533
▁lasted	-11.7533
<0.05	-11.7534
STAT	-11.7534
6.6	-11.7536
▁tubule	-11.7538
onic	-11.7538
▁radiofrequency	-11.7539
▁Tg	-11.7539
sin	-11.7541
4.8	-11.7543
▁ALT	-11.7545
▁productive	-11.7547
▁Alcohol	-11.7549
fish	-11.7549
▁0.88	-11.7549
▁sitting	-11.755
▁normative	-11.7554
▁2012.	-11.7554
▁catalyzes	-11.7555
-90	-11.7557
▁interested	-11.7557
▁Univariate	-11.7557
▁refer	-11.7558
▁richness	-11.7559
▁disciplines	-11.7559
▁DH	-11.756
▁slice	-11.7561
-99	-11.7562
▁mutual	-11.7562
▁dynamical	-11.7563
▁ribosome	-11.7565
model	-11.7566
cytes	-11.7566
▁checklist	-11.7569
▁17-	-11.7571
▁HM	-11.7571
▁devastating	-11.7572
▁occult	-11.7572
▁16-	-11.7573
▁inspection	-11.7576
▁sentinel	-11.758
▁Phylogenetic	-11.7584
▁stressful	-11.7585
wt	-11.7586
▁89%	-11.7586
▁lambs	-11.759
dimer	-11.759
aza	-11.7592
▁assume	-11.7593
▁Mono	-11.7594
▁besides	-11.7596
▁brush	-11.7596
▁Altogether	-11.7599
▁papillomavirus	-11.7601
7.7	-11.7602
▁livestock	-11.7603
▁invited	-11.7603
▁favour	-11.7604
grams	-11.7606
▁probing	-11.7606
phospho	-11.7607
▁Complications	-11.7609
50%	-11.7612
▁penta	-11.7616
9.5	-11.7618
▁retinoic	-11.7622
▁pharmacodynamic	-11.7625
5.4	-11.7627
▁epithelia	-11.7627
▁nanostructures	-11.7627
▁osteoblast	-11.763
apo	-11.7632
▁paucity	-11.7633
▁Republic	-11.7633
ably	-11.7633
▁fluxes	-11.7634
diastolic	-11.7635
▁Obesity	-11.7637
▁Coronary	-11.7637
using	-11.7638
▁cavities	-11.764
▁Physicians	-11.7642
Cys	-11.7644
▁Peripheral	-11.7644
▁guiding	-11.7644
▁CABG	-11.7644
ACS	-11.7645
▁Elevated	-11.7648
▁0.11	-11.7648
▁effectors	-11.7649
MH	-11.765
phen	-11.7651
HLA	-11.7654
▁swallowing	-11.7654
▁forebrain	-11.7656
▁cingulate	-11.7656
▁melanogaster	-11.7659
▁TPA	-11.766
▁durations	-11.7661
▁1.00	-11.7662
▁Common	-11.7663
▁(31	-11.7664
6.3	-11.7665
▁ADC	-11.7667
▁covers	-11.7667
92	-11.7668
lum	-11.7671
1.9	-11.7672
▁cobalt	-11.7674
▁transfusions	-11.7674
▁oligodendrocyte	-11.7675
▁oblique	-11.7675
▁nifedipine	-11.7676
▁0.80	-11.7678
▁OM	-11.7678
▁tried	-11.7678
▁hypothetical	-11.7678
▁lymphoblastic	-11.7679
▁discover	-11.7681
TV	-11.7681
▁sounds	-11.7685
▁Pacific	-11.7686
▁max	-11.7687
▁(27	-11.7688
▁prerequisite	-11.7689
PSA	-11.769
▁diabetics	-11.7691
Ch	-11.7692
course	-11.7696
▁catecholamine	-11.7696
▁neurogenesis	-11.7698
▁CDC	-11.7699
▁advantageous	-11.7699
▁hepatectomy	-11.77
rays	-11.7702
genome	-11.7704
ris	-11.7704
▁delirium	-11.7705
▁hemolytic	-11.7705
▁legislation	-11.7705
▁harboring	-11.7708
▁PHA	-11.7709
▁frameworks	-11.7711
▁encouraged	-11.7711
▁vulgaris	-11.7713
▁Eu	-11.7714
▁vehicles	-11.7714
encoded	-11.7716
▁competent	-11.772
▁strips	-11.7722
▁6.7	-11.7723
9�	-11.7723
▁cirrhotic	-11.7723
FD	-11.7724
▁DF	-11.7724
▁Implications	-11.7724
VF	-11.7729
▁scavenging	-11.7731
▁guanine	-11.7732
▁branched	-11.7734
▁39%	-11.7734
▁cortico	-11.7734
▁ob	-11.7735
implant	-11.7735
▁AVP	-11.7739
▁CAR	-11.7739
▁resembling	-11.774
▁CRT	-11.774
transformed	-11.774
statin	-11.7742
plastic	-11.7743
▁Po	-11.7744
▁abiotic	-11.7744
▁MUC	-11.7746
▁HIF	-11.7747
▁adjustments	-11.775
▁170	-11.775
▁pores	-11.7751
▁trapping	-11.7751
▁immunoblotting	-11.7751
▁6.4	-11.7753
▁(2-	-11.7753
▁2019.	-11.7754
▁discriminant	-11.7754
▁PFS	-11.7755
▁bilaterally	-11.7758
AH	-11.7761
▁embryogenesis	-11.7763
BMD	-11.7764
▁HG	-11.7766
▁homogenates	-11.7766
▁topography	-11.7767
section	-11.7767
▁imposed	-11.7768
tom	-11.7769
4.5	-11.7769
▁1984	-11.7772
▁subscales	-11.7772
▁mimicking	-11.7773
▁sensitivities	-11.7774
▁VC	-11.7774
▁CIN	-11.7775
ect	-11.7776
ble	-11.7776
-35	-11.7778
clamp	-11.7779
Asp	-11.778
▁fails	-11.778
▁113	-11.7781
▁karyotype	-11.7781
▁pathophysiolog	-11.7781
▁flanking	-11.7781
benzyl	-11.7782
▁KD	-11.7783
▁0.90	-11.7786
▁SCD	-11.7786
▁equine	-11.7787
3.8%	-11.7788
▁tensor	-11.7788
▁74%	-11.7789
▁listed	-11.7789
▁Prevalence	-11.779
▁(20%)	-11.7792
regulatory	-11.7792
▁GT	-11.7792
▁opinions	-11.7793
▁quit	-11.7793
ena	-11.7794
▁vegetable	-11.7797
▁computing	-11.7797
▁gondii	-11.7797
▁topological	-11.7798
moderate	-11.7798
▁angio	-11.7801
▁0.89	-11.7802
▁HU	-11.7806
▁thalamic	-11.7806
▁79%	-11.7806
▁10(-5)	-11.7809
▁transitional	-11.7809
001	-11.7811
▁primate	-11.7812
▁lobes	-11.7815
▁Urinary	-11.7817
-34	-11.7823
▁116	-11.7824
▁128	-11.7826
▁repaired	-11.7826
Gal	-11.7826
▁filtering	-11.7826
▁intolerance	-11.7826
▁pericardial	-11.7828
▁grains	-11.783
helix	-11.7833
▁intracerebral	-11.7834
▁12.5	-11.7836
converting	-11.7836
▁EV	-11.7838
▁118	-11.7842
erg	-11.7844
▁grey	-11.7844
inate	-11.7846
rine	-11.7847
▁deleted	-11.7847
▁dihydro	-11.7847
▁spectrometer	-11.7848
▁Ontario	-11.7851
▁constrained	-11.7853
1.3%	-11.7854
▁Stroke	-11.7855
▁choosing	-11.7856
▁0.92	-11.7858
▁tubulin	-11.7858
▁pin	-11.7861
▁SPSS	-11.7861
/2	-11.7862
hu	-11.7863
▁primitive	-11.7863
▁readers	-11.7865
▁FE	-11.7866
▁myelo	-11.7867
▁diurnal	-11.7871
▁impossible	-11.7875
▁galactose	-11.7877
▁Mexican	-11.7879
AOR	-11.7879
Hz	-11.788
Gs	-11.788
▁Cases	-11.7881
▁VF	-11.7881
▁manipulated	-11.7885
▁innovation	-11.7886
▁retroperitoneal	-11.7887
▁advent	-11.7887
▁Almost	-11.7887
▁union	-11.7887
2+,	-11.7888
%)	-11.7889
HM	-11.7891
▁EL	-11.7893
TBI	-11.7893
▁sh	-11.7895
▁(29	-11.7895
▁shoot	-11.7895
▁sulfide	-11.7895
logists	-11.7897
▁sensorimotor	-11.7898
▁observer	-11.7899
▁(1.0	-11.7902
nar	-11.7903
UTR	-11.7904
▁ABC	-11.7905
▁0.86	-11.7905
▁repetition	-11.7906
7.9%	-11.7908
▁0.1%	-11.7909
▁gating	-11.7912
8.7	-11.7913
peri	-11.7913
echo	-11.7914
▁0.83	-11.7914
▁photosynthesis	-11.7914
▁grip	-11.7915
▁.01	-11.7915
phi	-11.7917
ara	-11.7919
social	-11.792
olytic	-11.792
▁modulators	-11.7921
▁0.93	-11.7922
▁twofold	-11.7927
▁129	-11.793
▁ball	-11.793
▁erythroid	-11.7931
3.0	-11.7932
▁Lu	-11.7932
▁scoliosis	-11.7933
▁counselling	-11.7933
▁Healthcare	-11.7935
▁import	-11.7936
▁recognizing	-11.7937
▁Comparative	-11.7937
▁Med	-11.7939
▁receptive	-11.794
▁monomeric	-11.794
▁message	-11.7941
▁0.76	-11.7942
▁difficile	-11.7945
▁Mi	-11.7946
▁sheet	-11.7948
▁investment	-11.7949
immunomodulatory	-11.7951
liter	-11.7951
▁workforce	-11.7954
▁collections	-11.7955
▁topology	-11.7957
▁menopause	-11.7958
distinguishable	-11.7958
▁Par	-11.796
-19)	-11.7961
▁touch	-11.7962
ker	-11.7962
6.1	-11.7962
hy	-11.7964
▁Environmental	-11.7964
▁sickle	-11.7965
▁integrative	-11.7965
▁0.87	-11.7966
▁dosages	-11.7969
▁debridement	-11.7969
▁plausible	-11.7972
▁uninfected	-11.7974
hyper	-11.7976
▁allosteric	-11.7976
ole	-11.7977
▁uveitis	-11.798
-1.5	-11.7981
▁dentate	-11.7984
▁nitro	-11.7984
▁flu	-11.7986
berg	-11.7989
▁Left	-11.7992
▁localize	-11.7995
▁ophthalmic	-11.7995
-43	-11.7996
▁Vi	-11.7998
▁dentists	-11.7998
▁answered	-11.8001
treat	-11.8001
ators	-11.8003
▁0.84	-11.8004
▁adiposity	-11.8004
▁defence	-11.8004
▁flows	-11.8004
▁biophysical	-11.8004
-(2-	-11.8006
plasma	-11.8007
▁Correlation	-11.8008
▁hallmark	-11.8012
omerulonephritis	-11.8016
▁glandular	-11.8017
▁ro	-11.8017
training	-11.8019
iodo	-11.802
▁NG	-11.8022
▁RM	-11.8023
EX	-11.8024
▁MPa	-11.8025
▁colleagues	-11.8025
▁throughput	-11.8027
▁0.35	-11.8028
▁tinnitus	-11.8028
▁sophisticated	-11.8028
tu	-11.8028
▁0.16	-11.803
▁gaze	-11.8032
▁0.82	-11.8033
▁Eastern	-11.8033
graft	-11.8034
▁fathers	-11.8035
▁Poisson	-11.8036
▁intent	-11.8036
▁trachea	-11.804
operatively	-11.8042
▁Gd	-11.8043
▁copolymer	-11.8044
VC	-11.8045
▁unless	-11.8046
▁lignin	-11.8046
▁Diseases	-11.8047
▁PTC	-11.8048
▁BCL	-11.8049
▁sick	-11.8049
▁crossing	-11.805
▁81%	-11.8052
▁subpopulation	-11.8053
seeking	-11.8053
▁drying	-11.8055
sample	-11.8056
0.7	-11.8056
▁linker	-11.8058
▁granulosa	-11.806
▁stand	-11.8063
▁GG	-11.8065
BO	-11.8065
▁Free	-11.8071
▁reform	-11.8071
▁imperative	-11.8071
▁AH	-11.8071
▁Open	-11.8071
▁mimics	-11.8073
▁0.91	-11.8074
▁hydrocarbon	-11.8078
▁Adverse	-11.8083
▁trophic	-11.8083
▁Saudi	-11.8084
strain	-11.8086
▁SAM	-11.8087
▁subcortical	-11.8087
▁psychotherapy	-11.8087
▁intrahepatic	-11.8088
▁Mass	-11.809
7.1	-11.8091
105	-11.8091
trioventricular	-11.8092
▁114	-11.8093
▁flowering	-11.8094
▁Safety	-11.8095
▁crown	-11.8097
▁Bacterial	-11.81
/5	-11.81
▁etiological	-11.8101
▁1983	-11.8102
▁capsaicin	-11.8103
▁concurrently	-11.8103
▁JAK	-11.8104
▁multifocal	-11.8104
PCI	-11.8104
axial	-11.8104
▁projected	-11.8104
▁Therapeutic	-11.8107
▁inbred	-11.8109
▁cruciate	-11.8111
▁bifurcation	-11.8111
▁9.5	-11.8112
▁emulsion	-11.8113
BSA	-11.8114
▁verification	-11.8115
▁pole	-11.8115
▁thousands	-11.8116
▁advancing	-11.8121
▁That	-11.8121
▁ascorbic	-11.8122
▁osteoclast	-11.8122
▁permeation	-11.8123
ory	-11.8126
xi	-11.8127
▁south	-11.8128
▁rotavirus	-11.8129
▁FB	-11.8131
ser	-11.8136
▁PARP	-11.8136
2.4	-11.8139
ocytes	-11.8139
▁pharmacology	-11.8142
▁predictable	-11.8144
▁schedules	-11.8145
7.2	-11.8147
▁drift	-11.8147
▁lac	-11.815
diphenyl	-11.815
▁afferents	-11.8151
▁Src	-11.8151
▁excreted	-11.8151
mat	-11.8155
Mn	-11.8155
▁Surface	-11.8159
▁carcinogenic	-11.8162
▁pen	-11.8162
▁deployment	-11.8162
▁anastomotic	-11.8162
▁ACC	-11.8163
▁reorganization	-11.8164
▁acetabular	-11.8164
▁constituent	-11.8164
▁Pan	-11.8165
▁father	-11.8167
▁VL	-11.8167
▁biased	-11.8168
9.7%	-11.8168
▁tap	-11.8172
▁Latin	-11.8175
▁vesicular	-11.8178
▁Successful	-11.8179
▁feeling	-11.8182
ult	-11.8182
fil	-11.8183
▁otitis	-11.8183
▁shortly	-11.8183
▁reconstructive	-11.8183
▁sheets	-11.8183
demographic	-11.8184
vo	-11.8184
▁perfect	-11.8185
▁proteinase	-11.8185
▁methicillin	-11.8191
NAME	-11.8192
▁PDT	-11.8195
▁nationally	-11.8195
▁BCR	-11.8197
▁piglets	-11.8197
▁wedge	-11.8201
▁iterative	-11.8203
-4,	-11.8206
▁instructions	-11.8206
▁frailty	-11.8207
▁converting	-11.8207
male	-11.8207
▁6.6	-11.8208
▁perceive	-11.8211
▁detoxification	-11.8211
▁peaked	-11.8211
▁gall	-11.8212
▁Symptoms	-11.8214
▁30�	-11.8214
▁underestimated	-11.8214
ale	-11.8215
▁2010.	-11.8216
diol	-11.8217
▁4�	-11.8217
▁0.78	-11.8219
▁latex	-11.822
SLE	-11.822
7.7%	-11.8222
▁yolk	-11.8223
bar	-11.8223
▁Plant	-11.8226
▁(0.8	-11.823
▁rotator	-11.823
▁sequentially	-11.8233
▁decarboxylase	-11.8235
▁authorities	-11.8236
mb	-11.8236
▁laws	-11.8236
EGF	-11.8241
▁broncho	-11.8243
▁functionalized	-11.8245
NU	-11.8246
aortic	-11.8247
▁deliveries	-11.8248
▁belonged	-11.8249
ometric	-11.8249
▁pesticide	-11.825
ran	-11.8252
omycin	-11.8252
▁triphosphate	-11.8254
▁wing	-11.8254
ida	-11.8254
depleted	-11.8254
▁60-	-11.8257
▁thematic	-11.826
▁0.14	-11.8261
▁neighborhood	-11.8261
-33	-11.8261
▁originate	-11.8264
▁6.2	-11.8265
4.2	-11.8268
▁lose	-11.8268
spect	-11.8269
3.6	-11.8269
▁OCD	-11.8269
consuming	-11.8271
▁arbitrary	-11.8271
▁eliminating	-11.8271
▁auxin	-11.8271
(-2)	-11.8275
▁PCP	-11.8276
za	-11.8276
www	-11.8279
▁Detection	-11.828
▁GABAergic	-11.828
toxicity	-11.828
▁constituted	-11.8283
▁phone	-11.8283
▁(45	-11.8284
nano	-11.8284
▁MDS	-11.8284
▁5.9	-11.8286
▁resemble	-11.8294
▁.01)	-11.8294
▁straightforward	-11.8296
▁disaster	-11.8297
run	-11.8297
▁surprisingly	-11.8298
▁Ne	-11.8299
7.9	-11.8304
0.1	-11.8306
▁orthogonal	-11.8307
9.6	-11.8312
▁Until	-11.8312
rel	-11.8313
ALS	-11.8314
glycoprotein	-11.8317
▁Auto	-11.8319
female	-11.832
▁equipped	-11.8321
▁globulin	-11.8323
stress	-11.8325
han	-11.8326
▁cited	-11.8326
▁dot	-11.8327
▁partitioning	-11.833
8.4	-11.8331
▁eosinophilic	-11.8331
▁Klebsiella	-11.8332
▁(10%)	-11.8333
alis	-11.8335
▁deformities	-11.8336
static	-11.8337
▁MCI	-11.8337
▁surrounded	-11.8338
▁patterning	-11.834
▁61%	-11.8342
▁keratin	-11.8343
▁Gaussian	-11.8345
▁reasoning	-11.8346
▁Thr	-11.8348
▁implicit	-11.8348
8.9	-11.8348
rh	-11.8348
▁anorexia	-11.8353
2.4%	-11.8353
▁Hu	-11.8354
▁claim	-11.8357
more	-11.8358
▁6.1	-11.836
angiotensin	-11.8361
▁flora	-11.8362
nu	-11.8363
thymidine	-11.8364
▁SMA	-11.8364
▁eosinophil	-11.8365
▁dissected	-11.8367
ians	-11.8368
▁Measurement	-11.8368
▁0.18	-11.8368
omas	-11.8369
▁casein	-11.8372
trial	-11.8372
▁neuropeptide	-11.8373
▁evaluates	-11.8374
▁tricuspid	-11.8381
▁augment	-11.8382
Ti	-11.8383
▁possessing	-11.8383
▁Disorders	-11.8384
polymer	-11.8385
▁shedding	-11.8386
▁degrade	-11.8388
▁steatosis	-11.839
▁3-4	-11.8393
1.2%	-11.8394
▁ON	-11.8395
(�)	-11.8396
DV	-11.8396
▁atresia	-11.8398
▁lytic	-11.8399
1]	-11.8401
▁infiltrating	-11.8402
▁(2.5	-11.8408
▁standardization	-11.8411
▁Rb	-11.8412
▁Respiratory	-11.8414
▁capsular	-11.8414
ull	-11.8418
▁neglected	-11.8422
▁relates	-11.8423
que	-11.8424
▁governing	-11.8427
eth	-11.8429
cultural	-11.843
▁smallest	-11.8433
3.8	-11.8433
▁brachytherapy	-11.8435
▁distraction	-11.8435
<0.0001)	-11.8437
▁ligase	-11.8438
8.6	-11.8439
pituitary	-11.8439
▁resections	-11.8444
▁ascertained	-11.8444
SAR	-11.8446
▁Danish	-11.8447
▁0.65	-11.845
▁coatings	-11.845
▁HGF	-11.8451
▁utilizes	-11.8454
▁1982	-11.8455
▁tacrolimus	-11.8455
▁mega	-11.8459
▁30,	-11.8461
2.3	-11.8462
▁friends	-11.8464
▁vegetative	-11.8464
▁sciences	-11.8465
▁polysaccharides	-11.8467
▁infectivity	-11.8468
▁EMT	-11.8468
▁checked	-11.8469
▁190	-11.847
▁Nutrition	-11.8472
▁dimensional	-11.8472
▁serous	-11.8473
▁methylene	-11.8474
▁occupation	-11.8476
DN	-11.8478
▁basolateral	-11.848
▁confusion	-11.848
▁0.81	-11.8481
▁prednisone	-11.8484
▁0.72	-11.8485
EI	-11.8488
▁audio	-11.8488
▁amphetamine	-11.849
▁WS	-11.8491
▁Trp	-11.8491
▁insensitive	-11.8492
▁CML	-11.8496
adenosine	-11.8496
▁antagonism	-11.8496
▁County	-11.8497
6]	-11.8499
▁substantia	-11.85
▁Nineteen	-11.8505
▁infrequent	-11.8512
ros	-11.8513
▁0.17	-11.8513
▁vicinity	-11.8513
▁oestrogen	-11.8513
▁autoimmunity	-11.8513
▁ingested	-11.8513
8.2%	-11.8516
▁21-	-11.8517
▁Swiss	-11.8517
▁adjunctive	-11.8518
▁bevacizumab	-11.852
▁2011.	-11.8522
1(	-11.8522
▁IB	-11.8524
otomy	-11.8525
idin	-11.8525
▁warming	-11.8529
▁north	-11.8533
immune	-11.8534
▁dia	-11.8534
types	-11.8534
spin	-11.854
9.7	-11.8541
▁theta	-11.8541
▁directional	-11.8541
▁Cardiovascular	-11.8542
▁conferred	-11.8542
▁0.000	-11.8543
▁69%	-11.8543
▁--	-11.8543
▁0.45	-11.8545
▁seropositive	-11.8545
car	-11.8546
▁pictures	-11.8546
▁metric	-11.8547
▁capsid	-11.8547
▁prednisolone	-11.8549
▁ensemble	-11.855
6.9%	-11.855
▁IBS	-11.8552
▁hips	-11.8553
12)	-11.8553
▁rhesus	-11.8555
▁facile	-11.8555
fluorouracil	-11.8556
▁0.20	-11.8556
▁(25%)	-11.8556
▁operon	-11.8558
6.5%	-11.8558
▁aids	-11.8558
cardiographic	-11.8559
8.8%	-11.8559
▁desensitization	-11.8564
▁bridging	-11.8565
tens	-11.8567
cholesterolemia	-11.8568
▁solving	-11.8568
▁ureter	-11.8568
▁favored	-11.8569
▁Complex	-11.857
▁cor	-11.8571
nal	-11.8572
▁uniquely	-11.8575
left	-11.858
▁Students	-11.8582
globulin	-11.8584
▁priorities	-11.8584
▁worker	-11.8585
▁14,	-11.8585
product	-11.8585
▁confers	-11.8586
▁comparatively	-11.8587
▁pointed	-11.8588
GF	-11.8591
rk	-11.8592
▁le	-11.8593
▁hepatoma	-11.8593
▁transparent	-11.8595
family	-11.8596
▁synchronization	-11.8598
▁fulfilled	-11.8599
CRT	-11.8599
▁consecutively	-11.8601
gal	-11.8601
▁SAH	-11.8602
▁0.70	-11.8602
lu	-11.8603
=1	-11.8605
▁healed	-11.8606
▁creates	-11.8607
▁Effective	-11.8608
▁pertinent	-11.8609
hip	-11.8611
1.6%	-11.8612
hole	-11.8612
▁Maximum	-11.8613
▁LE	-11.8614
▁phi	-11.8614
▁begun	-11.8615
dh	-11.8616
▁nanoscale	-11.8617
▁Controlled	-11.8618
▁antagonistic	-11.8619
▁latencies	-11.8621
▁alginate	-11.8622
ick	-11.8624
▁GVHD	-11.8625
antigen	-11.8626
▁PrP	-11.8626
cu	-11.8628
▁neurogenic	-11.8628
▁0.79	-11.8628
cutaneous	-11.863
ym	-11.863
▁flexor	-11.863
▁gaining	-11.8631
ue	-11.8631
▁interneurons	-11.8631
▁occupied	-11.8633
▁store	-11.8633
▁mastectomy	-11.8636
▁DHA	-11.8636
7.3%	-11.8636
▁Descriptive	-11.8638
▁appetite	-11.8638
7.3	-11.8646
▁Surveillance	-11.8647
▁dyslipidemia	-11.8647
▁AMD	-11.8647
carb	-11.8649
▁amyloidosis	-11.8652
cortical	-11.8652
▁126	-11.8652
Whitney	-11.8655
▁Norway	-11.8655
▁Biol	-11.8656
▁sutures	-11.8656
▁BSA	-11.8658
▁isomer	-11.8659
oside	-11.8661
MU	-11.8663
▁introduces	-11.8665
▁0.77	-11.8666
▁0.03)	-11.8668
ami	-11.8668
complex	-11.8668
▁inspiratory	-11.8669
�=�2	-11.8669
▁mutagenic	-11.867
17)	-11.867
▁transcranial	-11.8672
▁planes	-11.8673
▁port	-11.8673
study	-11.8674
king	-11.8677
▁Good	-11.8678
ki	-11.8679
▁overdose	-11.8679
gl	-11.868
▁arc	-11.8683
ini	-11.8683
▁collision	-11.8685
▁calcitonin	-11.8686
9.8	-11.8686
tyrosine	-11.8687
▁Cdc	-11.8688
▁cytological	-11.8692
▁paradigms	-11.8693
▁7.3	-11.8693
▁impairs	-11.8695
pig	-11.8695
▁BB	-11.8701
▁annotation	-11.8702
▁technically	-11.8704
PKC	-11.8704
▁esterase	-11.8704
▁districts	-11.8704
▁Guidelines	-11.8704
▁BS	-11.8705
▁panic	-11.8705
4.3%	-11.8706
surgery	-11.8707
▁digit	-11.8709
▁Epstein	-11.871
▁(80	-11.871
▁remainder	-11.8711
-0.3	-11.8711
▁ceramic	-11.8713
▁publicly	-11.8713
▁My	-11.8713
▁equi	-11.8714
▁Nuclear	-11.8714
▁0.005)	-11.8715
▁coming	-11.8716
▁0.67	-11.8716
▁comprehensively	-11.8717
▁activators	-11.872
▁thymocytes	-11.872
▁modulator	-11.8721
▁sustainability	-11.8723
▁computation	-11.8724
▁falling	-11.8726
▁statements	-11.8726
▁fistulas	-11.8726
▁(-)-	-11.8726
▁10,000	-11.8732
myo	-11.8733
tolerant	-11.8733
▁1,2-	-11.8735
▁0.74	-11.8739
▁implication	-11.874
▁Older	-11.874
▁MAC	-11.8741
▁restorations	-11.8742
▁Regional	-11.8744
ks	-11.8744
▁rostral	-11.8744
▁intractable	-11.8744
chlor	-11.8746
pump	-11.8747
▁MET	-11.8748
▁clonidine	-11.8748
-0.4	-11.875
▁cal	-11.8752
▁eligibility	-11.8752
▁ulceration	-11.8752
▁0.73	-11.8757
FH	-11.8758
CKD	-11.8759
▁unmet	-11.876
source	-11.876
▁xenografts	-11.8763
▁strategic	-11.8764
▁Schwann	-11.8765
▁Endoscopic	-11.8765
▁BPD	-11.8767
▁Comparisons	-11.8768
shift	-11.8768
▁eIF	-11.8768
▁Be	-11.8769
▁infra	-11.8771
▁ventilated	-11.8772
▁Light	-11.8772
▁barley	-11.8774
▁nigra	-11.8776
▁olive	-11.8776
pyr	-11.8778
1.7%	-11.8778
▁instruction	-11.878
ai	-11.8785
▁microstructure	-11.8785
▁celiac	-11.8786
▁tracing	-11.8786
▁137	-11.8788
▁hydrodynamic	-11.8789
etic	-11.8789
5.3%	-11.879
▁Google	-11.879
▁Regression	-11.8791
▁repressor	-11.8791
▁biotin	-11.8792
dr	-11.8792
▁thoroughly	-11.8797
▁memories	-11.8799
▁Third	-11.88
▁jugular	-11.88
▁erythema	-11.8803
▁rituximab	-11.8803
Tx	-11.8804
▁bcl	-11.8804
▁algae	-11.8805
▁pineal	-11.8805
0.5%	-11.8806
▁compressive	-11.8807
▁manually	-11.8808
▁chemotactic	-11.8808
▁vitamins	-11.8808
1.1%	-11.8811
▁farmers	-11.8811
aging	-11.8812
▁redistribution	-11.8813
▁BE	-11.8816
ination	-11.8817
▁benchmark	-11.8819
9.4	-11.882
▁Late	-11.882
▁poverty	-11.882
▁enormous	-11.8825
▁vimentin	-11.8825
▁elsewhere	-11.8825
▁subacute	-11.8826
▁Interview	-11.8826
early	-11.8826
lysine	-11.8827
▁comes	-11.8828
▁workflow	-11.8828
WHO	-11.8828
▁intermolecular	-11.8831
▁gemcitabine	-11.8833
▁devoid	-11.8834
▁restrictive	-11.8835
▁0.19	-11.8835
▁parametric	-11.884
<0.0001).	-11.8841
▁capsules	-11.8843
▁register	-11.8844
▁iris	-11.8844
-28	-11.8845
▁figure	-11.8846
eo	-11.8848
▁Main	-11.8849
▁notes	-11.885
▁Likewise	-11.885
▁begins	-11.8851
▁anaesthetic	-11.8851
Sp	-11.8851
smokers	-11.8852
5.0	-11.8853
ones	-11.8853
▁freshly	-11.8853
▁Nrf	-11.8854
▁0.50	-11.8858
▁Lp	-11.8859
▁Thailand	-11.8859
▁thromboembolic	-11.8859
▁gastrin	-11.886
umb	-11.886
4.0	-11.8861
▁neutron	-11.8865
▁Dental	-11.8866
▁psychology	-11.8868
▁roughness	-11.8868
8.1%	-11.8869
scopy	-11.8869
▁-3	-11.8872
▁deemed	-11.8872
▁lactose	-11.8872
eno	-11.8872
▁inward	-11.8872
▁theophylline	-11.8874
injection	-11.8875
▁photoreceptor	-11.8875
Cd	-11.8877
▁infer	-11.8877
CHD	-11.8878
▁labels	-11.8879
▁concrete	-11.8885
▁execution	-11.8885
▁Symptom	-11.8886
9.0	-11.8887
�+�	-11.8888
▁51%	-11.8888
ade	-11.8889
▁MEK	-11.889
▁DES	-11.889
▁condom	-11.8891
▁allografts	-11.8891
MSC	-11.8896
neuro	-11.8897
▁Em	-11.8897
▁eNOS	-11.8898
PCA	-11.8898
▁outlines	-11.8901
▁overexpressing	-11.8901
Bu	-11.8903
▁50-	-11.8906
▁mA	-11.8906
▁kHz	-11.8906
▁hollow	-11.8906
illa	-11.8907
6.6%	-11.8909
▁stems	-11.891
▁reimbursement	-11.891
scope	-11.8912
▁appendicitis	-11.8915
▁homologue	-11.8917
▁obstacles	-11.892
cyto	-11.892
azine	-11.892
dominant	-11.8923
▁edges	-11.8923
protective	-11.8927
RG	-11.8928
▁clot	-11.8929
▁BF	-11.8929
▁luteal	-11.893
nor	-11.8931
▁LL	-11.8933
▁schizophrenic	-11.8933
ala	-11.8933
▁imaged	-11.8934
after	-11.8934
5.3	-11.8936
▁migrate	-11.8937
▁isoproterenol	-11.8937
▁Partial	-11.8937
▁Internal	-11.8941
HN	-11.8942
▁liquids	-11.8942
▁eyelid	-11.8943
▁blindness	-11.8946
20)	-11.8947
1-3	-11.8948
▁PRO	-11.8956
▁sixth	-11.8958
▁chicks	-11.8961
▁altitude	-11.8962
▁shaping	-11.8963
▁del	-11.8963
▁parity	-11.8963
▁explicitly	-11.8964
▁RNAi	-11.8965
▁124	-11.8965
▁tends	-11.8966
neuropsychiatric	-11.8967
▁occluded	-11.8967
10-	-11.8969
▁CONCLUSIONS	-11.8973
▁safer	-11.8973
▁insignificant	-11.8973
sterase	-11.8975
▁aggregated	-11.8977
hydro	-11.8979
▁os	-11.898
▁TRAIL	-11.8981
3.4	-11.8982
▁coordinates	-11.8983
▁ewes	-11.8986
▁cleaning	-11.8987
▁hydroxide	-11.8988
▁opened	-11.8989
▁Reduction	-11.8993
▁interpreting	-11.8993
enol	-11.8994
bone	-11.8994
ses	-11.8994
▁acted	-11.8994
RCTs	-11.8995
▁torsion	-11.8995
OF	-11.8996
app	-11.8997
▁erythromycin	-11.8997
▁TRH	-11.8999
▁migratory	-11.9
Thr	-11.9001
▁DO	-11.9001
needle	-11.9002
▁meiotic	-11.9003
▁LOS	-11.9005
ABC	-11.9005
oides	-11.9005
▁ideation	-11.9008
made	-11.9008
ECM	-11.9009
▁chip	-11.9012
▁1.25	-11.9014
▁cream	-11.9015
▁Animal	-11.9017
▁societies	-11.9019
116	-11.9023
▁culturally	-11.9023
▁educators	-11.9024
COPD	-11.9026
-6)	-11.9027
▁SCN	-11.9027
▁thrombolysis	-11.9028
▁monophosphate	-11.9028
▁Design	-11.9028
▁FD	-11.903
110	-11.903
▁tolerant	-11.9034
▁IOL	-11.9034
vers	-11.9035
▁packaging	-11.9036
mM	-11.9036
▁Veterans	-11.9037
▁foster	-11.9037
▁isoelectric	-11.9037
▁ICC	-11.9038
▁wards	-11.9038
▁infiltrate	-11.9039
▁eleven	-11.9041
▁uncover	-11.9041
▁maze	-11.9041
▁SAP	-11.9041
▁intraepithelial	-11.9042
▁plasmon	-11.9044
▁pharyngeal	-11.9045
8.3	-11.9046
ili	-11.9049
▁59%	-11.905
▁kinematics	-11.9051
▁synapse	-11.9051
assembled	-11.9051
▁CSA	-11.9052
▁handle	-11.9052
▁breeds	-11.9054
▁Er	-11.9054
▁standardised	-11.9056
▁fractionated	-11.9057
▁Muscle	-11.9058
▁gravity	-11.9061
▁1.02	-11.9061
▁HCl	-11.9064
▁abscesses	-11.9066
bit	-11.9066
dwelling	-11.9067
first	-11.9068
rb	-11.9068
▁exosomes	-11.907
▁nucleation	-11.9071
▁wavelengths	-11.9074
▁constriction	-11.9076
▁BI	-11.9076
150	-11.9078
stable	-11.9078
▁cheese	-11.908
▁prothrombin	-11.9081
▁herd	-11.9082
▁Smad	-11.9082
▁Syn	-11.9082
▁abstract	-11.9083
mar	-11.9084
▁Turkey	-11.9085
▁MU	-11.9085
▁Neo	-11.9086
▁climatic	-11.9086
▁cholera	-11.9087
aemic	-11.9088
▁chambers	-11.909
▁fluoro	-11.909
9.9	-11.9091
generated	-11.9091
ethanolamine	-11.9092
half	-11.9093
Saharan	-11.9093
ev	-11.9094
21)	-11.9094
▁federal	-11.9094
▁7.1	-11.9096
▁lethality	-11.9097
▁nanomaterials	-11.9097
▁HRV	-11.9097
BW	-11.9098
▁Can	-11.9099
11,	-11.9099
▁pertaining	-11.9099
▁shallow	-11.9099
▁superiority	-11.91
9.6%	-11.9102
cer	-11.9102
▁resembles	-11.9104
▁Severity	-11.9106
▁polyunsaturated	-11.9107
hypo	-11.9107
▁HCT	-11.9108
ga	-11.911
[...]
