<unk>	0
<s>	0
</s>	0
▁the	-3.31516
.	-3.33514
▁of	-3.37089
,	-3.42455
▁and	-3.58604
▁in	-3.93008
-	-3.96956
▁to	-4.21066
▁a	-4.42753
▁(	-4.49995
▁with	-4.67069
)	-4.81494
▁	-4.91572
▁for	-4.93054
▁was	-4.94341
s	-5.0069
▁The	-5.01759
▁were	-5.02524
▁is	-5.13308
▁that	-5.18384
▁by	-5.31487
▁on	-5.55363
▁as	-5.60913
▁patients	-5.65415
▁from	-5.68659
▁are	-5.75351
▁be	-5.85104
▁or	-5.85662
▁an	-5.90823
▁at	-5.95929
/	-6.00815
▁this	-6.03546
▁In	-6.10547
▁study	-6.19775
▁not	-6.2399
▁A	-6.24481
▁have	-6.34756
▁cells	-6.35535
▁which	-6.37616
▁between	-6.39376
▁We	-6.43885
▁than	-6.51946
).	-6.52902
2	-6.54293
;	-6.56047
),	-6.57681
▁This	-6.59535
▁after	-6.59651
▁we	-6.60358
▁these	-6.60393
▁has	-6.60407
▁been	-6.61508
▁treatment	-6.61967
1	-6.62959
▁but	-6.69686
▁using	-6.7027
'	-6.7041
▁cell	-6.70727
▁their	-6.73044
▁may	-6.73248
▁results	-6.73674
▁can	-6.74493
▁used	-6.75604
:	-6.77048
▁also	-6.79783
▁two	-6.81594
P	-6.8184
▁=	-6.82163
▁group	-6.82487
▁had	-6.83358
▁both	-6.85425
▁more	-6.85755
▁high	-6.89261
▁during	-6.89736
▁data	-6.91724
▁disease	-6.9399
▁clinical	-6.98713
▁C	-6.99553
▁analysis	-7.00282
▁2	-7.01064
▁associated	-7.01105
▁activity	-7.01604
▁P	-7.02055
▁all	-7.04142
▁increased	-7.0473
▁other	-7.05503
▁found	-7.05692
▁significantly	-7.06151
▁studies	-7.06597
▁compared	-7.06878
▁protein	-7.07354
▁significant	-7.08578
▁levels	-7.09396
▁1	-7.10225
▁different	-7.10415
▁expression	-7.11522
▁no	-7.11551
p	-7.13398
▁time	-7.1349
▁showed	-7.13961
▁one	-7.14699
▁3	-7.14716
▁effects	-7.14988
▁it	-7.15068
▁non	-7.15554
3	-7.16206
▁effect	-7.16707
▁its	-7.1733
C	-7.17351
A	-7.17488
▁use	-7.18388
n	-7.18646
▁risk	-7.19311
▁cancer	-7.19792
▁into	-7.21529
▁well	-7.23162
▁T	-7.23776
▁These	-7.24742
▁years	-7.254
▁control	-7.25575
(	-7.26013
▁most	-7.27332
▁patient	-7.29933
▁age	-7.30164
▁higher	-7.31096
▁only	-7.32714
▁such	-7.32877
▁cases	-7.3292
▁p	-7.33075
ing	-7.33762
▁human	-7.34682
▁To	-7.35219
▁observed	-7.35311
▁B	-7.35807
▁model	-7.35841
▁present	-7.35886
▁health	-7.36837
▁rate	-7.37526
▁who	-7.37987
▁groups	-7.38035
D	-7.39366
▁gene	-7.39512
▁However	-7.41095
▁when	-7.41869
▁low	-7.42055
▁system	-7.42323
S	-7.4249
▁three	-7.42528
▁factors	-7.44126
▁first	-7.44472
▁response	-7.45207
▁role	-7.46134
▁those	-7.47326
▁blood	-7.47826
e	-7.48233
-1	-7.50626
▁method	-7.5164
▁performed	-7.52041
▁development	-7.52876
▁respectively	-7.53404
▁increase	-7.53409
a	-7.53654
▁changes	-7.54387
▁4	-7.54548
▁total	-7.54947
▁could	-7.55312
▁potential	-7.55955
▁new	-7.56258
▁function	-7.56328
▁important	-7.57362
▁therapy	-7.58274
▁care	-7.5899
▁number	-7.60919
▁level	-7.60979
▁5	-7.61106
d	-7.62012
▁including	-7.62178
▁acid	-7.62378
▁among	-7.6238
4	-7.6299
▁within	-7.63577
H	-7.6362
▁<	-7.63928
▁S	-7.63982
▁+/-	-7.64394
�	-7.64528
L	-7.6549
▁over	-7.66197
▁our	-7.66393
▁normal	-7.67361
T	-7.67905
▁identified	-7.68192
▁It	-7.68525
▁through	-7.68745
ed	-7.68959
ly	-7.69136
▁growth	-7.69179
▁children	-7.69609
▁lower	-7.698
▁reported	-7.6996
R	-7.70579
B	-7.70623
▁each	-7.71842
▁tumor	-7.71881
▁6	-7.71889
▁DNA	-7.73097
▁without	-7.73509
▁there	-7.7356
▁women	-7.74278
▁suggest	-7.7449
▁did	-7.75069
▁type	-7.75538
▁less	-7.7619
▁D	-7.7708
▁findings	-7.7743
▁based	-7.77525
▁case	-7.78135
▁months	-7.7862
▁10	-7.79085
▁tissue	-7.79474
N	-7.80332
▁factor	-7.81521
▁N	-7.81554
▁H	-7.81903
▁I	-7.82556
▁E	-7.82634
▁specific	-7.82738
▁test	-7.82852
▁under	-7.83231
▁while	-7.83436
▁days	-7.8346
▁diagnosis	-7.83596
▁presence	-7.8382
▁evidence	-7.83852
▁about	-7.8402
▁L	-7.84503
▁species	-7.84909
▁mice	-7.85204
▁mean	-7.85215
▁differences	-7.8544
i	-7.85777
▁mg	-7.85941
▁due	-7.86361
▁obtained	-7.86504
▁M	-7.86575
▁population	-7.86923
▁single	-7.86948
▁some	-7.87141
▁related	-7.87175
▁conditions	-7.8754
▁proteins	-7.87594
▁genes	-7.87606
▁similar	-7.8768
▁should	-7.8782
▁reduced	-7.88254
▁infection	-7.88393
▁show	-7.8856
▁primary	-7.88951
I	-7.89221
▁review	-7.89264
based	-7.89558
▁There	-7.89946
▁research	-7.9041
▁developed	-7.90735
▁early	-7.90812
▁treated	-7.91391
▁surgery	-7.91873
▁addition	-7.92139
▁they	-7.92378
▁studied	-7.93166
O	-7.93482
▁measured	-7.94061
"	-7.94188
▁receptor	-7.94483
▁"	-7.94506
▁drug	-7.94702
▁decreased	-7.94738
▁investigated	-7.95378
▁rats	-7.95512
▁revealed	-7.95779
▁included	-7.96105
▁h	-7.96622
▁long	-7.96757
▁positive	-7.96913
▁common	-7.96927
▁period	-7.97194
up	-7.97351
▁anti	-7.97974
or	-7.98613
▁samples	-7.98645
▁Our	-7.98765
▁concentration	-7.99219
▁survival	-7.99302
▁demonstrated	-7.99584
g	-7.99646
induced	-7.99952
▁dose	-8.00278
▁determine	-8.00313
▁evaluated	-8.00794
▁information	-8.01015
▁subjects	-8.01286
F	-8.01494
▁approach	-8.01521
c	-8.01673
▁brain	-8.01768
▁concentrations	-8.01828
▁provide	-8.0187
M	-8.02068
▁large	-8.02232
▁further	-8.02399
▁methods	-8.02801
▁serum	-8.0294
▁examined	-8.02999
▁binding	-8.04328
▁process	-8.0439
▁will	-8.04629
▁major	-8.04667
▁following	-8.04924
▁whether	-8.04965
▁per	-8.05526
▁effective	-8.05862
▁complex	-8.06096
E	-8.06964
▁surface	-8.07042
▁rates	-8.07243
r	-8.07719
al	-8.07869
m	-8.07963
▁plasma	-8.08551
▁symptoms	-8.08711
▁molecular	-8.08736
▁G	-8.09091
▁quality	-8.0983
]	-8.09982
▁small	-8.10164
▁either	-8.10193
▁liver	-8.10223
▁determined	-8.10249
▁same	-8.10413
▁post	-8.1044
▁functional	-8.10478
▁before	-8.10653
▁pain	-8.1088
▁various	-8.11443
▁report	-8.11595
▁bone	-8.11611
▁acute	-8.11735
▁CD	-8.12613
▁shown	-8.12678
▁induced	-8.12937
▁several	-8.13315
▁7	-8.13385
▁values	-8.13439
in	-8.13445
▁four	-8.13451
▁chronic	-8.14545
▁current	-8.14643
▁CI	-8.15265
▁structure	-8.15497
▁8	-8.15778
5	-8.15958
▁against	-8.16114
▁12	-8.16286
▁known	-8.16322
▁activation	-8.16357
▁pressure	-8.16581
▁greater	-8.17259
G	-8.17709
▁outcomes	-8.17725
▁mechanisms	-8.17772
▁follow	-8.18277
▁body	-8.18525
▁out	-8.18717
▁vs	-8.18976
related	-8.19027
▁vitro	-8.19078
▁models	-8.19118
▁involved	-8.19173
▁range	-8.19198
▁up	-8.19232
▁stress	-8.19299
▁detected	-8.1978
▁formation	-8.20355
▁many	-8.20418
▁multiple	-8.20523
▁mortality	-8.20823
▁assessed	-8.21016
▁change	-8.21128
▁possible	-8.21187
b	-8.21285
▁any	-8.21477
▁evaluate	-8.21602
▁medical	-8.2168
▁ratio	-8.21734
▁membrane	-8.22495
▁management	-8.22839
▁production	-8.22885
▁K	-8.23093
▁analyzed	-8.23234
▁alpha	-8.23378
▁water	-8.23514
▁beta	-8.23845
▁life	-8.2415
-2	-8.24161
year	-8.24227
▁novel	-8.24534
▁exposure	-8.24608
▁pre	-8.24867
▁association	-8.25224
▁whereas	-8.2529
▁support	-8.25372
▁properties	-8.25713
▁performance	-8.25722
▁work	-8.25844
▁responses	-8.26036
▁difference	-8.2633
▁weight	-8.26457
▁mechanism	-8.27363
▁reduction	-8.27449
6	-8.27475
▁�	-8.2782
▁muscle	-8.27863
▁20	-8.28029
▁size	-8.28155
▁presented	-8.2828
dependent	-8.28494
▁phase	-8.28526
K	-8.28556
▁region	-8.28676
▁loss	-8.28692
▁surgical	-8.29292
▁genetic	-8.2944
▁imaging	-8.29541
▁controls	-8.2968
▁All	-8.29774
▁Although	-8.29805
▁weeks	-8.30128
term	-8.30713
▁resistance	-8.31358
▁F	-8.31892
▁identify	-8.32358
specific	-8.32572
▁characteristics	-8.33204
▁technique	-8.33445
▁self	-8.33505
▁severe	-8.33519
▁relationship	-8.3375
▁parameters	-8.34379
▁95%	-8.34416
▁virus	-8.3461
▁conducted	-8.34745
▁Here	-8.3505
▁re	-8.35064
▁area	-8.35138
▁investigate	-8.35418
▁diseases	-8.35496
▁available	-8.35999
▁For	-8.3614
▁systems	-8.36146
▁syndrome	-8.36303
ic	-8.36358
▁how	-8.36451
▁outcome	-8.36724
▁being	-8.36753
▁9	-8.36757
▁assess	-8.36981
▁considered	-8.37036
▁aim	-8.37112
▁vivo	-8.37352
to	-8.37557
▁active	-8.37766
kg	-8.37942
▁very	-8.38015
▁lung	-8.38159
▁contrast	-8.38199
▁indicate	-8.38414
▁however	-8.38425
▁required	-8.38912
▁heart	-8.38929
▁mass	-8.38941
▁described	-8.39152
▁order	-8.3937
▁injury	-8.39457
▁flow	-8.39624
o	-8.39671
▁negative	-8.39713
▁value	-8.39807
▁result	-8.39842
▁decrease	-8.40035
▁R	-8.40314
▁impact	-8.40412
▁highly	-8.40504
▁because	-8.40505
▁II	-8.40768
▁tested	-8.40823
▁reaction	-8.40992
▁followed	-8.41023
▁day	-8.41419
▁site	-8.41543
▁previously	-8.41652
▁form	-8.41694
▁therapeutic	-8.41822
l	-8.41919
▁detection	-8.41973
▁incidence	-8.42042
▁30	-8.42311
▁better	-8.42341
▁isolated	-8.42498
▁status	-8.42675
▁types	-8.42764
▁enzyme	-8.4297
V	-8.43158
▁family	-8.43348
▁healthy	-8.4346
▁An	-8.43503
t	-8.43511
▁second	-8.43734
▁target	-8.43776
▁lesions	-8.44019
▁complications	-8.44418
▁caused	-8.44753
▁frequency	-8.44805
▁left	-8.45393
▁15	-8.45463
▁improved	-8.45923
▁general	-8.46199
▁sequence	-8.4626
▁IL	-8.46426
▁prevalence	-8.46525
▁renal	-8.46595
▁c	-8.46709
▁ability	-8.46902
▁via	-8.47013
▁features	-8.47109
▁if	-8.47182
▁male	-8.47202
▁received	-8.47388
▁individuals	-8.47578
h	-8.47664
▁cause	-8.47682
▁sites	-8.47728
▁inhibition	-8.48289
▁influence	-8.48345
▁standard	-8.48392
▁animals	-8.4844
▁need	-8.48441
▁correlation	-8.48619
▁sensitivity	-8.48634
▁sample	-8.49192
▁hospital	-8.49504
▁24	-8.49675
▁tumors	-8.49829
▁distribution	-8.50154
▁immuno	-8.5037
▁often	-8.5038
▁increasing	-8.50429
▁breast	-8.50598
▁physical	-8.50747
▁combination	-8.5104
▁HIV	-8.51097
▁improve	-8.51156
▁literature	-8.51499
▁experimental	-8.51922
▁expressed	-8.52054
▁drugs	-8.52094
▁death	-8.52111
▁state	-8.52128
▁overall	-8.52188
▁After	-8.52245
▁individual	-8.52537
▁O	-8.52792
▁likely	-8.53271
▁V	-8.53885
▁immune	-8.53941
▁administration	-8.53969
▁n	-8.54182
▁demonstrate	-8.54204
▁indicated	-8.5435
▁cardiac	-8.54649
▁where	-8.54783
▁rat	-8.55043
▁efficacy	-8.55095
+	-8.55104
▁underwent	-8.55394
▁produced	-8.55588
▁paper	-8.55769
▁No	-8.55912
▁applied	-8.5616
▁five	-8.56183
▁X	-8.564
▁At	-8.56679
▁content	-8.56759
▁cross	-8.5701
▁assay	-8.57012
▁analyses	-8.57017
▁stage	-8.57108
▁evaluation	-8.57134
▁assessment	-8.57139
like	-8.57653
▁knowledge	-8.57797
▁As	-8.57986
▁relative	-8.57987
▁disorders	-8.5803
▁Ca	-8.58288
▁might	-8.58339
▁recent	-8.58354
▁processes	-8.5836
▁field	-8.5853
▁adult	-8.58569
▁mRNA	-8.58571
▁release	-8.58653
▁skin	-8.58718
▁interaction	-8.58886
▁least	-8.58897
▁social	-8.5921
▁procedure	-8.5927
▁participants	-8.59295
▁part	-8.59404
▁end	-8.59633
▁made	-8.5982
▁cellular	-8.59822
▁characterized	-8.59832
▁co	-8.59843
▁men	-8.59888
▁RNA	-8.60087
▁correlated	-8.60095
▁understanding	-8.60198
▁failure	-8.6027
er	-8.60283
▁light	-8.60485
▁techniques	-8.60572
7	-8.60602
▁collected	-8.60751
▁index	-8.60755
▁glucose	-8.60862
▁volume	-8.60867
▁activities	-8.61069
▁intervention	-8.61197
▁tissues	-8.6121
▁would	-8.61452
▁areas	-8.61625
▁average	-8.61707
▁initial	-8.61929
▁synthesis	-8.62062
▁diabetes	-8.62159
▁proposed	-8.62301
▁year	-8.62617
▁g	-8.62677
▁events	-8.62728
es	-8.62902
▁Furthermore	-8.62928
▁energy	-8.62963
▁pathway	-8.63186
▁regions	-8.63209
▁patterns	-8.6326
▁diagnostic	-8.63332
▁pattern	-8.64255
▁temperature	-8.64668
▁discussed	-8.64685
▁practice	-8.64753
▁given	-8.65078
▁min	-8.65302
▁limited	-8.65524
▁local	-8.65647
▁strains	-8.6584
▁useful	-8.65935
▁across	-8.66053
▁affected	-8.66086
▁female	-8.66202
▁oral	-8.66413
▁even	-8.66457
▁good	-8.66726
▁them	-8.67084
▁then	-8.67422
old	-8.67445
▁behavior	-8.67567
▁trials	-8.67604
▁Patients	-8.67633
▁artery	-8.67695
▁occurred	-8.67995
▁short	-8.68025
▁key	-8.68069
▁de	-8.68106
▁combined	-8.68346
▁direct	-8.68375
▁tests	-8.68395
▁measures	-8.68442
▁receptors	-8.68445
▁carcinoma	-8.68491
▁regression	-8.68597
▁insulin	-8.68771
▁confirmed	-8.68882
▁degrees	-8.68911
▁14	-8.69034
▁interactions	-8.69155
▁neurons	-8.69248
▁m	-8.69261
type	-8.69679
▁main	-8.69699
▁provides	-8.69816
▁compounds	-8.70002
▁stimulation	-8.7042
▁resulted	-8.70809
▁right	-8.71019
(2)	-8.71142
▁biological	-8.71181
▁score	-8.71269
▁18	-8.71491
▁experiments	-8.71709
▁suggested	-8.71756
▁seen	-8.71905
▁times	-8.71992
▁training	-8.72042
▁antibodies	-8.72064
▁history	-8.72139
▁central	-8.72357
▁vascular	-8.72655
▁describe	-8.72674
▁16	-8.72733
▁previous	-8.7286
y	-8.72897
▁suggests	-8.73042
▁11	-8.73181
▁free	-8.73183
▁strategies	-8.73362
▁culture	-8.73808
▁adults	-8.73932
▁screening	-8.73969
▁U	-8.74144
▁suggesting	-8.7448
▁six	-8.74614
▁complete	-8.7489
▁containing	-8.74992
▁Thus	-8.75182
beta	-8.75187
▁application	-8.75229
▁amino	-8.75377
▁antibody	-8.75445
▁mm	-8.75901
▁pH	-8.75916
▁pulmonary	-8.75917
▁article	-8.76091
▁design	-8.76301
▁Two	-8.76521
▁regulation	-8.76625
▁selected	-8.7671
▁structures	-8.76766
▁especially	-8.76798
▁agents	-8.76856
▁established	-8.76932
▁critical	-8.7695
▁scores	-8.77023
▁density	-8.77025
▁still	-8.77039
▁do	-8.77135
▁mutations	-8.77546
▁future	-8.77711
▁duration	-8.77728
▁proliferation	-8.78338
▁measurements	-8.78482
▁enhanced	-8.78611
▁One	-8.78694
8	-8.78746
alpha	-8.7912
▁essential	-8.79406
▁length	-8.7946
▁baseline	-8.79543
▁signaling	-8.79648
▁remains	-8.79658
▁action	-8.79797
▁components	-8.80184
▁increases	-8.80189
▁independent	-8.80333
▁functions	-8.80376
▁inhibited	-8.80631
▁criteria	-8.80743
▁reduce	-8.80804
▁thus	-8.80899
v	-8.80927
▁according	-8.8097
▁play	-8.81082
▁sub	-8.8111
▁provided	-8.81183
▁lead	-8.81347
▁i	-8.81357
▁examination	-8.81383
▁versus	-8.81426
▁mouse	-8.8155
▁additional	-8.81603
▁basis	-8.81632
▁coronary	-8.81649
9	-8.81661
▁damage	-8.81968
▁improvement	-8.81988
▁5-	-8.82117
▁secondary	-8.82162
▁Using	-8.82335
▁inhibitor	-8.82414
▁approximately	-8.8251
▁affect	-8.8252
▁visual	-8.82706
▁rare	-8.82707
▁postoperative	-8.82866
▁testing	-8.82934
▁'	-8.8313
▁so	-8.83242
▁disorder	-8.83284
▁kinase	-8.8351
▁side	-8.83776
▁populations	-8.84544
▁50	-8.8461
▁When	-8.84901
▁sex	-8.85106
▁comparison	-8.85218
day	-8.85407
▁strain	-8.85516
▁experience	-8.85528
cell	-8.85628
th	-8.85631
▁metabolic	-8.85821
▁progression	-8.8606
▁importance	-8.86126
▁signal	-8.86212
▁does	-8.86239
▁community	-8.86576
▁micro	-8.8661
OR	-8.86694
▁nerve	-8.86723
▁examine	-8.86899
▁structural	-8.86989
▁pathways	-8.87282
▁although	-8.87421
▁diagnosed	-8.87701
▁purpose	-8.87845
▁people	-8.87897
▁Moreover	-8.88004
mediated	-8.88101
▁condition	-8.88265
▁infections	-8.88332
▁13	-8.88566
▁resulting	-8.88596
▁molecules	-8.88619
▁food	-8.88657
▁procedures	-8.88683
▁transcription	-8.88719
▁injection	-8.88917
▁lines	-8.89005
▁rapid	-8.89147
▁series	-8.89271
▁alone	-8.89379
▁oxygen	-8.89395
▁differentiation	-8.89399
ation	-8.89656
X	-8.89806
▁apoptosis	-8.89873
▁cost	-8.90781
▁problems	-8.90818
▁absence	-8.90923
1,	-8.90979
▁metabolism	-8.91195
▁CT	-8.91303
▁trial	-8.91312
▁develop	-8.91423
▁solution	-8.91621
▁inflammatory	-8.91783
▁achieved	-8.91972
▁needed	-8.92237
▁include	-8.9227
▁defined	-8.92329
▁cognitive	-8.9238
▁safety	-8.92527
▁delivery	-8.9255
▁x	-8.92832
▁Of	-8.93085
▁particularly	-8.93137
▁daily	-8.93154
▁capacity	-8.93196
▁antigen	-8.93327
▁regarding	-8.9335
▁particular	-8.93366
▁Both	-8.93385
▁s	-8.93398
▁peripheral	-8.9342
▁cohort	-8.93529
▁aimed	-8.9353
▁prior	-8.9356
▁older	-8.93677
▁set	-8.93747
▁Therefore	-8.93779
min	-8.93885
▁multi	-8.93911
▁lipid	-8.93918
▁controlled	-8.94315
▁un	-8.94389
▁hours	-8.94437
▁domain	-8.9448
▁poor	-8.94536
▁calcium	-8.94797
▁variables	-8.9481
▁pregnancy	-8.95031
▁exercise	-8.95333
▁products	-8.9537
▁few	-8.95469
▁interval	-8.95839
▁acids	-8.96038
▁degree	-8.9629
▁depression	-8.96436
▁bacterial	-8.96481
▁approaches	-8.96503
▁respiratory	-8.96584
▁median	-8.96656
▁100	-8.96752
▁natural	-8.96976
▁25	-8.97054
▁plant	-8.97101
▁course	-8.97111
▁markers	-8.97246
▁adverse	-8.97269
▁On	-8.97309
▁terms	-8.97404
▁calculated	-8.97419
▁chain	-8.97906
▁conventional	-8.97938
▁diet	-8.97991
▁line	-8.98025
▁cycle	-8.98031
▁consistent	-8.98224
▁sequences	-8.98599
▁host	-8.98641
free	-8.98645
▁open	-8.98822
▁medium	-8.98906
▁d	-8.98908
▁compare	-8.98938
▁electron	-8.99021
▁therefore	-8.99086
▁inhibitors	-8.9912
▁recovery	-8.99122
▁derived	-8.99278
▁cardiovascular	-8.99408
▁carried	-8.99584
▁program	-8.99679
▁variation	-8.99875
▁40	-8.99973
▁strong	-9.00379
MS	-9.00434
▁point	-9.00549
▁chemotherapy	-9.00582
▁recorded	-9.00679
▁uptake	-9.00756
fold	-9.00796
▁highest	-9.00821
▁kidney	-9.00993
▁measure	-9.01148
▁peptide	-9.01162
▁chemical	-9.01201
▁environmental	-9.01273
▁underlying	-9.01309
▁doses	-9.01319
ml	-9.01456
▁elevated	-9.01593
▁statistically	-9.02063
ity	-9.02168
▁strategy	-9.02253
▁young	-9.02253
▁fluid	-9.02295
▁best	-9.02328
▁estimated	-9.02467
▁help	-9.02787
▁Results	-9.02964
-3	-9.0301
▁mutation	-9.03302
▁causes	-9.03361
▁environment	-9.0351
▁distinct	-9.0398
x	-9.04059
▁component	-9.04259
▁students	-9.0427
▁necessary	-9.04357
▁interventions	-9.04367
▁stable	-9.04411
▁relevant	-9.04416
▁upon	-9.0449
▁identification	-9.04511
▁severity	-9.04558
▁t	-9.04611
▁sensitive	-9.04621
▁lack	-9.04732
▁network	-9.04736
▁transport	-9.04753
▁simple	-9.04798
▁whole	-9.05046
▁recently	-9.05159
▁reviewed	-9.0527
▁accuracy	-9.05531
▁ventricular	-9.05663
▁objective	-9.05669
▁contribute	-9.05827
▁stem	-9.05905
2)	-9.05984
▁17	-9.06058
▁occur	-9.06093
▁appropriate	-9.06121
▁administered	-9.06132
▁animal	-9.06193
▁(1	-9.06224
▁relatively	-9.06286
▁much	-9.06446
▁viral	-9.06486
▁induction	-9.06661
▁authors	-9.06766
▁motor	-9.06798
▁frequently	-9.06829
▁transfer	-9.06989
▁survey	-9.07114
▁education	-9.073
▁leading	-9.07325
▁60	-9.07326
▁Health	-9.07445
f	-9.07584
▁onset	-9.07617
▁aged	-9.07691
▁alternative	-9.07772
▁able	-9.07816
▁specificity	-9.08091
▁tool	-9.08231
us	-9.08288
▁developing	-9.08327
2,	-9.08408
▁randomized	-9.08428
▁learning	-9.085
J	-9.08526
▁2-	-9.08542
▁1,	-9.08545
▁amount	-9.08581
▁monitoring	-9.08611
▁mental	-9.0864
2+	-9.0875
on	-9.08777
▁having	-9.08855
▁little	-9.09037
▁indicating	-9.09156
▁systemic	-9.09182
▁quantitative	-9.09222
▁designed	-9.09226
ally	-9.0929
▁bacteria	-9.09411
▁exhibited	-9.09487
▁hypertension	-9.09553
▁problem	-9.09697
▁(95%	-9.09717
associated	-9.09859
II	-9.09941
▁subsequent	-9.09987
▁images	-9.10017
▁public	-9.10081
▁mainly	-9.10269
▁extent	-9.10363
positive	-9.1041
▁nuclear	-9.10442
▁radiation	-9.10493
▁stroke	-9.10638
▁directly	-9.10689
▁together	-9.10869
▁laboratory	-9.10938
▁treatments	-9.11097
▁wild	-9.11166
▁genome	-9.11528
▁inflammation	-9.11573
▁source	-9.11625
▁efficiency	-9.11676
▁along	-9.11838
▁J	-9.11844
▁magnetic	-9.11976
▁repair	-9.12282
▁prevention	-9.12661
▁maximum	-9.12666
▁position	-9.12853
▁stability	-9.12949
▁By	-9.13016
▁endothelial	-9.13086
W	-9.13137
▁females	-9.13166
▁material	-9.13381
▁During	-9.13527
▁exposed	-9.13574
▁anterior	-9.13592
▁selection	-9.13648
▁e	-9.13678
▁dysfunction	-9.13681
▁inter	-9.13684
▁hyper	-9.13798
▁males	-9.13878
▁microscopy	-9.14027
▁With	-9.14091
▁scale	-9.14403
▁shows	-9.14835
▁alcohol	-9.14914
▁predicted	-9.15021
▁21	-9.15044
▁since	-9.15206
▁forms	-9.15405
▁Data	-9.15446
▁applications	-9.15536
▁hypothesis	-9.15672
▁must	-9.15713
=	-9.15768
▁means	-9.16006
▁involvement	-9.16017
▁confidence	-9.16071
is	-9.16241
▁measurement	-9.16253
▁mutant	-9.16287
▁unique	-9.16333
▁class	-9.16339
▁intra	-9.16479
one	-9.16562
1)	-9.16587
▁Among	-9.16652
▁linear	-9.16664
▁infants	-9.16706
▁appears	-9.16726
▁double	-9.16728
▁hand	-9.17252
▁intracellular	-9.1726
▁variety	-9.17308
▁hormone	-9.17408
▁countries	-9.17487
CD	-9.17531
▁poly	-9.1756
▁cerebral	-9.17568
▁transplantation	-9.17633
▁+	-9.17671
▁attention	-9.17698
▁sleep	-9.17745
▁unknown	-9.17892
▁advanced	-9.18166
▁late	-9.18421
▁toxicity	-9.18451
▁moderate	-9.18498
▁physiological	-9.18595
▁later	-9.18731
▁modified	-9.18775
▁gastric	-9.18781
▁3-	-9.19209
▁corresponding	-9.19336
▁full	-9.19512
▁reports	-9.19526
▁memory	-9.19636
▁published	-9.19709
▁processing	-9.19772
▁III	-9.19826
▁myocardial	-9.19949
▁19	-9.19992
▁epithelial	-9.2003
2-	-9.20178
▁real	-9.20281
▁intake	-9.20354
▁matrix	-9.20582
10	-9.20689
▁isolates	-9.20785
CI	-9.20864
▁arterial	-9.20953
▁focus	-9.21059
▁generated	-9.2107
▁services	-9.21188
▁commonly	-9.21274
▁dependent	-9.21576
▁larger	-9.21677
treated	-9.21684
▁recurrence	-9.21726
▁head	-9.21877
▁secretion	-9.22016
▁remained	-9.22204
▁prospective	-9.22258
▁half	-9.22285
▁accumulation	-9.22292
▁internal	-9.22303
CT	-9.22335
▁transmission	-9.22387
▁peak	-9.22416
▁strongly	-9.22533
ization	-9.22756
▁plants	-9.22966
▁coli	-9.23007
▁stages	-9.23013
▁investigation	-9.23122
▁fat	-9.23227
▁spinal	-9.23262
▁composition	-9.23453
▁majority	-9.23754
1-	-9.23815
▁responsible	-9.23848
▁infected	-9.24027
▁(1)	-9.24102
▁malignant	-9.24329
▁last	-9.24494
▁led	-9.24549
▁lesion	-9.24589
▁enzymes	-9.24682
▁cm	-9.24848
▁image	-9.25141
▁intensity	-9.25183
▁fraction	-9.2521
the	-9.2541
▁resonance	-9.2541
▁resection	-9.25423
▁clinically	-9.25482
▁task	-9.25546
▁effectiveness	-9.25616
time	-9.2593
re	-9.25939
▁cholesterol	-9.26082
▁proportion	-9.26123
▁potentially	-9.26138
▁become	-9.26148
▁prognosis	-9.26172
▁birth	-9.26245
range	-9.26255
▁Three	-9.26349
▁yet	-9.26378
▁reference	-9.2638
▁rather	-9.2645
▁wall	-9.26539
▁activated	-9.26859
▁materials	-9.26906
▁Further	-9.27059
▁PCR	-9.2715
▁neural	-9.27206
▁retrospective	-9.27253
▁percentage	-9.27282
▁They	-9.27407
▁cortex	-9.27415
▁removal	-9.27568
▁strength	-9.27707
▁wide	-9.27811
▁above	-9.2784
▁sodium	-9.27963
able	-9.28061
▁While	-9.28135
▁mitochondrial	-9.2823
▁assays	-9.28317
▁optimal	-9.28373
▁produce	-9.28403
▁selective	-9.28459
▁reactions	-9.28473
▁pro	-9.28558
▁substrate	-9.28592
▁dynamics	-9.28622
▁placebo	-9.28686
▁profile	-9.28763
▁percent	-9.28771
▁prevent	-9.28822
▁third	-9.28926
▁agent	-9.29123
▁mechanical	-9.29269
▁completed	-9.29314
▁specimens	-9.29478
▁hepatic	-9.2952
▁longer	-9.29695
▁regulatory	-9.29727
▁explore	-9.29906
▁carbon	-9.29941
▁context	-9.29972
mean	-9.29978
▁seven	-9.30064
▁taken	-9.30072
dimensional	-9.30126
▁occurs	-9.30204
▁widely	-9.30264
▁interest	-9.30379
▁smoking	-9.30424
▁induce	-9.30555
▁efficient	-9.30711
▁global	-9.30759
▁consumption	-9.30819
▁morbidity	-9.30879
▁undergoing	-9.31092
▁inhibitory	-9.3114
▁nature	-9.31313
▁spatial	-9.31373
▁complexes	-9.31469
▁partial	-9.31595
▁di	-9.31862
▁(3	-9.31908
53	-9.3221
▁power	-9.32232
▁successful	-9.32263
▁questionnaire	-9.32325
-19	-9.32354
di	-9.32426
of	-9.32533
▁difficult	-9.32796
▁lymph	-9.32877
▁Most	-9.32939
▁urinary	-9.33067
▁access	-9.33181
▁receiving	-9.33278
▁upper	-9.3356
);	-9.33632
▁tomography	-9.33702
▁frequent	-9.33815
▁involving	-9.3387
▁benefit	-9.34038
▁Finally	-9.34218
▁Na	-9.34221
▁prostate	-9.34224
▁(2)	-9.34367
▁22	-9.34397
▁week	-9.34436
▁operation	-9.345
▁relation	-9.34612
0	-9.34697
▁eight	-9.34734
▁bio	-9.34778
▁now	-9.34784
▁maternal	-9.34794
▁expected	-9.34964
▁r	-9.35001
▁detect	-9.35055
▁generation	-9.35133
▁Despite	-9.35144
▁cultures	-9.35157
▁degradation	-9.3519
▁metal	-9.35219
▁contact	-9.35226
▁mediated	-9.35242
▁manner	-9.35277
ers	-9.35317
▁old	-9.3536
▁unit	-9.35558
▁product	-9.35562
derived	-9.3558
yl	-9.35783
▁biopsy	-9.36098
▁prepared	-9.36198
▁child	-9.36217
▁sexual	-9.36258
-6	-9.36264
▁decision	-9.36366
▁successfully	-9.36392
binding	-9.36404
▁predictive	-9.36423
an	-9.36464
▁discuss	-9.36543
▁oxidative	-9.36551
▁relationships	-9.36608
▁lateral	-9.36642
▁gender	-9.36706
▁conclusion	-9.36724
▁prognostic	-9.36746
▁significance	-9.36915
▁located	-9.36997
▁Group	-9.37072
▁pathogenesis	-9.37084
▁promising	-9.37085
▁differential	-9.37138
▁fluorescence	-9.37255
▁roles	-9.37394
▁28	-9.37488
▁cervical	-9.37527
▁fatty	-9.37567
▁here	-9.3764
▁certain	-9.37658
▁currently	-9.37725
▁laser	-9.37852
▁members	-9.37868
▁remain	-9.38002
▁aspects	-9.38023
▁marker	-9.38285
▁iron	-9.38309
▁MRI	-9.38333
▁neuro	-9.38443
▁tract	-9.38499
▁points	-9.38566
▁temporal	-9.38611
▁PD	-9.3863
▁way	-9.38755
▁promoter	-9.38802
▁migration	-9.3894
▁guidelines	-9.38946
▁requires	-9.39033
▁abnormalities	-9.39057
▁phosphorylation	-9.39151
▁extracellular	-9.39162
▁fetal	-9.39221
▁challenge	-9.39313
▁phenotype	-9.39555
▁(2	-9.39573
▁formed	-9.3964
▁electro	-9.39678
▁clear	-9.39721
▁predict	-9.39784
▁needs	-9.39808
▁statistical	-9.39834
▁dynamic	-9.3985
▁leads	-9.39855
▁generally	-9.39988
▁protocol	-9.40069
▁divided	-9.40111
▁transition	-9.40295
▁liquid	-9.40325
▁respect	-9.40398
▁humans	-9.40557
ray	-9.4059
▁altered	-9.40712
▁diabetic	-9.40789
▁continuous	-9.40872
▁residues	-9.40887
▁(5	-9.40933
▁evolution	-9.40981
▁understand	-9.41005
▁conclude	-9.4118
▁around	-9.41186
▁miR	-9.41216
▁basal	-9.41276
▁b	-9.41295
U	-9.41339
▁variable	-9.41402
▁step	-9.41514
▁vaccine	-9.41535
▁posterior	-9.41708
▁appear	-9.41813
▁aortic	-9.41847
▁medicine	-9.41904
▁layer	-9.42008
▁toward	-9.42048
▁past	-9.4214
▁mixed	-9.42252
▁throughout	-9.42255
▁staining	-9.42257
▁allows	-9.42299
▁plays	-9.42367
▁0	-9.42378
50	-9.42437
▁reducing	-9.42456
▁external	-9.42491
▁joint	-9.42533
▁consecutive	-9.42544
▁abnormal	-9.42575
▁alterations	-9.42916
▁eye	-9.43012
▁classification	-9.43033
▁mild	-9.43095
▁usually	-9.43125
▁neuronal	-9.43198
▁represent	-9.4327
▁trans	-9.43349
▁targets	-9.43401
▁graft	-9.4361
▁programs	-9.43705
▁elements	-9.43909
q	-9.43979
ness	-9.44029
▁find	-9.44135
▁48	-9.44172
▁thyroid	-9.44186
▁35	-9.44273
▁microM	-9.4433
▁origin	-9.44374
▁setting	-9.44439
▁search	-9.44543
▁rapidly	-9.44588
▁living	-9.44694
▁intestinal	-9.4473
▁occurrence	-9.44736
▁obesity	-9.44883
▁systematic	-9.44925
12	-9.45148
▁near	-9.45312
um	-9.45358
ate	-9.45422
▁account	-9.45506
▁ion	-9.4567
▁accurate	-9.45688
▁states	-9.45694
▁theory	-9.45744
▁recognition	-9.45768
▁soil	-9.45799
▁associations	-9.46133
▁anxiety	-9.46184
▁technology	-9.46237
▁affinity	-9.46385
▁make	-9.46394
▁solid	-9.46633
▁W	-9.46746
▁comparable	-9.46801
▁implications	-9.46822
▁costs	-9.4688
▁invasive	-9.47135
▁core	-9.47234
▁device	-9.47304
▁differ	-9.47342
▁50%	-9.4744
PCR	-9.47488
▁dietary	-9.47596
▁safe	-9.47735
▁white	-9.47873
▁ng	-9.47892
▁characteristic	-9.47939
▁CO	-9.4794
▁sequencing	-9.48
k	-9.48012
▁chromatography	-9.48115
terminal	-9.4812
▁abdominal	-9.48142
methyl	-9.48208
▁space	-9.48245
▁air	-9.48262
▁resolution	-9.48593
▁another	-9.48673
▁impairment	-9.48803
▁pancreatic	-9.48805
▁force	-9.48846
▁organic	-9.48884
▁profiles	-9.48922
▁trauma	-9.49031
▁variability	-9.4912
▁Based	-9.49122
▁experienced	-9.49324
▁constant	-9.49329
line	-9.49362
▁metastasis	-9.4952
▁1-	-9.49573
▁gamma	-9.49735
▁signs	-9.49765
w	-9.49843
▁estimate	-9.49918
▁employed	-9.49987
▁collagen	-9.50005
▁deficiency	-9.50122
▁chromosome	-9.5015
▁sources	-9.50195
▁basic	-9.50211
▁particles	-9.50331
▁domains	-9.50372
▁providing	-9.50458
▁pediatric	-9.50498
▁peptides	-9.50545
▁root	-9.5055
▁From	-9.50664
▁appeared	-9.50723
▁grade	-9.50828
▁analysed	-9.50834
▁Since	-9.50863
sectional	-9.50866
▁families	-9.50892
▁linked	-9.50987
▁impaired	-9.51024
▁ultrasound	-9.51043
▁signals	-9.5108
▁traditional	-9.51086
▁specifically	-9.51119
▁home	-9.5122
▁recommended	-9.51224
▁tumour	-9.51433
▁cord	-9.51486
▁behavioral	-9.51514
▁require	-9.5153
▁superior	-9.51738
▁therapies	-9.51756
▁location	-9.51777
▁yield	-9.51797
▁cultured	-9.51852
▁despite	-9.51953
▁molecule	-9.52176
HT	-9.52245
▁membranes	-9.52376
▁success	-9.52452
▁issues	-9.52508
▁organ	-9.52534
▁base	-9.52579
▁purified	-9.52664
▁recurrent	-9.52679
HR	-9.52701
▁benefits	-9.52715
▁injuries	-9.5274
▁units	-9.52784
▁Twenty	-9.5283
▁almost	-9.52831
▁elderly	-9.52852
▁final	-9.52929
▁infusion	-9.52988
▁fully	-9.53
▁channel	-9.53028
▁recombinant	-9.53068
▁0.05).	-9.53192
▁completely	-9.53274
▁propose	-9.53441
▁allow	-9.53444
▁defects	-9.53545
▁26	-9.53569
▁cancers	-9.53689
▁vitamin	-9.53944
▁gel	-9.53954
▁eyes	-9.54002
▁finding	-9.5414
▁diameter	-9.542
▁IgG	-9.54314
▁media	-9.54555
▁meta	-9.54607
▁physicians	-9.54717
▁enhance	-9.54802
▁potent	-9.54815
▁23	-9.549
▁urine	-9.55149
▁until	-9.55221
▁plus	-9.55246
▁absorption	-9.55251
▁asthma	-9.55441
▁towards	-9.55469
▁noted	-9.55508
▁Overall	-9.55612
and	-9.55984
▁biochemical	-9.55993
▁marrow	-9.5605
▁morphology	-9.56052
▁challenges	-9.56072
▁tools	-9.56073
▁optical	-9.56131
▁kg	-9.56198
▁nucleus	-9.56213
▁nursing	-9.56229
▁cortical	-9.56242
▁fusion	-9.56318
▁observations	-9.56469
▁45	-9.56494
▁indicates	-9.56545
▁gas	-9.56658
▁ratios	-9.56705
▁platelet	-9.56715
▁NO	-9.56857
▁healthcare	-9.56972
▁numbers	-9.57007
▁experiment	-9.57129
▁motion	-9.57153
▁variants	-9.57164
▁movement	-9.57377
month	-9.57434
mg	-9.57485
▁RT	-9.57579
▁Clinical	-9.57673
▁bleeding	-9.57772
▁randomly	-9.57797
▁every	-9.57804
▁like	-9.57828
▁determination	-9.57835
▁framework	-9.57893
▁implementation	-9.57932
▁marked	-9.5795
risk	-9.58104
IL	-9.58125
▁unclear	-9.58151
▁analyze	-9.58221
▁center	-9.583
▁heat	-9.58426
▁minutes	-9.58508
▁reconstruction	-9.58561
▁resistant	-9.5858
at	-9.58619
▁computed	-9.58698
▁presentation	-9.58716
▁algorithm	-9.58773
▁Because	-9.58783
▁probably	-9.58898
▁close	-9.58944
▁susceptibility	-9.59285
▁extraction	-9.59361
▁great	-9.59379
▁stimuli	-9.59396
▁distal	-9.59404
▁spectrum	-9.59431
▁complication	-9.59539
▁January	-9.59619
▁contained	-9.59645
▁whose	-9.5966
▁dogs	-9.59715
▁32	-9.59751
▁compound	-9.59887
3,	-9.59947
▁nm	-9.59965
▁inhibit	-9.60038
▁communication	-9.6009
▁preparation	-9.60323
▁dental	-9.60367
▁agreement	-9.60393
▁preoperative	-9.604
▁red	-9.6052
▁IV	-9.6053
-4	-9.60584
▁COVID	-9.60628
▁apparent	-9.6067
▁diversity	-9.60675
resistant	-9.6069
en	-9.6075
▁mM	-9.60769
▁MS	-9.60801
negative	-9.60926
▁emergency	-9.60978
▁oxide	-9.6104
▁database	-9.61145
▁developmental	-9.61211
▁lymphocytes	-9.61308
▁neck	-9.61401
ion	-9.61404
▁seems	-9.61463
▁ml	-9.61669
SD	-9.61675
▁genomic	-9.61691
▁Co	-9.61766
▁Hospital	-9.61832
ase	-9.62045
▁possibility	-9.62066
▁fracture	-9.62068
▁tolerance	-9.62099
▁targeted	-9.6219
▁medication	-9.62216
▁suitable	-9.62298
▁routine	-9.62383
▁spontaneous	-9.62451
▁ligand	-9.62468
▁middle	-9.62471
▁event	-9.62483
▁nervous	-9.62531
ated	-9.62538
▁extensive	-9.62639
▁synthesized	-9.62644
▁ATP	-9.62655
▁address	-9.6285
▁ovarian	-9.62906
▁situ	-9.62914
▁school	-9.63068
▁donor	-9.63102
▁extract	-9.63156
▁psychological	-9.63202
▁pathological	-9.63255
▁4-	-9.63324
▁adolescents	-9.63327
▁down	-9.63445
▁what	-9.63646
▁far	-9.63724
ized	-9.63733
▁hepatitis	-9.63739
▁reliable	-9.63742
et	-9.63764
▁protection	-9.63888
▁36	-9.64079
▁Several	-9.64127
▁Recent	-9.64184
▁promote	-9.64268
▁excellent	-9.6427
▁crucial	-9.64276
▁nor	-9.64355
▁achieve	-9.64421
▁varied	-9.64638
▁hospitals	-9.64816
▁choice	-9.64872
▁(4	-9.64977
▁curve	-9.65072
▁metastatic	-9.6508
▁stimulated	-9.65125
▁(10	-9.65128
co	-9.65292
▁intact	-9.65295
▁protective	-9.65332
▁adhesion	-9.65337
▁thickness	-9.65338
▁prediction	-9.65452
▁nano	-9.65493
▁polymerase	-9.65496
▁ischemia	-9.65677
▁existing	-9.65732
-5	-9.65773
▁primarily	-9.65775
▁working	-9.65775
▁nurses	-9.65781
▁macrophages	-9.65819
▁bladder	-9.65925
▁showing	-9.66026
▁maintenance	-9.66056
▁enrolled	-9.66108
▁distance	-9.66109
▁mode	-9.6611
▁prolonged	-9.66132
Ca	-9.66215
▁spectroscopy	-9.66242
▁channels	-9.66379
▁endogenous	-9.66498
11	-9.66532
▁practices	-9.66642
▁comprehensive	-9.66681
3)	-9.66836
▁infarction	-9.66937
▁his	-9.66957
▁classified	-9.67059
▁illness	-9.6707
▁27	-9.671
▁diverse	-9.67171
▁random	-9.67181
▁delayed	-9.67207
▁US	-9.67229
▁venous	-9.67452
▁failed	-9.67458
▁observation	-9.67502
▁bilateral	-9.67518
mL	-9.67537
▁United	-9.67558
▁records	-9.67585
▁smaller	-9.67597
▁gain	-9.67779
▁view	-9.67849
PD	-9.67863
▁intravenous	-9.67921
▁National	-9.67998
ii	-9.68032
▁largely	-9.68061
▁sp	-9.68242
(-1)	-9.68284
▁growing	-9.68298
▁synthetic	-9.68365
▁behaviors	-9.68452
▁intermediate	-9.68518
▁block	-9.68519
▁devices	-9.68541
▁antibiotic	-9.68643
▁photo	-9.68713
▁improving	-9.68819
▁added	-9.68853
▁nine	-9.68886
▁establish	-9.6908
▁0.5	-9.69266
▁invasion	-9.69284
▁recognized	-9.69324
▁serious	-9.6935
▁Chinese	-9.69428
▁replication	-9.69428
▁deep	-9.69473
▁replacement	-9.69526
▁37	-9.69536
▁typical	-9.69701
▁localization	-9.69705
st	-9.69743
RT	-9.6983
group	-9.69957
▁done	-9.70027
▁mutants	-9.70055
mm	-9.70094
▁understood	-9.70139
▁Only	-9.70232
▁proximal	-9.70265
▁extracted	-9.70641
▁targeting	-9.7079
▁concluded	-9.70816
▁American	-9.70829
▁workers	-9.70871
▁node	-9.70932
▁focused	-9.71066
▁milk	-9.71123
▁knee	-9.71206
▁perceived	-9.71229
▁making	-9.71261
ol	-9.71301
▁repeated	-9.71371
▁parents	-9.71422
▁below	-9.71472
▁Treatment	-9.71609
▁place	-9.71692
▁sufficient	-9.71708
▁networks	-9.71777
▁fractures	-9.7184
▁describes	-9.71865
▁transient	-9.71913
▁ischemic	-9.72
▁term	-9.72058
▁benign	-9.72088
▁progressive	-9.72097
14	-9.72126
▁reveal	-9.7213
▁represents	-9.72186
▁closely	-9.72206
▁influenced	-9.72279
▁others	-9.72303
▁wound	-9.72336
▁man	-9.72417
▁oxidation	-9.72434
▁service	-9.72448
▁Scale	-9.72508
▁retinal	-9.72672
▁minimal	-9.72684
▁questions	-9.72706
▁6-	-9.72868
▁logistic	-9.72916
▁exhibit	-9.72953
▁subject	-9.73006
▁goal	-9.73025
▁substantial	-9.7306
▁colon	-9.73073
▁obtain	-9.73105
▁national	-9.73197
40	-9.73223
▁partially	-9.73343
▁shape	-9.73394
▁ranged	-9.73398
▁maintained	-9.734
▁fast	-9.73442
▁comparing	-9.73594
▁AD	-9.7376
▁explored	-9.73799
▁(3)	-9.73921
▁balance	-9.74019
▁Re	-9.74108
▁markedly	-9.74146
▁initiation	-9.74162
▁oil	-9.74226
▁sampling	-9.74275
▁resources	-9.74295
▁treat	-9.74298
▁Western	-9.7431
▁Fe	-9.74351
▁rise	-9.7436
▁bound	-9.74545
▁variations	-9.7467
▁vein	-9.74689
▁periods	-9.74708
▁New	-9.74718
▁pathology	-9.74888
▁reverse	-9.74985
16	-9.75015
▁CA	-9.75129
▁sensory	-9.75136
▁amounts	-9.75203
▁31	-9.75267
▁contribution	-9.75329
▁%	-9.75393
▁feeding	-9.75405
▁solutions	-9.75407
▁nanoparticles	-9.75429
ia	-9.75432
▁Four	-9.75443
de	-9.75447
▁facilitate	-9.75601
▁fed	-9.75616
▁genotype	-9.75762
▁latter	-9.75833
▁AT	-9.75908
▁2,	-9.75931
▁microg	-9.75935
▁died	-9.7596
▁explain	-9.76039
▁metabolites	-9.76059
OH	-9.76115
▁effectively	-9.76202
▁month	-9.76209
▁beneficial	-9.76234
▁example	-9.76277
▁affecting	-9.76318
▁independently	-9.76338
▁neurological	-9.76422
▁regulated	-9.76532
▁antigens	-9.76549
▁date	-9.76579
▁soft	-9.76616
level	-9.76677
▁shift	-9.76791
▁discharge	-9.76797
▁regional	-9.7684
▁necrosis	-9.76892
3-	-9.76896
▁hundred	-9.76963
ine	-9.76982
▁transcriptional	-9.77068
▁Additionally	-9.77113
▁consequences	-9.77322
▁earlier	-9.77543
gastrointestinal	-9.77598
▁limit	-9.77616
▁occurring	-9.77695
▁extended	-9.7772
▁threshold	-9.77813
▁recommendations	-9.77838
gamma	-9.7793
▁validated	-9.77992
▁metastases	-9.78
CO	-9.78083
▁reactive	-9.78116
▁behaviour	-9.78122
▁80	-9.78152
▁intensive	-9.78152
▁cannot	-9.7819
▁RA	-9.78196
▁29	-9.78262
▁intervals	-9.78277
▁poorly	-9.78283
▁positively	-9.78339
▁back	-9.78405
▁fibrosis	-9.78424
▁except	-9.78451
▁equal	-9.78467
▁radical	-9.78668
(3)	-9.78724
▁MR	-9.78744
▁burden	-9.78774
▁remaining	-9.78798
▁native	-9.78879
▁matter	-9.78893
▁concept	-9.78925
▁(8	-9.78938
▁neonatal	-9.78994
▁et	-9.79198
▁error	-9.79211
▁risks	-9.79326
▁localized	-9.79349
DM	-9.79375
▁estimates	-9.79531
▁(6	-9.79572
▁persons	-9.79622
▁settings	-9.7966
▁ethanol	-9.79678
characterization	-9.79686
dose	-9.79732
▁conserved	-9.7976
▁admission	-9.79768
▁newly	-9.79868
▁modification	-9.79992
▁skeletal	-9.80002
▁States	-9.8004
▁Some	-9.80276
id	-9.80347
▁allowed	-9.804
▁nucleotide	-9.8043
-10	-9.80435
▁perform	-9.80452
▁identical	-9.80502
▁clearly	-9.80505
▁introduced	-9.80527
▁hip	-9.80596
▁fish	-9.80597
age	-9.80619
▁histological	-9.80746
▁70	-9.80783
▁leukemia	-9.80798
▁consisted	-9.80829
▁parallel	-9.8084
▁defect	-9.80874
▁diffusion	-9.80895
▁90	-9.8091
▁symptom	-9.80958
▁presenting	-9.80992
▁us	-9.81102
▁aims	-9.81307
▁psychiatric	-9.8136
▁morphological	-9.81394
▁monoclonal	-9.81461
▁presents	-9.81619
▁hydrogen	-9.81654
▁characterize	-9.81692
▁slow	-9.81778
▁magnitude	-9.81886
▁University	-9.81901
▁enhancement	-9.81905
▁China	-9.81921
▁dominant	-9.81953
▁predictors	-9.82033
▁organs	-9.82171
▁ions	-9.8223
▁vessels	-9.82232
containing	-9.82263
▁storage	-9.82265
▁Compared	-9.82284
▁satisfaction	-9.82286
▁encoding	-9.82304
▁world	-9.82319
▁multivariate	-9.82325
▁whom	-9.82357
▁adequate	-9.82374
▁childhood	-9.82512
▁detailed	-9.82659
▁healing	-9.82666
▁antagonist	-9.82837
▁electronic	-9.83006
▁contain	-9.83029
▁velocity	-9.83043
z	-9.83106
▁valve	-9.83131
▁decline	-9.83207
4,	-9.83276
▁probe	-9.83335
▁thought	-9.83416
▁colorectal	-9.83532
▁muscles	-9.83535
▁separation	-9.83563
▁face	-9.83616
▁viruses	-9.8362
▁fiber	-9.83624
▁SD	-9.83628
▁slightly	-9.83659
▁broad	-9.8368
▁vector	-9.83848
▁Mean	-9.83899
▁measuring	-9.83908
▁confirm	-9.83932
▁fibers	-9.84016
control	-9.84109
▁smooth	-9.84112
▁load	-9.84124
▁contains	-9.84127
▁airway	-9.84136
(+)	-9.84428
▁act	-9.84442
▁perfusion	-9.84512
inflammatory	-9.84575
▁maximal	-9.84592
▁organisms	-9.84738
ant	-9.8475
▁antioxidant	-9.84759
▁33	-9.84761
▁(7	-9.84764
▁decreases	-9.84856
▁affects	-9.84877
▁suppression	-9.85008
▁phosphate	-9.85017
▁Cu	-9.85017
▁atrial	-9.85062
▁assigned	-9.8513
▁policy	-9.8513
phase	-9.85146
▁al	-9.8515
▁10%	-9.85197
years	-9.85347
▁mono	-9.85381
▁planning	-9.85446
III	-9.85488
57	-9.85605
▁micrograms	-9.85827
▁acquired	-9.8585
▁stimulus	-9.85888
▁lymphoma	-9.85921
-8	-9.85949
▁placed	-9.85964
▁injected	-9.86057
▁0.001).	-9.86074
▁exchange	-9.86105
▁Analysis	-9.86155
19	-9.86189
▁200	-9.86295
▁efforts	-9.86324
▁antibiotics	-9.86529
▁accompanied	-9.8654
stage	-9.86545
▁biomarkers	-9.86561
38	-9.86577
▁spectra	-9.86594
▁reproductive	-9.86633
▁mammalian	-9.86648
▁v	-9.86837
▁appearance	-9.86843
▁shock	-9.86884
▁thermal	-9.86886
▁displayed	-9.86895
▁congenital	-9.87041
▁l	-9.87055
▁arteries	-9.87126
▁surfaces	-9.87161
▁serve	-9.8721
▁extracts	-9.87226
▁feature	-9.87266
▁subunit	-9.87429
week	-9.87446
▁capable	-9.87452
scale	-9.87494
▁staff	-9.87497
▁emotional	-9.8753
▁irradiation	-9.87546
▁integrated	-9.87548
▁Many	-9.87574
▁theoretical	-9.87582
▁experiences	-9.87615
▁HR	-9.87685
▁economic	-9.8776
▁f	-9.8777
▁clinic	-9.8785
no	-9.87867
▁radiotherapy	-9.87887
▁residual	-9.87896
▁transformation	-9.87906
▁inclusion	-9.87981
▁admitted	-9.87989
4)	-9.87992
▁conversion	-9.88002
▁trend	-9.88093
▁skills	-9.88192
▁allele	-9.88219
linked	-9.88277
▁matched	-9.88302
▁retrospectively	-9.88321
▁original	-9.88328
▁toxic	-9.8833
▁emission	-9.88445
▁nitrogen	-9.88468
▁microbial	-9.88531
IV	-9.88558
▁articles	-9.88585
▁validity	-9.88615
▁persistent	-9.8869
▁controlling	-9.88835
▁demonstrates	-9.88878
▁scanning	-9.89002
▁supported	-9.89023
▁receive	-9.89128
▁simultaneously	-9.89147
▁progress	-9.89159
▁substrates	-9.89191
▁clearance	-9.89211
▁separate	-9.8926
▁considerable	-9.89276
rs	-9.89319
▁aging	-9.89358
▁34	-9.89405
▁variant	-9.89458
▁pregnant	-9.89536
18	-9.89546
▁documented	-9.89593
▁implant	-9.89671
▁High	-9.89757
▁fact	-9.89761
▁angle	-9.89823
▁0.05)	-9.89832
▁includes	-9.89838
analysis	-9.8984
▁qualitative	-9.89859
▁semi	-9.8989
▁tri	-9.89894
▁met	-9.8994
▁cluster	-9.89945
▁stay	-9.90041
▁tyrosine	-9.90046
▁numerous	-9.90105
▁sustained	-9.90119
▁removed	-9.90156
amino	-9.90158
▁melanoma	-9.90161
▁Medical	-9.90388
▁spectrometry	-9.90431
▁derivatives	-9.90434
▁special	-9.90477
CA	-9.90479
▁Study	-9.90519
SS	-9.9053
▁longitudinal	-9.90675
-7	-9.90696
▁cent	-9.90743
▁dependence	-9.90796
▁output	-9.90822
▁HLA	-9.90824
▁minor	-9.90987
▁odds	-9.91132
�=�	-9.91194
▁younger	-9.91296
EC	-9.91377
▁determining	-9.91388
▁transplant	-9.91396
▁modulation	-9.91434
▁investigations	-9.91455
▁mothers	-9.91477
▁dual	-9.91507
▁tuberculosis	-9.91527
▁OR	-9.91586
▁deaths	-9.91663
▁fixation	-9.91681
▁European	-9.91709
RA	-9.91722
▁coefficient	-9.91727
▁chest	-9.9174
▁peri	-9.91821
infected	-9.91915
▁correlations	-9.91925
▁kinetics	-9.91984
▁possibly	-9.92077
▁yeast	-9.92163
▁amplitude	-9.92189
▁count	-9.92229
▁availability	-9.92258
▁reliability	-9.9226
▁background	-9.92427
▁limitations	-9.92465
▁ten	-9.92474
▁simulation	-9.92517
▁reached	-9.92622
▁infectious	-9.92696
▁More	-9.92701
▁identifying	-9.92722
▁polymorphism	-9.92755
▁frequencies	-9.92824
▁sperm	-9.92834
▁nasal	-9.92865
ous	-9.92936
▁height	-9.92968
▁bias	-9.93011
sensitive	-9.9305
▁issue	-9.93198
▁changed	-9.93203
▁cytokines	-9.9321
regulated	-9.93224
▁rehabilitation	-9.93245
▁explained	-9.93284
▁fragment	-9.93347
▁coupled	-9.93393
70	-9.93396
▁0.1	-9.93537
▁implantation	-9.93563
13	-9.93589
▁spread	-9.93591
▁Participants	-9.93744
protein	-9.9379
▁delay	-9.93832
▁consider	-9.93931
▁fixed	-9.93973
▁catheter	-9.94015
▁probability	-9.94028
▁December	-9.9421
▁limb	-9.94236
▁increasingly	-9.94265
▁Thirty	-9.94368
▁65	-9.94543
▁functioning	-9.94548
▁involves	-9.94586
▁advances	-9.9459
▁phenomenon	-9.94596
▁regulate	-9.94609
hydroxy	-9.94705
▁42	-9.94714
▁computer	-9.94726
▁ST	-9.94741
NO	-9.94748
20	-9.94787
▁generate	-9.94789
▁suppressed	-9.94884
▁treating	-9.94979
▁induces	-9.95135
▁implicated	-9.95172
▁isolation	-9.952
▁advantages	-9.95339
▁vaccination	-9.95368
state	-9.95369
▁thereby	-9.95403
▁Escherichia	-9.95421
▁assessing	-9.95481
▁perception	-9.95495
▁woman	-9.95499
▁subsequently	-9.95503
▁saline	-9.95575
▁constructed	-9.95615
▁concerning	-9.95634
▁ranging	-9.95651
▁retention	-9.95661
as	-9.95724
▁segment	-9.95801
▁traits	-9.95802
▁personal	-9.95839
▁gland	-9.96148
▁speed	-9.96319
▁tasks	-9.96349
▁element	-9.9641
▁IFN	-9.96516
▁extra	-9.96527
▁users	-9.96692
▁entire	-9.96692
un	-9.9677
▁language	-9.96824
▁modeling	-9.96897
(2+)	-9.96931
▁immediately	-9.96986
▁worldwide	-9.97088
▁subjected	-9.97095
ur	-9.97105
▁schizophrenia	-9.97214
▁recruited	-9.97269
▁TNF	-9.9731
▁soluble	-9.97424
▁hypo	-9.97521
▁pairs	-9.97559
▁cDNA	-9.97613
▁practical	-9.97699
▁exist	-9.97727
▁distributed	-9.97823
▁substance	-9.97868
▁bovine	-9.97946
▁salt	-9.98042
▁barrier	-9.98067
▁mid	-9.98083
u	-9.98118
▁symptomatic	-9.98188
▁steps	-9.98217
▁pharmacological	-9.98269
▁cytokine	-9.98278
▁proved	-9.9828
▁interviews	-9.98329
▁collection	-9.9843
▁suspected	-9.98462
▁stenosis	-9.98496
▁regard	-9.98549
▁ER	-9.98589
▁organization	-9.98606
▁hybridization	-9.98672
Cl	-9.98699
▁adherence	-9.98705
▁physician	-9.98755
▁72	-9.98759
▁correct	-9.98771
▁communities	-9.98858
▁mature	-9.98926
▁dopamine	-9.99035
▁fractions	-9.99039
▁fragments	-9.99063
▁variance	-9.99106
▁gradient	-9.99167
▁reflect	-9.99181
17	-9.99191
▁incubation	-9.99214
15	-9.9922
▁noise	-9.99275
▁1)	-9.9936
▁pathogens	-9.99428
▁arthritis	-9.99453
▁maintain	-9.99504
▁depending	-9.99535
▁20%	-9.99573
▁varying	-9.99598
▁38	-9.99663
▁cycles	-9.99689
▁nodes	-9.99721
▁PI	-9.9978
▁direction	-9.99809
▁own	-9.99903
▁methylation	-9.99917
BP	-9.99919
▁carotid	-9.99976
▁disability	-9.99977
+/-	-9.99988
▁femoral	-10.0003
▁reporting	-10.0004
▁scientific	-10.0012
▁electrical	-10.0016
▁epithelium	-10.0018
▁hearing	-10.0022
▁taking	-10.0025
▁Such	-10.0027
▁take	-10.0029
27	-10.0035
▁utilization	-10.0051
▁biology	-10.0054
▁hospitalization	-10.0058
▁simulations	-10.0067
▁centers	-10.0071
▁bi	-10.0074
▁2.5	-10.0076
▁arm	-10.0086
▁lowest	-10.0088
▁UV	-10.0088
▁composed	-10.0093
▁insights	-10.0095
▁referred	-10.0097
▁catalytic	-10.0111
▁circulating	-10.0113
▁BMI	-10.0114
▁heterogeneity	-10.0115
▁depends	-10.0118
▁actions	-10.0124
▁evaluating	-10.0126
ER	-10.0127
▁tube	-10.0132
▁Five	-10.0137
▁highlight	-10.0137
▁negatively	-10.0146
▁methyl	-10.0149
▁polymer	-10.0149
▁initially	-10.015
tri	-10.0153
▁feedback	-10.0164
▁antimicrobial	-10.0169
▁band	-10.0172
▁minimum	-10.0182
▁rest	-10.0183
▁robust	-10.0189
▁ex	-10.0191
▁databases	-10.0196
▁fields	-10.0197
▁candidate	-10.0197
▁adjusted	-10.0204
RR	-10.0208
▁100%	-10.021
▁mixture	-10.0212
ating	-10.0223
▁particle	-10.0225
▁integration	-10.0229
%	-10.0232
▁give	-10.0252
▁offer	-10.0252
21	-10.0252
▁albumin	-10.0256
▁murine	-10.026
▁shorter	-10.0261
▁rural	-10.0262
▁coupling	-10.0266
▁software	-10.027
▁monitored	-10.0274
▁ED	-10.0279
▁options	-10.0282
▁endoscopic	-10.0283
▁wave	-10.029
▁immediate	-10.029
▁HCC	-10.0295
▁actin	-10.0298
▁adjacent	-10.0301
▁valuable	-10.0301
▁sections	-10.0303
▁pulse	-10.0303
▁challenging	-10.031
▁barriers	-10.0311
▁aqueous	-10.0311
▁dementia	-10.0316
▁bowel	-10.0319
▁define	-10.0329
ar	-10.0332
▁surveillance	-10.0333
▁Each	-10.0334
▁though	-10.0334
▁phases	-10.0339
▁para	-10.0344
▁interface	-10.0347
▁immunity	-10.0347
▁demographic	-10.0352
▁influenza	-10.0352
▁LC	-10.0353
▁fluorescent	-10.0359
ST	-10.036
ac	-10.0362
▁emerging	-10.0367
▁became	-10.038
▁Studies	-10.0381
▁urban	-10.0382
▁If	-10.0387
▁equivalent	-10.0396
▁PC	-10.0397
▁medial	-10.0408
▁question	-10.0409
CH	-10.0417
ta	-10.0432
▁Hg	-10.0437
▁occlusion	-10.044
▁1.5	-10.0441
▁professional	-10.0442
-9	-10.0448
▁categories	-10.0448
▁embryos	-10.045
▁released	-10.0455
▁consisting	-10.0462
▁alter	-10.0468
▁once	-10.0469
less	-10.0478
▁professionals	-10.0489
▁extremely	-10.0503
▁predominantly	-10.0514
▁expansion	-10.0523
▁viability	-10.0523
AP	-10.0524
▁utilized	-10.0526
▁segments	-10.0532
▁heavy	-10.0534
AD	-10.0534
▁39	-10.054
▁standardized	-10.0542
▁bind	-10.0543
▁blot	-10.055
▁excretion	-10.0554
▁HPV	-10.0557
▁scan	-10.0559
▁easily	-10.0566
▁African	-10.0569
▁deletion	-10.0582
▁adaptation	-10.0583
activated	-10.0585
▁laparoscopic	-10.0602
▁HCV	-10.0603
▁anesthesia	-10.0606
▁parameter	-10.0607
▁residents	-10.0612
▁blocked	-10.0615
▁fibroblasts	-10.0618
▁regimen	-10.0629
▁dorsal	-10.0634
IR	-10.0639
▁sets	-10.0646
▁prevented	-10.0651
▁mostly	-10.0656
▁errors	-10.0662
▁methodology	-10.0678
▁putative	-10.0681
▁tumours	-10.0685
▁volunteers	-10.0692
▁250	-10.0694
▁adsorption	-10.0696
▁operating	-10.0696
▁always	-10.0697
▁mucosa	-10.07
▁attributed	-10.0701
▁bypass	-10.0704
▁bile	-10.0712
▁improvements	-10.0721
▁insight	-10.0722
▁complement	-10.0726
▁implemented	-10.0743
▁axis	-10.0748
▁zone	-10.0748
▁agonist	-10.0749
▁depressive	-10.075
▁hypothesized	-10.0752
▁ventilation	-10.0755
▁BP	-10.0756
▁synaptic	-10.0756
OL	-10.0761
▁causing	-10.0762
▁polymorphisms	-10.0762
▁charge	-10.0764
▁TB	-10.0766
▁expressing	-10.0783
▁Previous	-10.0784
],	-10.0788
▁loading	-10.0793
▁embryonic	-10.0812
▁recovered	-10.0818
▁2)	-10.0822
▁asymptomatic	-10.0823
▁episodes	-10.0828
▁(9	-10.0837
▁clusters	-10.0841
▁ring	-10.0841
▁pharmacokinetic	-10.0843
▁untreated	-10.0844
▁obstruction	-10.0844
PA	-10.0851
▁hypoxia	-10.0859
▁depth	-10.086
▁pigs	-10.0869
▁greatly	-10.0884
▁75	-10.0904
▁crystal	-10.0907
▁her	-10.0908
▁reduces	-10.091
ive	-10.0911
▁recipients	-10.0912
▁operative	-10.0915
▁clinicians	-10.092
rich	-10.0922
▁abuse	-10.0923
▁mellitus	-10.0925
▁deficits	-10.0935
two	-10.0937
pro	-10.0939
▁providers	-10.0951
physiological	-10.0951
▁continued	-10.0954
▁regulating	-10.0962
▁utility	-10.0964
▁55	-10.0967
▁requirements	-10.0969
▁composite	-10.0969
▁placement	-10.0973
▁0.001)	-10.0974
▁reasons	-10.0974
▁feasibility	-10.0974
▁overexpression	-10.098
▁arrest	-10.0982
▁requiring	-10.0987
▁fever	-10.0989
▁rabbit	-10.0991
▁curves	-10.0999
▁hybrid	-10.1008
▁GC	-10.1012
▁obese	-10.1013
▁Research	-10.1014
▁mitochondria	-10.1016
▁infant	-10.102
▁systolic	-10.1034
▁autoimmune	-10.1038
▁zinc	-10.1041
▁typically	-10.1045
ism	-10.1046
▁10-	-10.105
▁counts	-10.1051
▁detectable	-10.1053
▁sought	-10.1055
▁donors	-10.1063
▁live	-10.1065
▁teeth	-10.1069
▁maturation	-10.1071
▁fundamental	-10.1075
▁facial	-10.1076
▁commercial	-10.1077
RS	-10.1077
▁insertion	-10.1079
AS	-10.108
▁cytotoxic	-10.1086
-1)	-10.1091
▁IGF	-10.1094
▁distress	-10.1113
▁twice	-10.1117
▁correction	-10.1118
cm	-10.1123
tic	-10.1126
▁simultaneous	-10.1133
-2-	-10.1137
▁nearly	-10.1155
▁nuclei	-10.1157
▁temperatures	-10.1161
▁sulfate	-10.1163
histochemistry	-10.1167
▁consensus	-10.1171
▁excess	-10.1174
US	-10.1177
▁deposition	-10.118
▁lacking	-10.1186
▁department	-10.119
▁Human	-10.1194
▁already	-10.1199
▁acquisition	-10.1203
▁angiography	-10.1207
▁introduction	-10.1217
▁spine	-10.122
▁aggregation	-10.1222
▁educational	-10.123
▁epilepsy	-10.1231
▁existence	-10.1247
IC	-10.1252
▁restricted	-10.1253
ment	-10.126
▁restriction	-10.1263
▁limits	-10.1265
▁protocols	-10.1276
▁cartilage	-10.1278
▁dry	-10.1279
DNA	-10.1287
▁cavity	-10.1289
▁called	-10.1291
▁loci	-10.1296
▁GH	-10.1309
▁undertaken	-10.1309
▁cleavage	-10.131
▁Recently	-10.1316
▁heterogeneous	-10.1318
▁reviews	-10.1323
▁indices	-10.1324
▁discovery	-10.133
▁locus	-10.1332
▁items	-10.1333
▁extension	-10.1337
▁bond	-10.1342
▁manifestations	-10.1343
▁spectral	-10.1346
ability	-10.1346
▁nutritional	-10.135
▁express	-10.1352
▁(20	-10.1353
(1)	-10.1353
▁cytoplasmic	-10.1358
▁predicting	-10.136
25	-10.1366
PS	-10.1371
4-	-10.1379
▁relaxation	-10.1385
▁comparative	-10.1387
▁environments	-10.14
▁color	-10.1402
▁homeostasis	-10.1404
OS	-10.1407
ul	-10.141
life	-10.141
▁avoid	-10.1411
▁influences	-10.1411
▁decreasing	-10.1412
▁next	-10.1413
▁yielded	-10.1417
▁input	-10.1425
60	-10.1431
▁relapse	-10.1434
2/	-10.1439
▁medications	-10.144
▁cytochrome	-10.1442
▁classes	-10.1445
▁43	-10.1446
▁implants	-10.1447
▁seem	-10.1453
▁regular	-10.1453
▁participation	-10.1454
-1,	-10.1455
▁attenuated	-10.1458
▁sera	-10.1458
▁room	-10.1458
▁differentiated	-10.1463
▁indirect	-10.1465
▁hemorrhage	-10.1468
▁weak	-10.1468
▁Also	-10.1473
▁trends	-10.1474
▁interleukin	-10.1476
▁separated	-10.1478
▁He	-10.1479
PE	-10.1483
▁NF	-10.1486
▁ligands	-10.1487
▁phenotypes	-10.1493
▁preparations	-10.1514
▁dehydrogenase	-10.1516
▁90%	-10.152
▁adaptive	-10.152
▁aggressive	-10.1526
▁fewer	-10.1527
▁LPS	-10.1536
▁concerns	-10.1543
▁electrophoresis	-10.1553
▁gap	-10.1573
▁pathogen	-10.1584
▁offers	-10.1591
▁cyclic	-10.1593
▁drinking	-10.1599
▁thrombosis	-10.16
100	-10.1602
▁respond	-10.1603
▁advantage	-10.1607
▁created	-10.1609
▁elevation	-10.1611
▁Cancer	-10.1611
▁South	-10.1612
reported	-10.1618
▁predictor	-10.1622
▁indicators	-10.163
PI	-10.1631
HA	-10.1632
▁incorporation	-10.1643
grade	-10.1655
SE	-10.1657
▁correlate	-10.166
▁NMR	-10.1661
▁translation	-10.1661
▁movements	-10.1665
▁46	-10.1668
▁pathogenic	-10.1668
▁adjuvant	-10.1671
deficient	-10.1679
▁mapping	-10.1682
▁estimation	-10.1682
▁Serum	-10.1683
▁assembly	-10.1684
▁technologies	-10.1687
ling	-10.1687
▁adenocarcinoma	-10.169
▁reactivity	-10.169
▁aureus	-10.1693
▁prevalent	-10.1697
▁De	-10.1697
▁genotypes	-10.1699
▁Over	-10.1701
▁terminal	-10.1702
▁concern	-10.1703
▁44	-10.1705
▁1.0	-10.1709
▁surrounding	-10.1712
▁evident	-10.1714
▁display	-10.1718
▁PET	-10.1722
ian	-10.1722
▁modifications	-10.1725
▁regeneration	-10.1729
▁pretreatment	-10.1736
▁perspective	-10.1737
▁5%	-10.1739
▁remission	-10.1743
▁synthase	-10.1743
im	-10.1747
off	-10.1749
▁kDa	-10.1762
▁lipoprotein	-10.1764
▁differed	-10.1767
▁vesicles	-10.1771
▁tobacco	-10.1774
▁decades	-10.178
AR	-10.1787
▁online	-10.1788
▁he	-10.1803
▁etiology	-10.1805
▁voltage	-10.1805
osis	-10.1806
histochemical	-10.1812
▁undergo	-10.1818
ED	-10.182
▁Following	-10.183
▁k	-10.1831
▁transgenic	-10.1837
45	-10.1838
▁precursor	-10.1838
▁delta	-10.184
MT	-10.1847
man	-10.1848
▁neutral	-10.1849
▁beyond	-10.1851
▁precise	-10.1851
▁squamous	-10.1853
PC	-10.1855
▁itself	-10.1858
▁susceptible	-10.1864
▁cold	-10.1869
▁emerged	-10.1872
▁screened	-10.1875
▁malaria	-10.1878
▁bodies	-10.188
▁allowing	-10.188
▁coverage	-10.1882
▁sinus	-10.1883
▁Six	-10.1886
▁participated	-10.1916
28	-10.1916
▁intrinsic	-10.1917
▁true	-10.1919
▁complexity	-10.192
▁decisions	-10.1923
▁PA	-10.1926
▁guide	-10.1927
▁orientation	-10.1928
▁SP	-10.1928
▁seizures	-10.1932
▁pneumonia	-10.1937
▁supporting	-10.1938
▁mL	-10.1953
▁80%	-10.1957
▁awareness	-10.1961
▁Other	-10.1962
▁validation	-10.1962
▁abundance	-10.1975
▁potentials	-10.1978
▁vessel	-10.1981
30	-10.1983
▁coding	-10.1984
▁injections	-10.1991
▁30%	-10.1994
▁analytical	-10.1996
▁researchers	-10.1998
-12	-10.1998
▁examinations	-10.1998
▁estrogen	-10.2001
operative	-10.2002
▁malignancy	-10.2007
▁option	-10.2009
▁carcinomas	-10.2017
90	-10.2027
▁auditory	-10.2029
ary	-10.203
▁team	-10.2031
▁parent	-10.2032
▁mobility	-10.2036
▁ELISA	-10.204
▁relevance	-10.2047
▁delivered	-10.2058
▁Non	-10.2078
▁mucosal	-10.2086
▁repeat	-10.2089
▁layers	-10.2092
▁gut	-10.2095
▁version	-10.2097
▁41	-10.2103
▁0.01).	-10.2104
▁inferior	-10.2107
▁dialysis	-10.2107
▁2000	-10.2111
▁focal	-10.2118
▁visits	-10.212
▁attitudes	-10.2126
▁plasmid	-10.2129
▁inhibits	-10.213
▁LV	-10.213
▁Th	-10.2132
▁absolute	-10.2137
▁cytotoxicity	-10.2137
▁nutrition	-10.2144
▁parts	-10.2151
treatment	-10.2151
ad	-10.2159
▁rs	-10.216
▁thin	-10.2161
all	-10.2161
▁spleen	-10.2164
▁classical	-10.2165
▁none	-10.2166
▁gave	-10.219
▁inner	-10.2191
▁ensure	-10.2198
▁contributes	-10.2201
▁amplification	-10.2219
▁evolutionary	-10.2223
▁pelvic	-10.2229
ent	-10.2231
▁similarity	-10.2234
▁interpretation	-10.2235
▁lumbar	-10.2237
con	-10.2249
▁Immuno	-10.2251
▁resource	-10.2252
by	-10.2257
▁NK	-10.2263
▁contents	-10.2263
▁fatigue	-10.2268
▁substances	-10.2281
stimulated	-10.2281
▁supplementation	-10.2289
▁Forty	-10.2293
▁Their	-10.2297
▁excluded	-10.2304
▁grown	-10.2308
▁gold	-10.231
DR	-10.2312
▁LDL	-10.2316
▁identity	-10.2323
▁diffuse	-10.2324
▁situation	-10.2326
▁radio	-10.2336
out	-10.2337
▁phosphatase	-10.2345
▁cutaneous	-10.2346
for	-10.2348
▁Pro	-10.2348
▁simulated	-10.2349
▁feasible	-10.2351
▁international	-10.2352
▁MMP	-10.2358
▁sepsis	-10.2363
▁chloride	-10.2364
▁widespread	-10.2369
BL	-10.2371
▁substantially	-10.2387
▁glutamate	-10.2391
▁parental	-10.2393
▁complicated	-10.2393
▁corneal	-10.2395
▁12-	-10.2396
▁turn	-10.2397
▁circulation	-10.2397
▁green	-10.2399
▁permeability	-10.2401
CS	-10.2404
▁pandemic	-10.2412
SP	-10.2412
▁artificial	-10.2412
itis	-10.242
▁dimensions	-10.2423
▁detecting	-10.2425
▁ways	-10.2432
▁neither	-10.2434
▁Al	-10.2437
▁academic	-10.2437
▁column	-10.2441
▁flap	-10.2443
▁respondents	-10.2444
▁potassium	-10.2451
▁thoracic	-10.2451
24	-10.2453
▁observational	-10.2453
▁labeled	-10.2454
▁technical	-10.2459
ectomy	-10.2461
▁dis	-10.2464
▁3,	-10.2468
▁adjustment	-10.2469
▁ablation	-10.2472
▁interference	-10.248
regulation	-10.248
▁positions	-10.2482
5,	-10.2494
▁Pre	-10.2494
four	-10.2499
▁spin	-10.251
▁preventing	-10.252
▁transcripts	-10.2521
amine	-10.2525
LC	-10.2526
▁HA	-10.253
1/	-10.2534
▁project	-10.2538
me	-10.2539
▁directed	-10.2559
▁degeneration	-10.2559
▁difficulties	-10.256
▁interact	-10.2564
▁toxin	-10.2575
▁120	-10.2578
▁film	-10.2584
▁supports	-10.2589
▁rarely	-10.2596
▁clones	-10.2601
▁subset	-10.2604
it	-10.2607
▁CS	-10.2607
▁glutathione	-10.2609
▁ongoing	-10.261
▁biosynthesis	-10.2611
▁nitric	-10.2612
▁pituitary	-10.2615
▁concomitant	-10.2616
▁enable	-10.2621
▁lost	-10.2624
▁link	-10.2629
▁scales	-10.2631
▁construct	-10.2633
CSF	-10.2638
▁pure	-10.2647
▁52	-10.2649
▁contraction	-10.2654
▁frontal	-10.2657
▁compression	-10.266
▁array	-10.2669
▁esophageal	-10.267
▁speech	-10.2671
▁embryo	-10.2676
five	-10.268
IP	-10.2685
▁ocular	-10.2688
▁VEGF	-10.2692
▁pseudo	-10.2692
▁biopsies	-10.2697
▁attachment	-10.2698
▁proven	-10.27
▁Ag	-10.2705
▁rabbits	-10.271
▁subunits	-10.2711
▁enzymatic	-10.2712
▁exists	-10.2712
▁hair	-10.2715
▁gestation	-10.2717
il	-10.2717
▁vaccines	-10.272
(4)	-10.2729
▁consists	-10.273
▁EC	-10.2732
▁steady	-10.2734
▁reversed	-10.2743
▁raised	-10.2743
ist	-10.2751
▁CP	-10.2752
▁leaf	-10.2755
▁digital	-10.2757
▁combinations	-10.276
▁copper	-10.2762
▁entry	-10.2776
▁false	-10.2777
▁ages	-10.278
▁Under	-10.2787
▁fungal	-10.2788
▁anatomical	-10.2791
ial	-10.2795
▁kinetic	-10.2797
end	-10.2803
▁epidemiological	-10.2807
▁lipids	-10.2819
max	-10.284
▁consistently	-10.2843
▁log	-10.2844
▁dissection	-10.2844
▁closure	-10.2849
▁reach	-10.2849
▁elucidate	-10.2851
▁subjective	-10.286
▁representative	-10.2867
care	-10.2875
▁vary	-10.2877
▁occupational	-10.2878
4+	-10.2881
▁alleles	-10.2893
ve	-10.2894
ir	-10.2902
▁hr	-10.2905
▁mmol	-10.2907
▁uterine	-10.2911
▁aid	-10.2911
▁monitor	-10.2913
▁47	-10.2914
▁calculations	-10.2915
▁downstream	-10.2927
▁subtypes	-10.293
▁steroid	-10.2936
▁pylori	-10.295
▁makes	-10.2951
▁stent	-10.2956
▁outer	-10.2958
▁effort	-10.2961
ex	-10.2963
▁attempt	-10.297
▁0.2	-10.2978
▁AF	-10.2986
▁prospectively	-10.2986
▁addressed	-10.2992
▁overcome	-10.3
ative	-10.3007
▁locations	-10.3009
ium	-10.3014
CR	-10.3019
▁Significant	-10.3019
▁40%	-10.3023
▁quantum	-10.3023
▁likelihood	-10.3025
▁sizes	-10.3027
▁duct	-10.304
▁producing	-10.3044
test	-10.3045
▁teaching	-10.3049
▁opioid	-10.3049
▁Cl	-10.3054
independent	-10.3054
▁determinants	-10.3056
▁involve	-10.3058
▁According	-10.3059
▁maintaining	-10.3059
▁protease	-10.3061
▁girls	-10.3063
▁leaves	-10.3067
▁accurately	-10.3071
▁timing	-10.3078
▁beam	-10.3081
▁nM	-10.3086
▁Con	-10.3087
▁discrimination	-10.3089
▁unusual	-10.3093
▁proper	-10.3104
▁DA	-10.3104
▁MI	-10.3109
▁HF	-10.3111
▁inactivation	-10.3115
▁changing	-10.3116
▁portion	-10.3123
▁sensor	-10.3125
▁49	-10.3133
▁June	-10.3146
▁lymphocyte	-10.3148
▁supply	-10.3148
▁depletion	-10.3149
▁million	-10.3149
▁solvent	-10.315
▁actual	-10.3151
ra	-10.3155
▁starting	-10.3161
▁quantify	-10.3161
▁initiated	-10.3168
na	-10.3173
▁phenotypic	-10.3188
▁CSF	-10.3189
os	-10.319
▁overview	-10.3191
▁beginning	-10.3193
▁compliance	-10.3204
▁56	-10.321
▁ET	-10.3217
▁500	-10.3221
▁person	-10.3222
-3-	-10.3229
▁reading	-10.3237
▁preliminary	-10.324
▁section	-10.324
▁platform	-10.3249
NS	-10.325
non	-10.325
▁annual	-10.3253
▁video	-10.3253
▁efficiently	-10.3253
▁films	-10.3256
▁questionnaires	-10.3257
▁LH	-10.3257
te	-10.327
▁shared	-10.3272
PR	-10.3273
▁OS	-10.3275
▁namely	-10.3275
▁deviation	-10.3279
▁Alzheimer	-10.3283
▁0.05	-10.3289
▁grafts	-10.3289
matched	-10.3296
▁cAMP	-10.3303
▁diagnoses	-10.3304
▁favorable	-10.3314
▁quantified	-10.3322
▁represented	-10.3326
▁unilateral	-10.3329
▁hippocampus	-10.3329
▁Interestingly	-10.333
▁interferon	-10.3339
CoV	-10.3339
▁scans	-10.3342
▁consequence	-10.3343
▁8-	-10.3348
▁resting	-10.3353
▁member	-10.3356
▁infiltration	-10.3356
▁hemoglobin	-10.3371
▁vital	-10.3372
assisted	-10.3382
▁Blood	-10.3385
44	-10.3389
▁greatest	-10.339
▁cut	-10.3391
▁heparin	-10.3393
le	-10.3395
▁fall	-10.3398
▁Ten	-10.3402
▁performing	-10.3405
▁PM	-10.3408
34	-10.3414
▁lactate	-10.3415
▁computational	-10.3426
▁evoked	-10.3427
ter	-10.3431
▁chromatin	-10.3434
▁instability	-10.3434
▁chains	-10.3435
▁regardless	-10.3439
▁outside	-10.3439
23	-10.3442
▁residue	-10.3444
▁Japanese	-10.3447
▁Children	-10.3451
per	-10.3454
▁indications	-10.3461
median	-10.3462
▁outpatient	-10.3463
FA	-10.3472
▁preferred	-10.3475
▁pronounced	-10.3477
▁intraoperative	-10.3481
▁reveals	-10.3481
▁coefficients	-10.3483
▁peritoneal	-10.3485
▁regimens	-10.3497
▁exogenous	-10.3498
▁unchanged	-10.3498
▁Mg	-10.3502
▁recruitment	-10.3504
MD	-10.3514
am	-10.3516
▁sessions	-10.3517
35	-10.3519
▁panel	-10.3523
▁blue	-10.3525
▁contamination	-10.3528
▁51	-10.3529
▁demonstrating	-10.3529
▁March	-10.353
▁hormones	-10.3531
▁percutaneous	-10.3532
▁faster	-10.3532
▁adrenal	-10.3532
▁off	-10.3541
▁caspase	-10.3543
▁absent	-10.3544
izing	-10.3545
▁survivors	-10.3561
ene	-10.3563
▁ear	-10.3573
▁lip	-10.3576
▁foot	-10.3576
AC	-10.3577
ty	-10.3578
▁considering	-10.358
▁electrode	-10.3581
▁largest	-10.3586
▁mineral	-10.3591
▁aneurysm	-10.3592
▁parasite	-10.3593
▁First	-10.3595
▁loop	-10.3597
▁start	-10.3598
▁hydrolysis	-10.3599
▁hypertensive	-10.3601
▁participate	-10.3618
AT	-10.3619
▁pilot	-10.3624
▁modalities	-10.363
▁fine	-10.3634
▁DC	-10.3636
▁plaque	-10.3637
three	-10.3639
▁country	-10.3642
▁powerful	-10.3643
▁disc	-10.3645
ca	-10.3655
▁DM	-10.3656
▁surgeons	-10.3658
▁consideration	-10.3658
▁rejection	-10.3661
5-	-10.3661
▁adenosine	-10.3663
▁vision	-10.3677
▁uses	-10.3679
▁Ni	-10.368
▁0.01)	-10.3682
ised	-10.3683
▁promoting	-10.3687
▁testosterone	-10.3687
▁improves	-10.3692
▁54	-10.37
1),	-10.3702
▁plan	-10.3709
6,	-10.371
▁acceptable	-10.3718
▁edema	-10.3719
▁capillary	-10.3726
▁representing	-10.3726
▁indicator	-10.3727
▁closed	-10.3728
▁dosage	-10.3731
▁precision	-10.3733
▁screen	-10.3734
▁differentially	-10.3743
▁excision	-10.3744
▁labeling	-10.3749
▁principles	-10.375
▁auto	-10.3759
▁cyst	-10.3762
▁antagonists	-10.3773
▁AR	-10.3773
▁allergic	-10.3774
GC	-10.3782
▁abundant	-10.3791
▁super	-10.38
▁Cell	-10.38
▁tertiary	-10.3801
▁climate	-10.3804
▁oxidase	-10.381
▁vaginal	-10.3812
▁somatic	-10.383
▁2.0	-10.3836
▁suffering	-10.3838
▁sclerosis	-10.3843
▁highlights	-10.3847
▁lens	-10.3851
▁apoptotic	-10.3854
▁NP	-10.3857
▁equation	-10.3862
▁International	-10.3863
▁150	-10.3864
▁black	-10.3865
▁smokers	-10.387
▁Bio	-10.3875
▁carriers	-10.3878
MI	-10.3881
ical	-10.3884
SO	-10.3886
▁integrity	-10.3888
▁searched	-10.3895
])	-10.3905
▁plate	-10.3909
▁selectively	-10.3917
2),	-10.392
▁gestational	-10.3924
▁situations	-10.3925
▁map	-10.3925
▁create	-10.3926
▁assessments	-10.3931
▁managed	-10.3936
▁subgroup	-10.3943
▁depend	-10.3946
▁mother	-10.3956
▁Type	-10.3958
▁trained	-10.3968
▁cytometry	-10.3968
▁mmHg	-10.3971
▁acetate	-10.3971
▁volumes	-10.3972
▁summary	-10.3979
▁Doppler	-10.3981
▁AP	-10.3982
ies	-10.3986
▁incorporated	-10.4001
ma	-10.4002
▁route	-10.4002
▁NS	-10.4007
▁modulate	-10.4007
adjusted	-10.401
▁modern	-10.401
▁discovered	-10.4014
CM	-10.4017
▁modes	-10.4018
▁Early	-10.4018
▁hippocampal	-10.4019
▁CNS	-10.4024
▁IR	-10.403
▁tension	-10.4031
▁60%	-10.4034
▁yields	-10.4038
▁cumulative	-10.4044
▁CH	-10.4046
response	-10.4062
▁phylogenetic	-10.4066
▁readily	-10.4069
wide	-10.4071
▁genus	-10.4074
▁elimination	-10.408
▁suicide	-10.4082
ch	-10.4087
▁binds	-10.4091
▁rotation	-10.4093
▁standards	-10.4105
▁diastolic	-10.4105
▁atherosclerosis	-10.4114
controlled	-10.4115
est	-10.4118
▁Cd	-10.4127
▁300	-10.4129
▁responded	-10.4129
▁anemia	-10.413
▁diets	-10.4134
▁discussion	-10.4139
▁distributions	-10.4141
▁probes	-10.4145
▁microscopic	-10.415
▁Plasma	-10.4154
▁object	-10.4157
▁protect	-10.416
2).	-10.416
▁operations	-10.4162
▁principal	-10.4162
▁instrument	-10.4163
(-)	-10.4169
DA	-10.4169
▁CR	-10.4173
▁prominent	-10.4176
▁53	-10.4179
▁nurse	-10.418
▁chromosomal	-10.4181
▁race	-10.4182
▁preterm	-10.4183
▁forces	-10.4186
MRI	-10.4188
▁opportunities	-10.4191
▁correlates	-10.4191
▁intracranial	-10.4195
▁cirrhosis	-10.4199
▁experimentally	-10.4204
▁preference	-10.4205
ID	-10.4207
▁Africa	-10.421
▁comprised	-10.421
field	-10.4211
▁0.01	-10.4217
▁science	-10.4219
▁cloned	-10.4221
▁leg	-10.4227
▁just	-10.4228
▁never	-10.4234
22	-10.4239
▁sheep	-10.4244
SF	-10.4246
▁description	-10.4255
▁systematically	-10.4259
▁contributed	-10.4263
▁worse	-10.4266
transferase	-10.4266
▁May	-10.4268
CP	-10.4269
▁0.02	-10.427
▁equilibrium	-10.428
▁comparisons	-10.4283
▁portal	-10.4283
isation	-10.4284
▁quantification	-10.4287
phenyl	-10.4292
▁motility	-10.4292
▁FA	-10.4295
▁aorta	-10.43
▁engineering	-10.4301
▁emphasis	-10.4303
six	-10.4304
▁selectivity	-10.4309
▁Index	-10.4315
▁decade	-10.432
mo	-10.432
▁drainage	-10.4321
▁vehicle	-10.4321
AF	-10.4321
▁malignancies	-10.4324
▁detail	-10.4331
▁reason	-10.4332
▁studying	-10.4343
▁postnatal	-10.4345
▁spp	-10.4346
ET	-10.4349
▁algorithms	-10.4355
▁pathophysiology	-10.4356
▁creatinine	-10.4362
▁elicited	-10.4365
▁translocation	-10.4367
▁proton	-10.4371
▁remodeling	-10.4373
▁onto	-10.4376
io	-10.438
▁70%	-10.4395
▁metabolite	-10.4395
▁focusing	-10.4395
▁rectal	-10.4399
▁guidance	-10.4403
▁fresh	-10.4411
▁facilities	-10.4411
ton	-10.4413
▁reversible	-10.4425
▁epidermal	-10.4428
▁HBV	-10.4428
ry	-10.4437
▁disruption	-10.4442
▁inhibiting	-10.4443
▁TGF	-10.4448
▁en	-10.4451
-1-	-10.4454
▁perceptions	-10.4454
▁continue	-10.4457
▁Cox	-10.4457
▁25%	-10.4461
▁UK	-10.4465
▁atypical	-10.4467
▁intestine	-10.4471
labeled	-10.4471
▁EEG	-10.4472
▁generalized	-10.4475
▁easy	-10.4477
▁Multiple	-10.4482
▁pig	-10.4484
▁24-	-10.4489
▁Patient	-10.449
▁impacts	-10.4494
▁brief	-10.4495
▁regulator	-10.4498
▁HD	-10.4499
▁predominant	-10.45
(1	-10.4502
ting	-10.4506
▁adolescent	-10.4506
▁ill	-10.4511
▁optic	-10.4513
▁viable	-10.4513
▁respective	-10.4514
▁substitution	-10.4515
▁AA	-10.452
▁optimized	-10.452
▁pair	-10.4521
7,	-10.4521
SR	-10.4533
▁platelets	-10.4535
▁psychosocial	-10.4541
▁traumatic	-10.4559
▁demand	-10.456
▁candidates	-10.4561
<0.05).	-10.4562
▁0.3	-10.4565
blind	-10.4568
65	-10.4569
▁chromosomes	-10.4572
▁homologous	-10.4578
▁acts	-10.4579
ite	-10.4579
▁hydrophobic	-10.4584
▁accounted	-10.4585
▁linkage	-10.4587
density	-10.4588
▁tree	-10.4589
▁follows	-10.4591
▁asked	-10.4593
▁subcutaneous	-10.4593
▁withdrawal	-10.4595
▁industry	-10.4596
▁contributing	-10.4604
making	-10.4608
▁transduction	-10.4608
▁incubated	-10.4618
▁IC	-10.462
▁eating	-10.4623
▁Given	-10.4627
▁complementary	-10.4627
▁considerably	-10.4632
▁started	-10.4632
▁differentiate	-10.4639
▁colony	-10.464
▁400	-10.4647
▁subtype	-10.4647
▁formulation	-10.4649
lo	-10.4653
▁SF	-10.4653
▁cortisol	-10.4655
DC	-10.466
▁cytoplasm	-10.4665
chain	-10.4675
���	-10.4676
▁progesterone	-10.4682
▁nutrient	-10.4682
▁proportional	-10.4689
▁cystic	-10.4695
▁regulates	-10.4701
▁definition	-10.4705
▁carrier	-10.4706
▁transfusion	-10.4707
▁permanent	-10.4709
▁critically	-10.4716
26	-10.4719
▁encountered	-10.4719
▁Taken	-10.4719
▁Primary	-10.4723
▁Due	-10.4724
▁Its	-10.4726
▁enables	-10.473
▁institution	-10.4734
ted	-10.4738
CC	-10.474
▁HDL	-10.4741
▁stronger	-10.4752
reactive	-10.4754
▁Fifty	-10.4757
▁operated	-10.4759
▁diminished	-10.4759
▁endocrine	-10.4763
▁postoperatively	-10.4764
▁capture	-10.477
▁58	-10.4783
▁alveolar	-10.4788
▁Cr	-10.4789
▁genetically	-10.4793
▁Japan	-10.4794
▁(19	-10.4795
▁preventive	-10.4797
▁produces	-10.4798
▁recombination	-10.4805
▁stimulate	-10.481
▁Assessment	-10.4811
MB	-10.4811
▁ideal	-10.4813
▁PE	-10.4816
▁mediate	-10.482
▁virulence	-10.4821
▁ms	-10.4822
▁controversial	-10.4822
▁2008	-10.4829
▁return	-10.4832
LV	-10.4846
▁Gy	-10.485
▁germ	-10.4855
▁immunoglobulin	-10.4856
▁Total	-10.4858
▁mobile	-10.486
MC	-10.4862
▁needle	-10.4867
▁tooth	-10.487
▁boys	-10.4871
▁Parkinson	-10.4875
▁mol	-10.488
ro	-10.4883
▁North	-10.4884
eight	-10.4898
ABSTRACT	-10.4903
▁fruit	-10.4903
▁dye	-10.4905
▁seed	-10.4905
▁July	-10.4908
fluorescence	-10.4915
▁subgroups	-10.492
▁visit	-10.4923
▁optimization	-10.4926
▁practitioners	-10.4929
▁offspring	-10.4935
bound	-10.4936
▁radiographic	-10.4939
▁ground	-10.4942
months	-10.4948
▁angiogenesis	-10.4955
TB	-10.4958
▁difficulty	-10.4958
▁inside	-10.496
▁organism	-10.4961
▁clarify	-10.4961
▁ones	-10.4964
nine	-10.4968
▁fasting	-10.4969
ie	-10.4976
▁ROS	-10.4976
▁net	-10.4981
ities	-10.4983
▁refractory	-10.499
▁programme	-10.4991
▁histologic	-10.4991
5)	-10.4992
▁combining	-10.4995
AL	-10.5007
▁alkaline	-10.501
point	-10.501
▁MT	-10.5015
▁accepted	-10.5025
36	-10.5027
▁secreted	-10.5034
▁apical	-10.5037
▁inducing	-10.5042
▁exact	-10.5043
▁Anti	-10.5049
▁angiotensin	-10.5053
PT	-10.5053
▁lobe	-10.5057
▁April	-10.5059
▁acuity	-10.5065
▁2010	-10.5072
MA	-10.5073
▁record	-10.508
art	-10.5081
▁filtration	-10.5082
immunodeficiency	-10.5086
▁instead	-10.5089
▁125	-10.509
▁morphine	-10.509
being	-10.5109
▁reductions	-10.5111
▁30-	-10.5113
▁pregnancies	-10.5115
▁biomass	-10.5117
ES	-10.5121
▁(4)	-10.5121
pre	-10.5121
▁fitness	-10.5124
echocardiography	-10.5125
ce	-10.5139
ab	-10.5141
▁57	-10.5144
order	-10.5158
Fe	-10.516
▁born	-10.5164
▁biomarker	-10.5165
▁rice	-10.5165
▁empirical	-10.5165
▁3)	-10.5177
▁sequential	-10.5181
▁implanted	-10.5182
▁glands	-10.5182
▁SR	-10.5182
▁agonists	-10.5183
▁vertical	-10.5186
▁opportunity	-10.519
▁activate	-10.519
▁fit	-10.5201
▁1000	-10.5202
▁NH	-10.521
ide	-10.5212
▁macrophage	-10.5212
▁passive	-10.5212
▁AS	-10.5215
▁Between	-10.5217
▁exhibits	-10.5218
MR	-10.5219
▁WORDS	-10.522
▁EGFR	-10.5222
▁atrophy	-10.5225
▁endometrial	-10.5227
8,	-10.5235
▁ionic	-10.5238
▁obstructive	-10.5239
▁59	-10.5239
75	-10.5241
▁64	-10.5242
▁TRUNCATED	-10.5247
▁walking	-10.5251
▁neutrophils	-10.5251
PG	-10.5251
▁CF	-10.5253
oid	-10.5255
NP	-10.5255
▁share	-10.526
▁activator	-10.5265
▁adipose	-10.5273
▁lungs	-10.528
▁prophylaxis	-10.5283
▁1%	-10.5284
▁seizure	-10.5285
oL	-10.5294
▁discusses	-10.5297
▁surveys	-10.5297
▁examples	-10.5302
▁conformation	-10.5317
▁sympathetic	-10.5318
▁ulcer	-10.5322
VI	-10.5322
▁hepatocytes	-10.5326
▁phosphatidyl	-10.5329
▁Hz	-10.5335
7)	-10.5343
▁carrying	-10.5348
▁iso	-10.5356
)]	-10.5357
rin	-10.5358
▁normally	-10.5361
▁enhancing	-10.5363
▁opposite	-10.5365
▁promotes	-10.5369
ne	-10.5377
▁serotonin	-10.5377
▁premature	-10.5379
▁biliary	-10.5384
▁sense	-10.5388
▁prescribed	-10.5393
▁tetra	-10.5393
▁abolished	-10.5411
▁satisfactory	-10.5412
▁Herein	-10.5418
▁OA	-10.5418
MP	-10.5418
▁visible	-10.5419
▁Within	-10.5419
▁promoted	-10.5421
▁Disease	-10.5428
▁uncommon	-10.5428
NH	-10.5431
▁believed	-10.5432
phosphate	-10.5433
▁unaffected	-10.5435
CV	-10.5441
▁histone	-10.5442
op	-10.5443
▁roots	-10.5446
▁ecological	-10.5447
▁distinguish	-10.5449
▁pathologic	-10.545
▁isoforms	-10.545
over	-10.5453
son	-10.5453
▁PS	-10.5453
▁reperfusion	-10.5455
▁stromal	-10.5456
▁junction	-10.5463
▁tendon	-10.5466
▁egg	-10.5469
▁concepts	-10.5471
▁1.2	-10.5473
▁competitive	-10.548
▁isolate	-10.5481
high	-10.5489
genic	-10.549
▁pancreas	-10.5495
▁cattle	-10.5498
▁canal	-10.55
▁Li	-10.5507
▁larvae	-10.551
450	-10.5519
▁enriched	-10.5525
▁pump	-10.5529
LT	-10.553
tr	-10.5533
▁CRC	-10.5533
ance	-10.5536
▁Nevertheless	-10.5537
▁offered	-10.5541
SC	-10.5542
▁conformational	-10.5544
▁tolerated	-10.5546
▁examining	-10.5549
▁tended	-10.5549
resolution	-10.5549
▁reporter	-10.5555
▁exon	-10.5555
/6	-10.556
▁alteration	-10.5561
▁pg	-10.5563
▁stomach	-10.5571
▁PR	-10.5571
▁apparently	-10.5574
▁feed	-10.5575
iv	-10.5579
-18	-10.558
▁macro	-10.5581
▁redox	-10.5584
▁endo	-10.559
EF	-10.5592
▁retained	-10.5593
receptor	-10.5596
▁contralateral	-10.5596
▁blockade	-10.5596
site	-10.56
▁guinea	-10.5601
▁3.5	-10.5602
▁driving	-10.5603
▁select	-10.5605
▁potency	-10.5607
eg	-10.5607
▁ventral	-10.5608
▁policies	-10.5608
▁undergone	-10.5608
▁epigenetic	-10.5611
▁2009	-10.5614
▁resolved	-10.5616
▁excessive	-10.5616
80	-10.5616
▁eligible	-10.5624
6)	-10.5627
▁dissociation	-10.5635
HS	-10.5638
▁Department	-10.564
▁helpful	-10.564
-100	-10.5644
▁driven	-10.5652
BA	-10.5657
▁95	-10.5657
▁perioperative	-10.5659
▁signalling	-10.5661
1/2	-10.5664
▁antiviral	-10.5667
67	-10.5671
▁metals	-10.5678
▁carbohydrate	-10.568
▁buffer	-10.5682
▁stiffness	-10.5684
NT	-10.5686
▁PubMed	-10.5692
▁automated	-10.5693
▁registered	-10.5694
▁income	-10.5695
▁gradually	-10.5697
▁radial	-10.5704
dl	-10.5711
▁CC	-10.5712
▁exclusively	-10.5714
▁text	-10.5717
▁nmol	-10.572
▁coordination	-10.5721
▁cisplatin	-10.5722
▁category	-10.573
▁prenatal	-10.573
As	-10.5731
▁assist	-10.5734
95%	-10.5737
odds	-10.5739
▁Women	-10.5741
AA	-10.5744
▁see	-10.5751
invasive	-10.5751
▁hemodynamic	-10.5752
▁shear	-10.5755
▁SARS	-10.5759
▁unrelated	-10.576
▁genomes	-10.5763
SI	-10.5774
▁rupture	-10.5777
▁recording	-10.5781
▁transporter	-10.5783
▁former	-10.5784
▁goals	-10.5794
▁valid	-10.5806
▁requirement	-10.581
▁Drosophila	-10.581
▁Expression	-10.581
▁MC	-10.5813
▁investigating	-10.5813
▁Current	-10.5814
▁reductase	-10.5816
-17	-10.5816
▁blocks	-10.5818
▁idiopathic	-10.5819
▁returned	-10.5822
▁Seven	-10.5823
▁con	-10.5823
▁descriptive	-10.5824
AI	-10.5826
▁concurrent	-10.5826
▁nerves	-10.583
▁cocaine	-10.5831
mer	-10.5836
TA	-10.5839
▁statistics	-10.5839
▁Salmonella	-10.5839
▁predictions	-10.5841
▁anatomy	-10.5841
▁Staphylococcus	-10.585
▁Europe	-10.5851
▁dendritic	-10.5853
▁focuses	-10.5854
▁vectors	-10.5854
step	-10.5856
▁(<	-10.5858
▁immunization	-10.586
▁She	-10.5867
▁topical	-10.5867
PP	-10.5868
▁dramatically	-10.5868
▁English	-10.587
4%	-10.5872
GA	-10.5872
▁indication	-10.5875
▁hematopoietic	-10.5881
▁trait	-10.5882
▁reflected	-10.5886
▁themselves	-10.5886
▁GABA	-10.5887
▁histopathologic	-10.5887
▁Low	-10.5888
▁lifestyle	-10.589
▁plasticity	-10.5895
▁partners	-10.5896
▁SC	-10.5897
▁sound	-10.5902
Ps	-10.5911
▁superficial	-10.5912
water	-10.5918
▁tendency	-10.592
▁surgeon	-10.592
PO	-10.5926
▁Center	-10.5926
▁2.2	-10.5928
▁swelling	-10.5931
▁IgE	-10.5931
▁shoulder	-10.5932
▁disturbances	-10.5934
▁schools	-10.5937
▁radiological	-10.594
LA	-10.5941
▁derivative	-10.5942
▁Di	-10.5942
▁superoxide	-10.5952
▁0.4	-10.5952
▁paradigm	-10.5954
▁bulk	-10.5958
days	-10.596
hour	-10.596
▁architecture	-10.5961
▁referral	-10.5965
▁fatal	-10.5968
▁acidic	-10.5972
▁extensively	-10.5982
▁scheme	-10.5983
▁autophagy	-10.5983
▁deficit	-10.5983
▁validate	-10.5987
▁modality	-10.599
▁hazard	-10.5994
forming	-10.5997
▁hour	-10.5999
▁sugar	-10.6001
▁displacement	-10.6008
▁retina	-10.6009
56	-10.601
aged	-10.6012
▁attempts	-10.6013
▁possess	-10.6017
▁Eight	-10.6019
▁applying	-10.6024
▁glomerular	-10.6025
▁tail	-10.6033
▁suppressor	-10.6039
▁hospitalized	-10.6041
uestionnaire	-10.6041
▁youth	-10.6042
▁2004	-10.6044
but	-10.6051
▁glass	-10.6051
▁(12	-10.6055
▁foods	-10.6059
▁kinases	-10.606
▁mitral	-10.6061
9,	-10.6061
▁bands	-10.6061
▁construction	-10.6063
low	-10.6065
▁Mn	-10.6067
ang	-10.6069
▁filter	-10.6071
▁IgM	-10.6078
▁declined	-10.6078
▁gait	-10.608
▁endothelium	-10.6082
side	-10.6083
▁patch	-10.6085
AG	-10.6088
▁pressures	-10.6094
▁socioeconomic	-10.6096
▁connectivity	-10.6098
▁Society	-10.6098
▁scattering	-10.6099
▁processed	-10.61
▁adopted	-10.6103
▁latency	-10.6107
▁99	-10.6121
▁neuron	-10.6121
▁2.3	-10.6122
TS	-10.6122
▁manual	-10.6124
body	-10.6126
▁insufficient	-10.6127
▁cues	-10.6127
BC	-10.6129
acetyl	-10.6134
▁mood	-10.6134
hospital	-10.6134
▁immunological	-10.6135
Ds	-10.6135
▁flexible	-10.6138
▁neutrophil	-10.614
EP	-10.614
HF	-10.6141
▁severely	-10.6142
▁structured	-10.6146
▁homology	-10.6147
HIV	-10.6148
▁usefulness	-10.6151
▁adapted	-10.6161
▁Si	-10.6163
▁personality	-10.6163
CF	-10.6165
way	-10.6166
▁becomes	-10.6166
▁emergence	-10.6167
GS	-10.6172
▁depressed	-10.6174
▁Care	-10.6174
▁ventricle	-10.6176
▁chosen	-10.6177
▁library	-10.6184
▁interview	-10.6184
▁fibrillation	-10.6186
▁pool	-10.6189
▁secretory	-10.619
▁encoded	-10.6191
▁miRNAs	-10.6192
ae	-10.6193
▁took	-10.6194
▁Hence	-10.6195
▁proliferative	-10.6195
▁RNAs	-10.6196
mol	-10.6196
BM	-10.6197
▁o	-10.6199
▁syndromes	-10.6204
▁wheat	-10.6207
▁paired	-10.6208
▁mammary	-10.621
▁frame	-10.6211
▁responsiveness	-10.6215
▁GM	-10.6227
▁Similar	-10.6237
▁author	-10.6239
▁cats	-10.6241
LS	-10.6244
▁63	-10.6244
▁Association	-10.6245
▁fear	-10.6246
▁interstitial	-10.625
▁September	-10.6251
▁verified	-10.6254
▁numerical	-10.6257
▁cultural	-10.6257
1).	-10.6258
▁Chronic	-10.6258
▁turnover	-10.6258
▁System	-10.6259
amide	-10.6261
HD	-10.6264
from	-10.6268
▁plastic	-10.6269
▁68	-10.6273
▁(15	-10.6278
▁y	-10.6278
▁October	-10.628
▁staging	-10.6281
▁stained	-10.6284
▁equally	-10.6284
▁innate	-10.6285
▁slight	-10.6289
▁Similarly	-10.6289
▁COPD	-10.629
▁Survey	-10.6291
▁w	-10.6293
▁headache	-10.63
▁Sixty	-10.63
▁oocytes	-10.6306
▁66	-10.6306
▁recommend	-10.6307
ize	-10.6307
▁myeloid	-10.6308
▁plane	-10.6321
▁62	-10.6322
▁private	-10.6328
guided	-10.6334
▁summarize	-10.6335
▁cysts	-10.6337
▁Cochrane	-10.6341
▁restored	-10.6342
▁birds	-10.6344
▁Acute	-10.6349
▁hypertrophy	-10.6349
▁digestion	-10.6351
▁leptin	-10.6352
Na	-10.6353
▁interesting	-10.6356
DS	-10.6356
▁fistula	-10.6357
▁67	-10.6358
j	-10.6364
▁newborn	-10.6366
▁aspect	-10.6367
CN	-10.6373
▁3.0	-10.6376
▁75%	-10.6381
▁2.4	-10.6381
rd	-10.6383
47	-10.6387
▁western	-10.6388
▁forming	-10.6388
▁ankle	-10.6389
▁caregivers	-10.639
frequency	-10.6395
▁96	-10.6395
▁motif	-10.64
▁lineage	-10.6401
oma	-10.6404
CE	-10.641
ins	-10.6415
▁sometimes	-10.6415
▁illustrate	-10.642
-4-	-10.6422
CL	-10.6426
▁1990	-10.6426
▁India	-10.6426
▁chemistry	-10.6432
95	-10.6433
▁0.03	-10.6435
SM	-10.6436
▁nodules	-10.6442
▁SE	-10.6444
▁instruments	-10.6449
▁Methods	-10.646
▁quite	-10.6464
29	-10.6464
▁HPLC	-10.6465
▁machine	-10.6469
trans	-10.6475
▁hepatocellular	-10.6481
▁chamber	-10.6492
▁usage	-10.6495
NC	-10.6496
▁approved	-10.6497
▁serine	-10.6497
-15	-10.6498
▁coagulation	-10.6503
▁configuration	-10.6503
▁Micro	-10.6503
▁physiology	-10.6507
▁fungi	-10.6514
▁aerobic	-10.6514
▁partner	-10.6524
bi	-10.6526
▁hormonal	-10.6527
▁contributions	-10.6532
do	-10.6532
2%	-10.6533
▁rheumatoid	-10.6534
▁partly	-10.6537
▁DR	-10.6542
PM	-10.6542
▁histamine	-10.6554
▁conduction	-10.6556
▁Test	-10.6557
▁2005	-10.6562
▁utilizing	-10.6563
▁industrial	-10.6564
▁15%	-10.6565
▁Control	-10.6566
▁excitation	-10.6567
generation	-10.657
form	-10.6574
▁transfected	-10.6582
▁influencing	-10.6585
ME	-10.6585
FU	-10.6586
▁lethal	-10.6588
▁inform	-10.6588
▁sham	-10.66
▁microbiota	-10.66
anti	-10.66
▁ICU	-10.6603
▁bearing	-10.6616
▁monocytes	-10.6616
▁rRNA	-10.663
▁effector	-10.663
▁mo	-10.6638
▁static	-10.6639
▁hyperplasia	-10.6649
▁locally	-10.6652
▁achieving	-10.6654
▁enrichment	-10.6655
▁glycoprotein	-10.6658
▁anomalies	-10.6668
TG	-10.6673
▁cohorts	-10.6674
seven	-10.6675
▁bipolar	-10.6677
▁mammals	-10.668
▁again	-10.6684
▁violence	-10.6685
▁limiting	-10.6686
▁polypeptide	-10.6686
▁meet	-10.6687
▁nonlinear	-10.6688
▁expanded	-10.6692
▁financial	-10.6695
▁assumed	-10.6696
sis	-10.6696
▁width	-10.6697
▁university	-10.67
▁usual	-10.6702
AM	-10.671
immunoreactivity	-10.6714
▁Post	-10.6715
▁Australia	-10.6715
▁fourth	-10.6722
▁Gram	-10.6727
IT	-10.6733
▁Institute	-10.6735
el	-10.6737
▁prescription	-10.6739
▁conservative	-10.674
▁served	-10.6752
▁transferred	-10.6754
▁pollution	-10.6755
▁transcript	-10.6756
▁Neuro	-10.6756
▁she	-10.6758
▁St	-10.6759
▁flux	-10.6766
▁comprising	-10.6771
▁2011	-10.6775
▁1.1	-10.6775
onset	-10.678
▁axial	-10.6783
▁sign	-10.6783
▁bp	-10.6786
ti	-10.6788
▁aeruginosa	-10.6792
▁microscope	-10.6793
▁socio	-10.6795
RNA	-10.6799
▁2%	-10.6802
▁property	-10.6806
▁nicotine	-10.6811
▁upregulated	-10.6813
▁Changes	-10.6814
▁None	-10.6817
▁0.6	-10.6821
68	-10.6825
▁urea	-10.6826
▁Evidence	-10.6831
▁marine	-10.6831
defined	-10.6832
DE	-10.6835
▁covered	-10.6837
▁cows	-10.6838
▁season	-10.6844
▁neonates	-10.6845
▁ester	-10.6847
▁analyzing	-10.6848
▁familial	-10.6849
▁acting	-10.6849
▁apply	-10.6852
▁atomic	-10.6857
▁examines	-10.6858
▁similarly	-10.686
▁fashion	-10.6862
ata	-10.6869
RF	-10.687
▁distant	-10.6871
▁accelerated	-10.6873
▁PKC	-10.6874
ox	-10.6877
▁overweight	-10.6877
▁separately	-10.6883
(2	-10.6884
▁2007	-10.6891
▁minimally	-10.6893
▁adjusting	-10.6899
▁epidemic	-10.6905
▁pancreatitis	-10.6906
▁AIDS	-10.6907
▁words	-10.6912
▁causal	-10.6912
▁weekly	-10.6916
▁competition	-10.6918
▁autologous	-10.692
▁Un	-10.693
▁androgen	-10.6934
▁defense	-10.6935
driven	-10.694
▁specimen	-10.6942
SA	-10.6942
▁acetylcholine	-10.6944
▁2012	-10.695
▁5'-	-10.6953
▁parasites	-10.6957
▁incomplete	-10.6958
▁2001	-10.6958
with	-10.6961
▁relief	-10.6964
▁division	-10.6966
▁anticancer	-10.6968
▁gives	-10.6968
▁completion	-10.6968
▁maps	-10.697
▁remarkable	-10.697
▁histology	-10.697
▁saturation	-10.697
▁applicable	-10.6972
▁aspiration	-10.6973
▁mis	-10.6974
▁61	-10.6977
ap	-10.6978
pa	-10.698
▁MD	-10.6983
▁clinics	-10.6985
▁details	-10.6993
▁conservation	-10.6993
▁forward	-10.6999
▁porcine	-10.6999
42	-10.6999
ib	-10.7
▁Medicine	-10.7003
3%	-10.7005
▁recordings	-10.7005
▁functionally	-10.7009
▁enough	-10.7013
▁calculate	-10.702
▁ligament	-10.7023
▁preservation	-10.7026
▁naturally	-10.7027
▁Increased	-10.7027
▁aneurysms	-10.7037
kDa	-10.7038
ence	-10.7041
FT	-10.7047
▁glaucoma	-10.7049
▁Age	-10.7049
▁polar	-10.7049
▁representation	-10.7049
▁7-	-10.7049
▁session	-10.7053
▁Future	-10.7054
▁capability	-10.7056
HC	-10.7057
▁SA	-10.7059
▁opening	-10.7064
▁(30	-10.7065
▁inadequate	-10.7068
▁cessation	-10.7072
▁dosing	-10.7077
weighted	-10.7078
▁cysteine	-10.7081
▁uncertainty	-10.7082
▁upstream	-10.7084
In	-10.7087
32	-10.7087
▁IgA	-10.709
PL	-10.7092
▁randomised	-10.7092
▁Bcl	-10.7103
▁Ki	-10.7108
▁2002	-10.711
▁CB	-10.7112
▁list	-10.7113
▁shifts	-10.7114
▁revision	-10.7123
▁inverse	-10.7124
▁2006	-10.7127
▁2015	-10.7129
TE	-10.7131
▁rich	-10.7136
▁mononuclear	-10.7145
▁breathing	-10.7145
▁enhances	-10.7146
lin	-10.7148
▁lifetime	-10.715
▁transformed	-10.7152
5%	-10.7156
▁extend	-10.7162
▁Long	-10.7163
▁tubular	-10.7166
▁biofilm	-10.7167
▁World	-10.7171
▁miRNA	-10.7171
▁becoming	-10.7171
BR	-10.7171
▁blocking	-10.7177
▁decay	-10.7178
▁peroxidase	-10.7186
▁exert	-10.7188
▁pooled	-10.719
▁rhythm	-10.7196
▁RV	-10.7196
▁mixtures	-10.7197
▁coping	-10.7201
▁elucidated	-10.7202
▁palliative	-10.7204
▁engagement	-10.7204
▁sucrose	-10.7207
6-	-10.7208
▁0.8	-10.7209
▁PP	-10.7209
▁user	-10.7214
▁balloon	-10.7223
▁exposures	-10.7227
▁compartment	-10.7227
kappaB	-10.7228
▁2.6	-10.7232
▁Asian	-10.7233
▁weights	-10.7235
▁stored	-10.7235
▁Pb	-10.7236
▁breeding	-10.7236
ile	-10.7237
▁electric	-10.7244
chi	-10.7245
▁aromatic	-10.7249
▁vertebral	-10.7249
▁Pseudomonas	-10.7254
▁reflux	-10.7258
▁pharmaceutical	-10.7259
hr	-10.726
▁purposes	-10.7264
3).	-10.7266
▁bed	-10.7269
▁believe	-10.7269
▁why	-10.727
▁salivary	-10.7272
43	-10.7279
▁85	-10.7286
▁antitumor	-10.7292
▁SH	-10.7297
▁analogue	-10.7309
▁purification	-10.731
▁promotion	-10.731
▁sensing	-10.7313
▁reticulum	-10.7318
▁4,	-10.7319
▁elective	-10.7323
▁precursors	-10.7327
▁alignment	-10.7328
▁recognize	-10.733
▁pore	-10.7334
length	-10.7335
▁waste	-10.7335
▁2013	-10.734
▁serial	-10.7342
▁anatomic	-10.7343
active	-10.7346
MV	-10.7347
▁dysplasia	-10.7347
▁ultimately	-10.7352
▁preserved	-10.7358
▁CL	-10.7363
▁informed	-10.7366
▁cis	-10.7371
▁spontaneously	-10.7374
▁acoustic	-10.7376
Co	-10.7379
▁Surgical	-10.7381
effective	-10.7382
▁diffraction	-10.7384
NF	-10.7385
▁2016	-10.7386
▁GA	-10.7386
▁restoration	-10.7388
▁TLR	-10.7391
▁student	-10.7396
ans	-10.7396
▁observe	-10.7398
▁mRNAs	-10.7399
▁attractive	-10.74
▁attached	-10.7405
▁equipment	-10.7409
▁eggs	-10.7415
▁hard	-10.742
▁latent	-10.742
▁obvious	-10.7427
▁definitive	-10.7435
▁follicular	-10.7442
▁diarrhea	-10.7444
ph	-10.7444
shaped	-10.7445
▁establishment	-10.7447
▁protected	-10.7449
▁2014	-10.7449
▁provision	-10.7449
po	-10.7452
Cs	-10.7456
-2,	-10.7456
▁August	-10.7456
▁attack	-10.7458
Me	-10.7458
▁additive	-10.746
▁transmembrane	-10.746
▁objectives	-10.746
▁microorganisms	-10.7462
▁constants	-10.7464
ler	-10.7472
▁IP	-10.7475
▁highlighted	-10.7477
▁directions	-10.7485
▁circular	-10.7487
▁fertility	-10.7488
▁continuously	-10.7491
▁novo	-10.7492
▁phenomena	-10.7495
▁mandibular	-10.7496
▁AMP	-10.7496
▁hetero	-10.7502
cr	-10.7504
▁analog	-10.7505
55	-10.7508
▁objects	-10.7508
directed	-10.7512
▁dataset	-10.7518
▁quantitatively	-10.752
▁orally	-10.7521
▁labor	-10.7526
tro	-10.7526
▁neoplasms	-10.7527
LD	-10.7529
▁manipulation	-10.7533
39	-10.7534
7%	-10.7534
▁introduce	-10.7536
▁2.7	-10.7536
▁MHC	-10.7543
ha	-10.7546
▁WT	-10.7546
CB	-10.755
▁chicken	-10.7552
▁2019	-10.7552
▁Intra	-10.7552
▁interpreted	-10.7553
▁neuropathy	-10.7558
▁epidemiology	-10.757
▁estradiol	-10.7574
▁hence	-10.7576
▁abilities	-10.758
▁Subjects	-10.7581
▁too	-10.7583
▁meat	-10.7585
▁dog	-10.7587
▁1.4	-10.7587
▁clone	-10.7589
▁themes	-10.7591
▁neurologic	-10.7594
▁institutions	-10.7596
▁optimum	-10.76
▁HER	-10.7602
▁equations	-10.7604
▁placental	-10.7606
uality	-10.7607
▁reflex	-10.7608
▁0.001),	-10.7609
▁accumulated	-10.7611
▁currents	-10.7611
<0.001).	-10.7616
ure	-10.7619
▁sequenced	-10.7619
▁peer	-10.7621
emia	-10.7626
GM	-10.7627
▁muscular	-10.7628
ator	-10.7635
▁arise	-10.7636
ATPase	-10.7641
including	-10.7641
▁leukocyte	-10.7643
▁cat	-10.765
▁modulated	-10.765
▁amplified	-10.7654
▁1998	-10.7654
▁deficient	-10.7657
dis	-10.7657
▁evolved	-10.766
▁arch	-10.7668
▁mesenchymal	-10.7669
▁olfactory	-10.767
▁CV	-10.7673
▁scoring	-10.7675
▁analogues	-10.7676
TL	-10.7676
▁mediators	-10.7681
▁SS	-10.7684
▁colonic	-10.7692
▁Sp	-10.7693
AB	-10.7702
▁corrected	-10.7703
▁arthroplasty	-10.7704
OT	-10.7705
▁matching	-10.7712
▁stabilization	-10.7714
ors	-10.7715
▁periodontal	-10.7716
▁electrodes	-10.7719
9%	-10.772
▁ganglion	-10.772
▁inpatient	-10.7722
▁Ro	-10.7726
▁unable	-10.7726
▁land	-10.7729
▁preclinical	-10.7735
-13	-10.7735
▁Drug	-10.7736
▁incident	-10.7741
▁insufficiency	-10.7743
▁dark	-10.7744
▁molar	-10.7745
▁datasets	-10.7748
yr	-10.7753
▁connected	-10.7753
▁domestic	-10.7755
▁2.1	-10.7763
<	-10.7775
▁1.8	-10.7776
▁amyloid	-10.7777
▁ECG	-10.778
▁fibroblast	-10.7781
▁BC	-10.7782
▁calculation	-10.7785
▁comorbidities	-10.7788
▁ADHD	-10.779
▁electrochemical	-10.7791
▁activating	-10.7792
▁gained	-10.7793
ten	-10.7798
8)	-10.7798
▁describing	-10.7798
▁bonds	-10.7799
9)	-10.7802
▁optimize	-10.7802
▁circadian	-10.7802
▁forest	-10.7803
microenvironment	-10.7807
▁sudden	-10.7811
▁formulations	-10.7812
▁Administration	-10.7813
8%	-10.7813
▁Median	-10.7814
▁axons	-10.7816
▁ethical	-10.7817
▁cerebellar	-10.782
▁principle	-10.782
ose	-10.7828
▁polymers	-10.7829
▁Information	-10.783
▁outbreak	-10.7833
▁deterioration	-10.7838
▁thresholds	-10.7839
▁CRP	-10.7839
▁grafting	-10.784
iii	-10.7841
▁oligonucleotide	-10.7849
▁2.8	-10.7852
▁Even	-10.7854
▁discrete	-10.7855
▁mu	-10.786
▁Gene	-10.7866
▁rule	-10.7868
01	-10.7869
▁1.6	-10.7869
se	-10.7874
▁microarray	-10.7875
▁foreign	-10.7877
▁encodes	-10.7882
▁noninvasive	-10.7884
▁kidneys	-10.7884
▁NSCLC	-10.7891
63	-10.7894
▁pneumoniae	-10.7895
▁inactive	-10.7903
▁persistence	-10.7909
▁enabled	-10.7909
em	-10.7913
▁1.3	-10.7915
▁cytosolic	-10.7921
▁finger	-10.7923
▁ca	-10.7926
▁arising	-10.7936
ci	-10.7938
ethyl	-10.7938
ogenic	-10.7943
▁steroids	-10.7945
▁suppress	-10.7951
▁HS	-10.7953
PH	-10.7959
NA	-10.7959
▁branch	-10.7964
▁69	-10.7964
▁Se	-10.7966
▁phosphorylated	-10.7968
37	-10.7969
▁picture	-10.7972
▁clustering	-10.7974
1%	-10.7974
▁insurance	-10.7974
▁zero	-10.7976
▁mediating	-10.7976
▁So	-10.7978
▁extreme	-10.7979
73	-10.798
land	-10.7982
ful	-10.7983
▁antibacterial	-10.7984
be	-10.7986
▁peaks	-10.7987
wave	-10.7988
▁resin	-10.7993
▁Bi	-10.7996
▁ultrasonography	-10.7996
▁uniform	-10.8005
▁TP	-10.8006
▁conductance	-10.801
▁narrow	-10.801
▁0.001	-10.8012
▁constitute	-10.8014
▁injured	-10.8015
▁(25	-10.8019
▁suffered	-10.8019
▁NE	-10.8022
▁osteoporosis	-10.8024
▁colitis	-10.8025
▁anaerobic	-10.8026
▁copy	-10.8029
▁regulators	-10.8031
▁bronchial	-10.8032
▁meal	-10.8032
▁nitrate	-10.8033
▁America	-10.8033
6%	-10.8035
▁En	-10.8038
▁transmitted	-10.804
gene	-10.8045
▁atoms	-10.8045
▁prove	-10.8055
▁cure	-10.8057
▁hosts	-10.8059
MM	-10.8059
▁exploration	-10.806
▁visualization	-10.8062
ring	-10.8062
▁Risk	-10.8063
▁intense	-10.8063
peptide	-10.8063
▁trigger	-10.8066
8+	-10.8066
▁carry	-10.8066
▁Different	-10.8067
▁expressions	-10.8068
▁Wistar	-10.8074
RP	-10.8075
ana	-10.8075
▁5'	-10.8083
▁hemodialysis	-10.8083
▁building	-10.8087
▁doctors	-10.8091
▁inserted	-10.8091
33	-10.8092
▁testicular	-10.8092
▁chemicals	-10.8092
▁ERK	-10.8092
▁expert	-10.8101
▁76	-10.8103
▁wastewater	-10.8107
▁postpartum	-10.811
▁(100	-10.8114
▁methodological	-10.8118
▁AND	-10.8134
▁specialized	-10.8135
nd	-10.8138
producing	-10.8139
▁belonging	-10.8139
▁Additional	-10.8139
▁Functional	-10.8142
▁glial	-10.8145
▁reaching	-10.8146
▁aware	-10.8153
4).	-10.8153
poly	-10.8155
▁0.7	-10.8155
NE	-10.8158
▁Then	-10.8159
▁progenitor	-10.8159
▁SLE	-10.8161
▁otherwise	-10.8161
▁epi	-10.8163
▁homogeneous	-10.8167
TC	-10.8168
▁athletes	-10.8171
▁endemic	-10.8171
▁modify	-10.8179
▁polarization	-10.818
▁massive	-10.8181
▁varies	-10.819
▁TA	-10.8193
ists	-10.8193
▁sarcoma	-10.8194
2.5	-10.8198
▁aspirin	-10.8198
▁conduct	-10.82
46	-10.8201
▁preferences	-10.8202
▁ethnic	-10.8202
▁78	-10.8204
▁quantity	-10.8205
▁evaluations	-10.8206
86	-10.8212
▁promise	-10.8213
TM	-10.8213
▁mast	-10.8215
�=	-10.8217
▁AC	-10.8218
48	-10.8225
▁waves	-10.8226
BMI	-10.8227
▁hydro	-10.8231
▁Ad	-10.8233
▁USA	-10.824
selective	-10.824
▁perspectives	-10.8247
▁stratified	-10.8248
▁CAD	-10.8249
▁minimize	-10.825
▁drawn	-10.8253
▁1997	-10.8254
▁74	-10.8265
31	-10.8265
▁immature	-10.8269
▁Central	-10.8274
▁Poly	-10.8276
▁synergistic	-10.8277
▁job	-10.8278
sp	-10.8278
▁drive	-10.828
▁PTSD	-10.8282
▁canine	-10.8282
▁losses	-10.8283
▁Specifically	-10.8283
3),	-10.8287
OA	-10.8289
▁run	-10.829
▁correctly	-10.8291
▁CM	-10.8294
▁historical	-10.8298
▁sea	-10.8298
▁tip	-10.8304
▁exclusion	-10.8305
▁moderately	-10.8308
▁lymphoid	-10.831
▁Canada	-10.8311
▁profiling	-10.8312
▁phospho	-10.8325
▁autosomal	-10.8327
▁February	-10.833
▁dense	-10.8332
enhanced	-10.8333
▁erythrocytes	-10.8337
oc	-10.8339
EM	-10.8339
-14	-10.8339
▁thermo	-10.8346
▁behavioural	-10.8348
▁COX	-10.8349
▁GI	-10.8353
▁blotting	-10.8354
▁joints	-10.8356
▁radiographs	-10.8359
bp	-10.8361
PET	-10.8368
▁conjunction	-10.8374
-20	-10.8381
▁replaced	-10.8381
▁chi	-10.8382
▁cranial	-10.8382
▁suspension	-10.8387
▁horizontal	-10.8387
▁generating	-10.839
▁GP	-10.8392
▁NaCl	-10.8396
▁Together	-10.8398
▁attempted	-10.8399
▁analgesia	-10.8404
vascularization	-10.8412
Rs	-10.8414
▁cyclin	-10.8415
▁constructs	-10.8416
▁sampled	-10.8421
▁MAP	-10.8422
▁immunotherapy	-10.8424
▁leakage	-10.8428
▁routinely	-10.8429
▁relations	-10.8431
▁November	-10.8434
▁dimension	-10.8435
▁tracking	-10.8441
ensis	-10.8442
▁geometry	-10.8446
▁consistency	-10.8448
▁ACE	-10.8453
▁0.9	-10.8454
▁granules	-10.8454
▁disturbance	-10.8461
▁centre	-10.8465
▁efflux	-10.8466
▁pleural	-10.8468
▁4.5	-10.847
▁vulnerable	-10.8472
▁facilitated	-10.8475
▁deprivation	-10.8478
▁conclusions	-10.848
▁colonization	-10.848
▁dexamethasone	-10.8483
▁hypotheses	-10.8484
▁Candida	-10.8489
▁scenarios	-10.849
known	-10.8492
▁etc	-10.8494
▁ejection	-10.85
▁trace	-10.8502
▁Protein	-10.8503
▁lumen	-10.8506
eurodegenerative	-10.8507
▁triple	-10.8508
▁criterion	-10.8509
▁Arabidopsis	-10.8515
▁attending	-10.8517
▁transform	-10.852
▁laboratories	-10.8522
▁supplemented	-10.8525
▁flexion	-10.8536
▁capsule	-10.8539
▁Findings	-10.854
▁giving	-10.8541
▁1995	-10.8544
▁universal	-10.8546
▁HT	-10.8546
▁fragmentation	-10.8547
▁manage	-10.8547
▁attributable	-10.8549
▁fermentation	-10.8556
▁beliefs	-10.8559
▁abnormality	-10.8562
kinase	-10.8562
ell	-10.8564
▁continues	-10.8569
DI	-10.8569
▁gl	-10.8571
cal	-10.8572
▁But	-10.8577
▁Consequently	-10.8579
▁mathematical	-10.8582
▁PG	-10.8583
▁ranges	-10.8584
▁fecal	-10.8586
▁Northern	-10.8586
▁ppm	-10.8586
PF	-10.8598
▁night	-10.8602
62	-10.8604
▁silica	-10.8611
ak	-10.8611
▁BM	-10.8616
87	-10.8617
▁episode	-10.8623
▁recipient	-10.8624
▁mini	-10.8629
▁plans	-10.8629
led	-10.8634
▁infrared	-10.8635
▁(50	-10.8638
▁TG	-10.8638
▁Ex	-10.8639
▁entity	-10.8641
ner	-10.8641
▁ratings	-10.8646
▁MM	-10.8646
▁microm	-10.8648
▁stimulating	-10.8651
▁Statistical	-10.8655
▁web	-10.8657
▁similarities	-10.866
▁penetration	-10.8661
▁RF	-10.8661
▁lesser	-10.8662
pi	-10.8665
quality	-10.8665
▁assayed	-10.8665
▁Genetic	-10.8668
la	-10.8671
▁perinatal	-10.8671
▁hot	-10.8672
▁warranted	-10.8673
▁Mo	-10.8674
dL	-10.8678
▁Brazil	-10.8681
▁2017	-10.8681
▁dispersion	-10.8692
▁converted	-10.8693
▁elastic	-10.8695
▁reproducibility	-10.8696
▁3%	-10.8699
▁destruction	-10.87
5%)	-10.8704
▁overlap	-10.8706
▁employing	-10.8706
▁Nine	-10.8709
log	-10.8709
▁Comparison	-10.871
▁fold	-10.8714
▁migraine	-10.872
▁constraints	-10.8723
ip	-10.8724
▁monkeys	-10.8725
▁unstable	-10.8729
▁His	-10.8733
▁contaminated	-10.8737
▁peroxide	-10.8742
▁missing	-10.8744
▁fetuses	-10.8749
▁reflects	-10.875
▁LA	-10.8752
▁masses	-10.8754
▁glioma	-10.8756
▁demands	-10.8761
red	-10.8764
▁surgically	-10.8767
▁lupus	-10.8768
▁integral	-10.8768
▁market	-10.8769
▁ES	-10.877
▁RR	-10.8771
▁densities	-10.8773
▁CVD	-10.8773
▁hypothalamic	-10.8778
▁autonomic	-10.878
▁splicing	-10.8784
▁consent	-10.8785
▁sensors	-10.8786
▁kinds	-10.8786
▁courses	-10.8788
▁eukaryotic	-10.8794
▁cognition	-10.8796
▁tandem	-10.8807
▁wk	-10.881
▁hearts	-10.8811
IF	-10.8812
▁frozen	-10.8812
▁1996	-10.8814
▁3'	-10.8817
iso	-10.8817
▁attenuation	-10.8818
▁contacts	-10.8824
PK	-10.8824
▁proportions	-10.8825
idae	-10.8826
▁switch	-10.8827
▁renin	-10.8829
▁Heart	-10.8837
▁participating	-10.8843
com	-10.8848
threatening	-10.885
▁smoke	-10.8852
▁rated	-10.8854
▁reproduction	-10.8855
▁neoplastic	-10.8857
TR	-10.8857
▁edge	-10.8858
▁geographic	-10.886
▁HC	-10.8864
▁71	-10.8865
ag	-10.8866
=0	-10.8868
▁reproducible	-10.8869
▁recall	-10.8872
▁calibration	-10.8875
▁virtual	-10.8877
▁law	-10.888
▁ulcers	-10.8885
▁transfection	-10.8888
▁verbal	-10.8889
▁SV	-10.8893
▁knockdown	-10.8896
▁SNPs	-10.8896
▁Various	-10.8897
▁takes	-10.8898
▁determinant	-10.8902
▁anion	-10.8903
▁charged	-10.8903
▁organizations	-10.8905
▁triggered	-10.8907
▁180	-10.8911
▁(200	-10.8918
cin	-10.892
▁astrocytes	-10.8922
▁regarded	-10.8922
effects	-10.893
▁sediment	-10.8937
▁distinguished	-10.8939
▁yr	-10.8939
▁myocardium	-10.8947
▁cascade	-10.895
▁State	-10.895
▁crystals	-10.8951
▁seasonal	-10.8952
stranded	-10.8954
▁poorer	-10.8955
▁transplanted	-10.8957
▁connection	-10.8973
▁bioavailability	-10.8973
▁document	-10.898
▁2003	-10.8984
BF	-10.8984
▁biomedical	-10.8985
▁code	-10.8987
▁PGE	-10.8997
▁4%	-10.9
▁73	-10.9003
▁implement	-10.9008
▁papers	-10.9013
▁facility	-10.902
▁EGF	-10.9025
▁ligation	-10.9025
ants	-10.9032
▁orbital	-10.9035
▁LD	-10.9035
▁flexibility	-10.9037
▁experts	-10.9037
▁explanation	-10.9038
▁path	-10.904
HL	-10.9041
▁submitted	-10.9042
LE	-10.9052
98	-10.9053
oxy	-10.9056
▁(18	-10.9061
▁counseling	-10.9062
▁slowly	-10.9062
▁Web	-10.9062
▁cardiomyopathy	-10.9063
▁adulthood	-10.9064
▁formula	-10.9064
▁avoidance	-10.9065
▁ipsilateral	-10.9066
▁Trans	-10.9067
▁ovary	-10.9071
▁inversely	-10.9071
300	-10.9074
if	-10.9079
ification	-10.9079
▁IU	-10.9079
▁transverse	-10.908
▁modulating	-10.9083
▁fluctuations	-10.9083
5).	-10.9088
▁popular	-10.9096
▁survived	-10.91
▁publications	-10.9101
RE	-10.9102
▁insect	-10.9104
▁IS	-10.9109
▁NA	-10.9115
▁Time	-10.9118
▁crude	-10.9119
▁CK	-10.9119
▁Me	-10.9119
▁template	-10.9119
▁ASD	-10.9122
▁endoscopy	-10.9123
▁exception	-10.9124
energy	-10.9126
oxo	-10.9126
▁conditioning	-10.9126
▁nucleotides	-10.9131
▁eliminated	-10.9132
▁BMD	-10.9132
85	-10.9133
TNF	-10.9141
▁Through	-10.9142
▁analyse	-10.9144
▁aggregates	-10.9152
▁wounds	-10.9153
SH	-10.9154
use	-10.9161
▁contractions	-10.9167
▁marginal	-10.917
▁(11	-10.9171
▁Le	-10.9173
▁La	-10.9181
▁slower	-10.9182
▁surfactant	-10.9182
▁Ser	-10.9183
-11	-10.9186
▁MA	-10.9192
▁prosthesis	-10.9193
▁compatible	-10.9195
▁tend	-10.92
ates	-10.9201
0�	-10.9202
4),	-10.9204
▁fluids	-10.9206
responsive	-10.9206
1;	-10.921
▁SDS	-10.9211
▁Neither	-10.9219
▁finally	-10.9219
small	-10.9222
▁collaboration	-10.9228
▁Germany	-10.9229
▁PH	-10.9229
ri	-10.9231
▁Single	-10.9235
▁Second	-10.9237
▁addressing	-10.924
▁1.7	-10.924
▁designated	-10.9241
▁Sub	-10.9241
▁careful	-10.9241
▁histologically	-10.9245
▁Australian	-10.9247
▁maxillary	-10.9249
ella	-10.925
▁anaesthesia	-10.9252
▁limitation	-10.9254
cells	-10.9255
▁RP	-10.9256
▁Inter	-10.9258
▁dramatic	-10.9258
▁margin	-10.926
glucose	-10.9264
▁defective	-10.9264
▁gram	-10.9264
▁CE	-10.9264
▁cerevisiae	-10.9267
▁government	-10.9268
3+	-10.9269
layer	-10.9269
▁relatives	-10.9274
▁gaps	-10.9276
▁establishing	-10.9277
▁profound	-10.9277
BI	-10.9278
TT	-10.9282
The	-10.9284
▁fate	-10.9285
▁arginine	-10.9285
▁77	-10.9287
▁peroxidation	-10.9288
▁Twelve	-10.9293
▁AM	-10.9294
▁caries	-10.9297
▁HL	-10.9297
▁Multivariate	-10.9298
83	-10.9299
▁Understanding	-10.9306
▁transitions	-10.9307
▁Currently	-10.9315
▁silencing	-10.9325
▁postmenopausal	-10.9326
▁tibial	-10.9327
▁cigarette	-10.9327
▁MG	-10.933
▁thrombin	-10.933
▁3.2	-10.9331
97	-10.9336
▁views	-10.9337
TP	-10.9337
▁SNP	-10.9338
▁horses	-10.9339
▁Evaluation	-10.9345
88	-10.9346
▁codon	-10.9347
▁allograft	-10.9349
▁inoculated	-10.9357
▁preferentially	-10.9358
▁conceptual	-10.9359
▁label	-10.936
▁complaints	-10.936
▁threat	-10.9368
▁incision	-10.9369
▁erythrocyte	-10.9369
49	-10.9369
▁leukocytes	-10.9371
▁ganglia	-10.9372
▁moving	-10.9373
▁conflict	-10.9376
da	-10.9378
▁se	-10.9378
▁intermittent	-10.938
▁mechanistic	-10.9381
▁Besides	-10.9384
▁acceptance	-10.9384
▁silver	-10.9386
▁obtaining	-10.9386
▁held	-10.9387
▁sum	-10.9389
Cu	-10.939
▁SM	-10.9396
▁magnesium	-10.9397
bearing	-10.9398
▁anastomosis	-10.9398
▁radicals	-10.9404
120	-10.9407
▁(0.1	-10.941
res	-10.9412
▁planned	-10.9415
IS	-10.9419
▁subsets	-10.942
▁CMV	-10.9423
▁discharged	-10.9423
▁tone	-10.9427
Pro	-10.943
▁melatonin	-10.9432
▁commercially	-10.9435
▁responsive	-10.9436
down	-10.944
▁prophylactic	-10.944
▁pollen	-10.9442
▁extremity	-10.9443
FI	-10.9446
▁visceral	-10.9447
▁shunt	-10.9447
▁normalized	-10.9448
▁tachycardia	-10.9449
▁twenty	-10.9449
▁burn	-10.9454
▁emissions	-10.9456
▁essentially	-10.9463
patient	-10.9466
▁ingestion	-10.9472
▁word	-10.9472
69	-10.9474
▁irradiated	-10.9477
▁inoculation	-10.9478
▁Importantly	-10.948
▁advance	-10.9481
TF	-10.9483
▁fibres	-10.9485
▁lymphatic	-10.9485
▁adding	-10.949
weight	-10.949
ng	-10.9492
▁AUC	-10.9493
▁79	-10.9494
71	-10.9495
▁isoform	-10.9496
tumor	-10.9497
▁Au	-10.9498
▁knockout	-10.9498
▁desired	-10.9499
▁ultra	-10.9501
od	-10.9501
▁Ti	-10.9502
▁NC	-10.9508
om	-10.9511
▁testis	-10.9513
▁Program	-10.9513
IM	-10.9514
▁remote	-10.9515
ut	-10.9515
▁TSH	-10.9528
▁chemo	-10.9529
▁multicenter	-10.9532
▁played	-10.9532
▁hernia	-10.9536
IFN	-10.9538
▁contractile	-10.9539
▁slices	-10.9541
function	-10.9542
▁verify	-10.9544
▁inherited	-10.9546
▁household	-10.9547
performance	-10.9547
▁Differences	-10.9547
2;	-10.955
://	-10.9551
▁Multi	-10.9555
▁neo	-10.9556
▁asymmetric	-10.9556
▁macular	-10.9558
▁Organization	-10.956
▁mV	-10.9569
NK	-10.9569
nitro	-10.9571
▁scaffold	-10.9572
▁(14	-10.9574
▁84	-10.9574
▁WHO	-10.9575
▁PSA	-10.9576
LI	-10.9576
▁embedded	-10.9577
▁Use	-10.9581
7-	-10.9582
▁MAPK	-10.9583
▁placenta	-10.9585
▁cation	-10.9589
▁homozygous	-10.9592
▁considerations	-10.9597
▁hypoxic	-10.9598
FP	-10.9599
0,	-10.9601
▁FT	-10.9603
▁drop	-10.9603
▁apo	-10.9604
fluoro	-10.9606
▁slope	-10.9608
▁interacting	-10.9608
▁Bacillus	-10.9612
▁Molecular	-10.9612
▁incontinence	-10.9612
▁personnel	-10.9612
▁ambulatory	-10.9615
▁filling	-10.9615
▁tau	-10.9615
▁topic	-10.9616
▁allergy	-10.9619
▁coherence	-10.962
▁expectations	-10.9623
▁named	-10.9624
▁estimating	-10.9626
ec	-10.9629
▁spent	-10.9634
-16	-10.9636
mass	-10.9636
throughput	-10.9639
▁(16	-10.9641
▁cerebrospinal	-10.9643
▁apparatus	-10.9648
▁seeds	-10.9652
▁formal	-10.9653
▁repetitive	-10.9655
▁counter	-10.9656
▁mitotic	-10.9657
Cr	-10.9658
▁consumed	-10.9659
99	-10.966
▁segmentation	-10.9661
effectiveness	-10.9666
bio	-10.9668
drug	-10.9671
▁analgesic	-10.9675
mic	-10.9675
▁Seventy	-10.9676
7).	-10.9677
▁NT	-10.9689
▁conditioned	-10.969
▁upregulation	-10.9694
li	-10.9697
▁soils	-10.9701
▁PO	-10.9701
▁20-	-10.9702
tion	-10.9702
▁saliva	-10.9703
▁build	-10.9716
▁meeting	-10.9716
▁grow	-10.9717
▁syn	-10.9718
▁prostaglandin	-10.9718
▁titers	-10.9726
▁respiration	-10.9729
DD	-10.9733
▁ectopic	-10.9733
▁2.9	-10.9734
▁cement	-10.9736
DP	-10.974
CoA	-10.9741
▁character	-10.9744
▁running	-10.9746
▁ID	-10.9746
▁VP	-10.9746
VA	-10.9751
51	-10.9751
tin	-10.9751
▁forced	-10.9754
0)	-10.9754
▁trunk	-10.9755
▁immunosorbent	-10.9758
▁Experimental	-10.9758
lic	-10.9762
▁phage	-10.9765
▁nucleic	-10.9765
▁scored	-10.9766
▁developments	-10.9766
ome	-10.9771
▁wt	-10.9772
▁idea	-10.9773
long	-10.9783
▁cataract	-10.9785
▁lineages	-10.9788
▁reflecting	-10.979
▁responding	-10.9797
▁accessible	-10.9799
▁phospholipid	-10.9802
▁catalyst	-10.9802
8).	-10.9804
▁veins	-10.9804
▁TM	-10.9808
tetra	-10.9808
▁carcinogenesis	-10.9811
▁Raman	-10.9813
▁summarizes	-10.9814
▁innovative	-10.9814
fed	-10.9817
▁CKD	-10.983
ts	-10.9832
▁century	-10.9832
▁envelope	-10.9834
▁intubation	-10.984
▁Depression	-10.9843
▁interviewed	-10.9852
delta	-10.9853
BT	-10.9855
▁suture	-10.9857
(2))	-10.9857
▁call	-10.9858
▁society	-10.9858
▁intended	-10.9859
▁owing	-10.9861
▁zones	-10.9863
<0.05)	-10.9864
▁rely	-10.9866
500	-10.9867
▁PT	-10.9869
▁striatum	-10.9869
▁giant	-10.9869
▁city	-10.9869
▁osteoarthritis	-10.9879
▁prefrontal	-10.9882
-60	-10.9882
▁86	-10.9883
▁meaningful	-10.9884
▁umbilical	-10.9885
▁productivity	-10.989
▁STAT	-10.9897
▁Science	-10.9907
GR	-10.9909
▁3.1	-10.9909
▁manifestation	-10.9916
coated	-10.9917
▁cardiopulmonary	-10.9921
▁evidenced	-10.9922
SV	-10.9927
▁scaffolds	-10.9929
▁Self	-10.993
▁pulses	-10.993
▁centres	-10.9932
Al	-10.9935
▁Per	-10.9937
▁carefully	-10.9939
expression	-10.9943
▁distances	-10.9944
ology	-10.9947
▁epitope	-10.9949
tal	-10.9952
▁ambient	-10.9952
gel	-10.9954
▁aberrant	-10.9955
▁corticosteroids	-10.9955
▁HP	-10.9956
▁eventually	-10.9959
▁kappa	-10.9959
brain	-10.9964
▁SO	-10.9965
▁retrieved	-10.9966
▁categorized	-10.997
▁causative	-10.9986
▁Conversely	-10.9989
▁breath	-10.9989
▁(0.5	-10.9992
▁FSH	-10.9992
exposed	-10.9994
▁managing	-10.9994
▁VA	-10.9996
PV	-10.9996
▁termed	-11
▁0.04	-11.0001
6).	-11.0003
men	-11.0003
ography	-11.0005
▁nutrients	-11.0008
79	-11.0009
▁motifs	-11.0009
▁circumstances	-11.0011
▁Database	-11.0013
▁resident	-11.0015
coding	-11.0017
▁folding	-11.0018
▁Those	-11.0018
▁myeloma	-11.0019
▁ever	-11.0023
▁General	-11.0026
mi	-11.0027
▁propagation	-11.0028
▁epitopes	-11.0031
▁malformations	-11.0033
▁mouth	-11.0034
▁seemed	-11.0036
▁inhalation	-11.0039
▁biologically	-11.0039
▁myo	-11.004
▁kind	-11.0045
expressing	-11.0046
rate	-11.005
▁heme	-11.005
▁gross	-11.0053
▁stresses	-11.0053
▁window	-11.0053
▁accounting	-11.0053
UC	-11.0057
8-	-11.0057
▁compartments	-11.0062
▁GR	-11.0063
▁graphene	-11.0071
▁legal	-11.0073
▁AML	-11.0075
▁heterozygous	-11.0076
▁know	-11.0077
▁starch	-11.0077
▁infertility	-11.008
▁admissions	-11.008
ML	-11.0082
▁ATPase	-11.0083
▁curative	-11.0084
▁remove	-11.0088
LM	-11.0093
▁uncertain	-11.0094
▁Delta	-11.0094
▁hypothalamus	-11.0102
ATP	-11.0109
▁cover	-11.0112
uantitative	-11.0115
▁top	-11.0119
opolysaccharide	-11.0121
▁enabling	-11.0121
▁myosin	-11.0123
▁deliver	-11.0126
▁4.0	-11.0127
▁trypsin	-11.0134
▁1.9	-11.0135
▁periodic	-11.0142
▁coronavirus	-11.0142
▁Cross	-11.0142
▁juvenile	-11.0143
ras	-11.0144
▁EBV	-11.0144
▁atherosclerotic	-11.0145
▁kb	-11.0146
▁translational	-11.0146
▁programmes	-11.0146
acid	-11.0148
▁0,	-11.0151
RD	-11.0152
▁seeking	-11.0157
▁connections	-11.0157
▁flat	-11.0167
▁follicles	-11.017
ea	-11.0171
▁incorporating	-11.0172
▁mimic	-11.0173
▁consultation	-11.0173
▁TC	-11.0175
▁glycine	-11.0175
▁hazards	-11.0178
▁corn	-11.0178
▁probable	-11.018
2+]	-11.0181
▁winter	-11.0182
▁limbs	-11.0184
▁ADP	-11.0188
▁raw	-11.019
▁dopaminergic	-11.0194
▁dilution	-11.0198
▁elongation	-11.0199
200	-11.0201
▁car	-11.0202
▁wet	-11.0203
▁NR	-11.0205
▁septic	-11.0205
▁coating	-11.0206
▁z	-11.0207
▁bacterium	-11.0208
▁German	-11.0211
▁GSH	-11.0214
ill	-11.0214
▁modest	-11.0215
▁prolactin	-11.0215
▁minority	-11.0216
▁immobilized	-11.0217
▁0.05),	-11.0219
▁mapped	-11.022
▁briefly	-11.0223
MG	-11.0224
▁boundary	-11.0227
▁abscess	-11.0234
▁colonies	-11.0235
AE	-11.0235
▁facilitates	-11.0237
▁accounts	-11.0237
LF	-11.0237
▁behind	-11.0238
▁competence	-11.0239
▁duodenal	-11.0239
▁behaviours	-11.0242
▁relating	-11.0242
▁primers	-11.0246
64	-11.0247
▁augmented	-11.0249
chloro	-11.025
▁fluoride	-11.0252
▁retrieval	-11.0255
▁damaged	-11.0257
EA	-11.026
▁finite	-11.0261
▁progressively	-11.0261
▁cholinergic	-11.0269
▁diagnose	-11.0276
▁repeats	-11.0276
▁square	-11.0276
59	-11.0284
▁UC	-11.0287
▁prevents	-11.0288
▁bioactive	-11.0294
▁lithium	-11.0295
▁vomiting	-11.0297
▁Retrospective	-11.0304
▁endovascular	-11.0304
84	-11.0305
cc	-11.0306
▁resuscitation	-11.0307
▁intraocular	-11.0311
▁physiologic	-11.0313
▁built	-11.0313
02	-11.0315
▁FGF	-11.0319
9).	-11.0321
▁SI	-11.0324
▁HSP	-11.0325
ron	-11.0328
flow	-11.0329
77	-11.0331
▁Whereas	-11.0334
sa	-11.0334
▁persisted	-11.0334
▁Ch	-11.0338
000	-11.0339
EB	-11.035
▁Food	-11.035
▁round	-11.035
RV	-11.0352
▁excitatory	-11.0352
▁antiretroviral	-11.0356
▁AI	-11.0358
▁affective	-11.0363
▁TF	-11.0363
▁axonal	-11.0363
▁univariate	-11.0364
▁schedule	-11.0364
▁allogeneic	-11.0369
cause	-11.037
▁angina	-11.0371
▁lowered	-11.0374
(+)-	-11.0374
MO	-11.0377
▁epidural	-11.0377
▁dys	-11.0378
▁cyclase	-11.038
▁resected	-11.0383
▁differs	-11.0383
suppressive	-11.0386
fer	-11.0387
SL	-11.0387
▁phosphorus	-11.0388
▁Increasing	-11.0394
▁theories	-11.0397
▁structurally	-11.0398
▁nephropathy	-11.0399
▁registration	-11.0401
ig	-11.0402
▁ad	-11.0403
▁automatic	-11.0404
▁ago	-11.0405
▁agar	-11.0407
▁5,	-11.0409
▁homo	-11.0411
▁copies	-11.0416
▁hemi	-11.0416
▁classic	-11.0417
▁5.0	-11.0419
▁1994	-11.0421
▁precipitation	-11.0423
▁psoriasis	-11.0424
▁NPs	-11.0424
GP	-11.0427
arginine	-11.043
▁SN	-11.0433
▁reasonable	-11.0434
▁parietal	-11.0435
▁Higher	-11.0435
HI	-11.0435
▁82	-11.0436
▁Out	-11.0443
ens	-11.0444
▁applicability	-11.0454
▁sensitization	-11.0457
go	-11.046
▁oxidized	-11.046
▁individually	-11.0463
▁stone	-11.0466
▁dioxide	-11.0468
▁tRNA	-11.047
▁oligo	-11.0472
▁rose	-11.0473
sh	-11.048
▁3.3	-11.0484
▁lysine	-11.0486
LP	-11.0488
▁bolus	-11.0489
▁institutional	-11.0494
▁actively	-11.0497
/100	-11.0498
▁written	-11.0503
54	-11.0503
structured	-11.0509
▁transporters	-11.051
▁cyclo	-11.051
nt	-11.0512
▁(5-	-11.0514
▁Mycobacterium	-11.0515
choline	-11.0516
94	-11.0516
TI	-11.0517
LDL	-11.0518
▁patho	-11.052
gen	-11.0525
▁2018	-11.0528
chemical	-11.053
▁glycogen	-11.0532
▁NMDA	-11.0532
▁gp	-11.0534
▁LT	-11.0534
(-/-)	-11.0543
▁provider	-11.0545
▁6%	-11.0549
▁papillary	-11.0551
▁trees	-11.0555
▁modelling	-11.0555
▁cycling	-11.0555
▁illustrated	-11.0558
▁GnRH	-11.0558
fat	-11.0563
▁began	-11.0564
▁powder	-11.0565
▁inputs	-11.0567
▁split	-11.0569
▁surveyed	-11.057
▁Short	-11.057
activity	-11.0581
▁serves	-11.0584
▁reward	-11.0586
RM	-11.0587
▁antifungal	-11.0587
▁fibrinogen	-11.0588
▁termination	-11.0591
▁hierarchical	-11.0592
ina	-11.0595
▁antigenic	-11.0596
▁impairments	-11.0597
▁rational	-11.0598
▁counterparts	-11.0598
▁endoplasmic	-11.0598
Ag	-11.0601
precipitation	-11.0604
MF	-11.0605
ot	-11.0607
▁Ang	-11.061
▁overlapping	-11.0612
125	-11.0614
▁PEG	-11.0614
▁83	-11.0617
▁guided	-11.0618
▁ammonia	-11.0618
so	-11.0619
▁handling	-11.062
▁publication	-11.0621
HP	-11.0622
▁MDA	-11.0624
▁inherent	-11.0624
▁liposomes	-11.0625
▁participant	-11.0626
▁positivity	-11.0628
▁presumably	-11.0629
▁Experiment	-11.0629
▁influx	-11.0631
▁reversal	-11.0631
▁urgent	-11.0633
-30	-11.0634
▁intraperitoneal	-11.0636
▁Social	-11.0643
▁circuit	-11.0644
▁confined	-11.0645
▁agricultural	-11.0649
▁designs	-11.065
▁CHD	-11.065
tus	-11.065
▁BRCA	-11.0651
▁lengths	-11.0653
▁moiety	-11.0654
▁mutated	-11.0655
▁clonal	-11.0657
▁bonding	-11.0658
▁fell	-11.0663
▁triglyceride	-11.0664
▁players	-11.0666
▁ribosomal	-11.0668
▁3.4	-11.0668
Ms	-11.0669
▁1999	-11.0669
▁summarized	-11.067
▁guideline	-11.0672
psychological	-11.0677
▁fetus	-11.0678
EL	-11.0678
ub	-11.0678
▁SEM	-11.0681
]-	-11.0682
domain	-11.0687
▁atom	-11.0689
▁Streptococcus	-11.0693
▁receiver	-11.0698
▁null	-11.07
▁crop	-11.0702
▁ubiquitin	-11.0702
GI	-11.0704
▁pmol	-11.0704
PB	-11.0704
▁habits	-11.0708
▁Ba	-11.0709
▁EF	-11.0713
micro	-11.0713
▁parathyroid	-11.0716
▁screw	-11.0719
band	-11.0721
butyl	-11.0727
▁8%	-11.0728
ane	-11.0733
▁rank	-11.0736
▁micromol	-11.0736
▁mutagenesis	-11.0739
BD	-11.0739
ow	-11.0743
▁polymerization	-11.0744
▁exhibiting	-11.0747
▁kept	-11.0747
▁1993	-11.0748
▁TR	-11.0748
▁Eighty	-11.075
▁resorption	-11.0753
▁Secondary	-11.0756
▁multivariable	-11.0759
▁Indian	-11.0762
position	-11.0764
OC	-11.0765
▁gyrus	-11.0767
▁trimester	-11.0771
▁binary	-11.0779
▁scar	-11.0785
income	-11.0786
DF	-11.0793
▁promoters	-11.0793
▁demographics	-11.0794
CG	-11.0795
▁plaques	-11.0799
▁Dis	-11.0799
▁stop	-11.08
▁7.5	-11.0805
▁debate	-11.0806
▁microvascular	-11.0806
▁septal	-11.0808
▁Asia	-11.0811
▁viscosity	-11.0812
▁relate	-11.0813
▁emotion	-11.0817
▁spectroscopic	-11.0821
▁HSV	-11.0828
ps	-11.0829
ula	-11.0829
ob	-11.0832
▁MEDLINE	-11.0834
▁perforation	-11.0836
▁dairy	-11.0838
▁15-	-11.0839
▁put	-11.0843
▁cellulose	-11.0846
▁spermatozoa	-11.0847
▁sludge	-11.0847
▁circumference	-11.085
inositol	-11.0853
BS	-11.0854
▁clinicopatholog	-11.0856
▁pigment	-11.0857
▁motivation	-11.0858
▁quickly	-11.0861
▁telephone	-11.0861
▁southern	-11.0861
▁strand	-11.0862
▁intravenously	-11.0863
▁branches	-11.0864
▁rules	-11.0866
▁wavelength	-11.0867
72	-11.0869
▁creating	-11.087
▁prescribing	-11.0872
▁6,	-11.0874
▁arrhythmias	-11.0875
▁summer	-11.0878
-6-	-11.0885
-21	-11.0886
▁(13	-11.0887
▁PV	-11.0894
▁tracheal	-11.0897
IA	-11.0898
▁paediatric	-11.0899
▁ionization	-11.0899
▁descending	-11.0899
▁fertilization	-11.0902
▁loaded	-11.0902
normal	-11.0904
acting	-11.0905
▁organized	-11.0905
▁1980	-11.091
▁3.6	-11.0912
▁BMP	-11.0918
bis	-11.0919
▁0.06	-11.0923
ear	-11.0923
)(	-11.0923
▁inorganic	-11.0924
▁disappeared	-11.0926
▁0.25	-11.0931
▁projection	-11.0932
▁spite	-11.0932
▁larval	-11.0934
▁BA	-11.0934
▁SB	-11.0934
called	-11.0936
▁cerebellum	-11.0936
▁meningitis	-11.0936
▁quantities	-11.0939
▁porous	-11.0941
▁registry	-11.0945
▁suggestive	-11.0945
▁discriminate	-11.0946
▁proteolytic	-11.0955
▁differing	-11.0957
▁Tumor	-11.0958
▁retrograde	-11.0958
mu	-11.0958
▁nonspecific	-11.096
▁PL	-11.096
▁filled	-11.0963
toxic	-11.0964
▁newborns	-11.0967
▁demonstration	-11.0968
▁predicts	-11.0968
osa	-11.0968
GH	-11.0971
▁110	-11.0973
▁irreversible	-11.0974
▁zebrafish	-11.0974
▁dust	-11.0976
▁fabricated	-11.0979
▁sporadic	-11.0981
▁angles	-11.0982
▁nausea	-11.0983
▁85%	-11.0983
IN	-11.099
den	-11.0991
▁Pain	-11.0992
▁PB	-11.0997
▁recessive	-11.0997
▁outbreaks	-11.1003
41	-11.1005
▁assisted	-11.1006
▁chart	-11.1009
▁autopsy	-11.1015
hypersensitivity	-11.1022
▁rescue	-11.1022
▁echo	-11.1024
▁mesenteric	-11.1024
▁averaged	-11.1024
▁vestibular	-11.1025
▁Ph	-11.1029
▁splenic	-11.103
BE	-11.103
▁88	-11.1031
▁irrespective	-11.1032
▁chromatographic	-11.1035
human	-11.1038
▁interacts	-11.1042
GT	-11.1042
light	-11.1043
▁Kaplan	-11.1044
▁connective	-11.1044
▁solubility	-11.1045
▁geographical	-11.1046
▁fail	-11.1046
▁foci	-11.1047
▁Black	-11.1048
▁inconsistent	-11.1051
▁dermatitis	-11.1054
▁LS	-11.1063
▁retro	-11.1065
Dawley	-11.1067
▁Ab	-11.1068
▁cleft	-11.1076
Meier	-11.1077
▁soybean	-11.1077
▁gray	-11.108
▁perceptual	-11.1083
ward	-11.1083
▁sexes	-11.1093
▁supportive	-11.1095
▁consequently	-11.1096
-2)	-11.1097
▁sector	-11.1098
▁assumption	-11.1098
▁Development	-11.1099
▁prone	-11.1102
1.7	-11.1106
▁adequately	-11.111
▁herein	-11.1113
▁%)	-11.1115
▁TS	-11.112
▁Pt	-11.1122
▁northern	-11.1123
▁genetics	-11.1126
▁passage	-11.1126
▁shortening	-11.1126
▁French	-11.1126
▁prostatic	-11.1127
▁enter	-11.1128
▁Model	-11.1132
▁minute	-11.1132
▁unexpected	-11.1136
▁taxa	-11.114
1.8	-11.1142
her	-11.1143
▁retardation	-11.1144
52	-11.1145
66	-11.1151
▁norepinephrine	-11.1152
base	-11.1154
▁implementing	-11.1157
▁neuromuscular	-11.1158
▁embolization	-11.116
▁Sprague	-11.1161
▁junctions	-11.1162
▁voluntary	-11.1164
▁Prospective	-11.1167
▁falls	-11.117
▁mating	-11.1171
▁activates	-11.1171
▁glycol	-11.1171
▁entered	-11.1172
▁Canadian	-11.1175
▁0.0001).	-11.1175
▁sedation	-11.1176
logy	-11.1177
▁dismutase	-11.1179
▁Surgery	-11.1179
▁autism	-11.1179
▁pathologies	-11.1179
▁attacks	-11.1179
▁strongest	-11.1181
▁genital	-11.1182
▁energies	-11.1182
▁perhaps	-11.1182
▁glycerol	-11.1183
OP	-11.1186
depth	-11.1189
▁drivers	-11.1191
▁degenerative	-11.1191
▁psycho	-11.1191
96	-11.1193
▁remarkably	-11.1194
▁Chi	-11.1195
▁EP	-11.1197
late	-11.1199
▁st	-11.1201
▁filaments	-11.1201
▁plates	-11.1205
▁skull	-11.1206
▁habitat	-11.1207
istic	-11.121
▁Specific	-11.121
▁learn	-11.1212
adrenergic	-11.1215
▁intermediates	-11.1216
▁learned	-11.1216
▁covering	-11.1217
▁unlikely	-11.1221
actin	-11.1222
▁abortion	-11.1223
▁dilatation	-11.123
▁5.5	-11.1234
ivity	-11.1236
▁preoperatively	-11.1236
▁spike	-11.1237
ran	-11.1237
▁endpoint	-11.1239
82	-11.124
▁constituents	-11.1241
▁TE	-11.1241
▁ammonium	-11.1243
molecular	-11.1248
06	-11.1249
▁suffer	-11.1251
Br	-11.1252
89	-11.1253
▁alanine	-11.1255
▁Inventory	-11.1256
eb	-11.1258
▁81	-11.1261
emic	-11.1262
▁engineered	-11.1262
▁Oral	-11.1262
▁traffic	-11.1262
ultidisciplinary	-11.1263
▁breastfeeding	-11.1263
▁defining	-11.1266
▁cytology	-11.1268
AUC	-11.127
▁add	-11.1274
▁fibrin	-11.1276
▁departments	-11.128
▁spindle	-11.1281
▁oncology	-11.1283
▁weighted	-11.1284
▁bases	-11.1284
▁endotoxin	-11.1284
▁grain	-11.1287
ish	-11.1291
▁87	-11.1294
▁ACTH	-11.1296
▁White	-11.1296
▁weakness	-11.1298
▁Bo	-11.1299
ped	-11.1299
▁methanol	-11.1302
▁wrist	-11.1304
▁harm	-11.1305
▁palsy	-11.1307
▁stimulates	-11.1309
▁employment	-11.1312
bo	-11.1313
WT	-11.1315
▁Her	-11.1318
▁Exposure	-11.1319
09	-11.132
▁tongue	-11.1322
▁Bone	-11.1322
▁interfere	-11.1324
78	-11.1324
▁faculty	-11.1328
▁decomposition	-11.1334
,"	-11.1337
▁4)	-11.1337
CRP	-11.1337
▁sufficiently	-11.1338
ano	-11.1338
▁deletions	-11.1339
▁dermal	-11.1343
ROS	-11.1343
▁killing	-11.1344
▁subcellular	-11.1347
▁Br	-11.1348
NB	-11.1348
▁concerned	-11.1352
▁pivotal	-11.1353
▁1992	-11.1354
▁reconstructed	-11.1354
▁disulfide	-11.1355
▁SOD	-11.1355
SEM	-11.1356
74	-11.1357
▁Pi	-11.1359
▁Ac	-11.1359
▁college	-11.1364
▁racial	-11.1367
▁mediates	-11.1367
▁mumol	-11.1368
<0.001)	-11.137
▁rating	-11.1371
▁VO	-11.1372
▁arrays	-11.1373
▁sc	-11.1374
▁TH	-11.1375
▁siRNA	-11.1376
▁tight	-11.1377
▁intention	-11.1379
▁plexus	-11.1382
▁plasmids	-11.139
▁initiate	-11.1391
▁capabilities	-11.1391
myc	-11.1395
▁osteo	-11.1396
=3	-11.1399
▁clinician	-11.14
▁come	-11.1401
▁ART	-11.1403
ns	-11.1403
▁firing	-11.1413
del	-11.1414
�%	-11.1414
▁Akt	-11.1414
cancer	-11.1415
▁Arg	-11.1416
▁35%	-11.1417
▁tumorigenesis	-11.1419
▁confocal	-11.1419
▁glucocorticoid	-11.1422
▁West	-11.1424
GE	-11.1426
1.6	-11.1433
▁apnea	-11.1434
81	-11.1434
▁prompt	-11.1436
▁concentrated	-11.1443
▁box	-11.1443
ge	-11.1443
▁Inhibition	-11.1443
▁Few	-11.1443
▁gradients	-11.1443
▁12%	-11.1445
▁voice	-11.145
▁phantom	-11.145
▁scenario	-11.1453
▁dimer	-11.1454
▁NADPH	-11.1458
▁experiencing	-11.146
▁inducible	-11.1462
▁coated	-11.1463
▁switching	-11.1466
▁PTH	-11.1466
▁propensity	-11.1467
▁spring	-11.1469
▁inappropriate	-11.1471
▁adenoma	-11.1472
NR	-11.1473
▁adhesive	-11.1474
OX	-11.1475
▁MP	-11.1476
▁divergence	-11.1476
FM	-11.148
au	-11.1481
▁Crohn	-11.1486
▁agreed	-11.1486
▁anal	-11.149
▁heating	-11.1492
▁conductivity	-11.1493
can	-11.1495
▁Postoperative	-11.1497
▁mitogen	-11.1497
▁sexually	-11.15
ef	-11.1503
▁anesthetic	-11.1503
%;	-11.1504
cis	-11.1504
▁laryngeal	-11.1506
thio	-11.1511
▁walls	-11.1513
▁thymus	-11.1513
ork	-11.1514
▁spherical	-11.1514
▁(17	-11.1517
▁mediator	-11.1519
▁arms	-11.152
▁attributes	-11.1521
▁claims	-11.1522
▁timely	-11.1523
Se	-11.1524
▁characterised	-11.1527
▁Examination	-11.1529
▁1991	-11.1537
▁electrostatic	-11.1538
LR	-11.1538
▁amygdala	-11.1541
▁asymmetry	-11.1544
▁supra	-11.1545
▁89	-11.1549
2�	-11.1549
▁analogs	-11.155
▁trafficking	-11.155
▁Direct	-11.155
▁allocation	-11.155
Group	-11.1551
▁MCF	-11.1551
cycle	-11.1554
▁elicit	-11.1554
▁pan	-11.1555
▁polymorphic	-11.1557
▁iodine	-11.1559
0.5	-11.1561
05	-11.1566
▁emphasize	-11.1567
rus	-11.1567
07	-11.1567
linear	-11.1569
▁IBD	-11.157
▁augmentation	-11.1571
sensitivity	-11.1572
58	-11.1574
▁distinctive	-11.1575
▁executive	-11.1576
▁argue	-11.1578
nic	-11.1583
▁restore	-11.1585
▁allocated	-11.1587
▁me	-11.1596
▁curriculum	-11.1596
▁pacing	-11.1596
ological	-11.16
▁preceding	-11.1603
HCV	-11.161
▁HO	-11.1611
▁accordance	-11.1611
▁hypotension	-11.1615
▁Os	-11.1615
▁catheters	-11.1617
item	-11.1618
ero	-11.1619
▁depolarization	-11.1621
NPs	-11.1622
▁sulfur	-11.1622
▁Phase	-11.1622
▁MB	-11.1622
▁links	-11.1627
▁vesicle	-11.1627
▁Day	-11.1629
▁Southern	-11.1633
▁Fourier	-11.1633
▁scope	-11.1634
▁genera	-11.1639
GB	-11.1639
▁chemically	-11.1641
▁RS	-11.1643
▁contexts	-11.1645
▁triglycerides	-11.1646
▁symmetry	-11.1647
▁TT	-11.1647
▁deformity	-11.1649
we	-11.165
pe	-11.165
▁semantic	-11.1653
▁microgram	-11.1655
weeks	-11.1656
▁continuing	-11.1658
▁(0	-11.1659
▁hereditary	-11.166
▁Physical	-11.1663
idine	-11.1665
▁safely	-11.1667
▁GS	-11.1668
pt	-11.1668
▁Lys	-11.1669
sc	-11.1671
▁displays	-11.1673
▁possibilities	-11.1673
-36	-11.1673
▁facilitating	-11.1686
▁femur	-11.1686
▁transcribed	-11.1689
▁(24	-11.1689
▁eliminate	-11.169
▁Subsequently	-11.1692
▁biologic	-11.1695
4%)	-11.1697
1.5	-11.1698
▁lowering	-11.1698
CK	-11.17
▁plasminogen	-11.1702
61	-11.1703
▁vulnerability	-11.1705
ho	-11.1705
▁derive	-11.1707
▁myelin	-11.1711
▁sports	-11.1714
EN	-11.1715
3.3	-11.1716
▁pulp	-11.1718
uc	-11.1722
(6)	-11.1723
▁titanium	-11.1726
▁fibronectin	-11.1726
▁perfused	-11.1731
▁era	-11.1731
▁synapses	-11.1733
▁MDR	-11.1735
▁responders	-11.1737
▁priority	-11.1738
▁challenged	-11.1739
▁3.7	-11.1741
chemotherapeutic	-11.1744
efficacy	-11.1745
▁embolism	-11.1747
▁felt	-11.1758
▁Hb	-11.1761
▁burst	-11.1764
▁600	-11.1764
borne	-11.1765
6%)	-11.1767
▁shell	-11.1782
▁orders	-11.1787
03	-11.1787
▁hemorrhagic	-11.1794
▁lean	-11.1795
▁Hyper	-11.1799
▁Unlike	-11.1799
▁stationary	-11.1799
-40	-11.18
93	-11.1802
modified	-11.1807
3/	-11.1811
▁prosthetic	-11.1812
▁25-	-11.1814
▁neoplasia	-11.1818
▁opinion	-11.1818
+)	-11.1819
▁Ma	-11.182
▁Korean	-11.182
▁VI	-11.1821
▁landscape	-11.1822
FC	-11.1822
▁metrics	-11.1832
▁accomplished	-11.1832
▁raise	-11.1836
▁DS	-11.1841
▁aquatic	-11.1843
▁harmful	-11.1844
square	-11.1846
ud	-11.1851
▁98	-11.1852
▁rigid	-11.1853
▁exceeded	-11.1855
▁attitude	-11.1855
ise	-11.1855
▁cytosol	-11.1859
▁match	-11.1859
▁calcification	-11.1861
▁TBI	-11.1864
▁actually	-11.1866
▁cough	-11.1872
▁virtually	-11.1874
▁avoided	-11.1875
▁California	-11.1876
▁rings	-11.1877
▁indicative	-11.1881
target	-11.1883
ix	-11.1888
▁grouped	-11.1891
▁synthesize	-11.1892
▁97	-11.1895
▁reliably	-11.1897
▁dissolved	-11.1897
▁Cells	-11.19
act	-11.1901
▁border	-11.1902
▁identifies	-11.1903
▁doxorubicin	-11.1905
cadherin	-11.1907
▁93	-11.1907
0.0	-11.1916
▁painful	-11.1916
▁monocyte	-11.1918
▁conjugated	-11.1919
▁Little	-11.1919
▁92	-11.1919
▁deposits	-11.192
▁angioplasty	-11.1922
▁IM	-11.1923
ntihypertensive	-11.1925
▁diagnosing	-11.1925
sided	-11.1926
▁And	-11.1928
(-1))	-11.1929
▁mobilization	-11.1931
▁encode	-11.1932
▁assistance	-11.1932
▁codes	-11.1933
▁specialist	-11.1934
▁(40	-11.1935
▁expand	-11.1937
TD	-11.194
▁item	-11.194
▁Male	-11.1942
2.1	-11.1944
4(+)	-11.1944
▁.001)	-11.1948
▁antidepressant	-11.195
▁DE	-11.1953
▁neuroendocrine	-11.1954
▁albicans	-11.1955
report	-11.1957
▁adenomas	-11.1959
host	-11.196
▁away	-11.196
▁oscillations	-11.1961
▁Ninety	-11.1964
▁Meta	-11.1965
▁simulate	-11.1968
therapy	-11.1969
AN	-11.1971
ogen	-11.1983
▁monolayer	-11.1984
▁TCR	-11.1985
▁coordinated	-11.1985
▁folate	-11.1985
▁94	-11.1989
▁effusion	-11.1991
▁stigma	-11.1993
0.00	-11.1995
▁acceleration	-11.1996
▁HbA	-11.1996
04	-11.1996
▁2020	-11.1997
▁infarct	-11.1998
▁mentioned	-11.2
▁vertebrate	-11.2001
▁temporary	-11.2002
▁matrices	-11.2002
FF	-11.2003
post	-11.2007
▁stratification	-11.2009
mal	-11.2009
▁pharmacy	-11.2016
rated	-11.2017
▁lactation	-11.2019
▁routes	-11.2019
▁topics	-11.2019
▁weakly	-11.2022
▁BALB	-11.2023
▁constitutive	-11.2025
▁expenditure	-11.2027
▁axon	-11.2029
▁deformation	-11.2031
▁DP	-11.2031
▁7%	-11.2033
▁fibrous	-11.2035
SCs	-11.2035
HCC	-11.2036
▁hemisphere	-11.2039
▁meaning	-11.2045
▁discontinuation	-11.2047
GO	-11.2049
2%)	-11.205
Is	-11.2051
▁shed	-11.2051
▁ineffective	-11.2052
nucleotide	-11.2053
8),	-11.2053
▁flaps	-11.2054
▁Tri	-11.2054
▁confirming	-11.2056
tra	-11.206
▁stabilized	-11.2063
▁Considering	-11.207
▁brainstem	-11.2071
2.3	-11.2071
▁13%	-11.2074
▁tear	-11.2076
▁Bayesian	-11.2076
affinity	-11.2079
▁killed	-11.2081
▁cardio	-11.2082
▁chance	-11.2083
cholesterol	-11.2084
▁disparities	-11.2089
▁PF	-11.2093
RI	-11.2094
▁BD	-11.2094
▁East	-11.2096
▁standing	-11.2097
ND	-11.2098
▁afferent	-11.2098
▁dissolution	-11.2099
linking	-11.21
▁broader	-11.2103
▁taste	-11.2107
▁crossover	-11.2108
▁oxygenation	-11.2109
ct	-11.2109
▁Ru	-11.2111
he	-11.2111
▁sent	-11.2111
istopathological	-11.2113
▁lipase	-11.2114
ning	-11.2115
▁College	-11.2115
▁cochlear	-11.2116
Arg	-11.2117
RC	-11.2118
gram	-11.2119
▁3.8	-11.2124
▁positioning	-11.2125
▁radius	-11.2125
FS	-11.2126
▁MV	-11.2128
▁esophagus	-11.2128
▁locomotor	-11.2128
acetate	-11.2129
▁crisis	-11.2132
▁catalase	-11.2132
▁stents	-11.2133
▁Life	-11.2133
▁Eleven	-11.2145
▁lysis	-11.2145
ified	-11.2145
▁luminal	-11.2145
▁moment	-11.2147
▁indirectly	-11.2148
▁acyl	-11.2153
stimulating	-11.2154
▁mercury	-11.2155
▁retinopathy	-11.2158
5�	-11.2159
▁MK	-11.2159
pH	-11.2162
600	-11.2163
▁signature	-11.2165
▁sharp	-11.2169
▁thick	-11.2173
▁collect	-11.2173
▁musculoskeletal	-11.2176
▁designing	-11.2177
▁definite	-11.2178
(2+)-	-11.2178
▁bis	-11.2179
Tc	-11.2181
factor	-11.2185
▁140	-11.2187
ino	-11.2191
▁SCC	-11.2192
▁islet	-11.2193
▁microtubule	-11.2194
ard	-11.2195
▁confounding	-11.2195
▁Italy	-11.2196
▁cuff	-11.2201
▁projections	-11.2203
▁floor	-11.2203
▁comorbidity	-11.2205
ica	-11.2205
▁wider	-11.2206
▁degraded	-11.2208
▁confirms	-11.2211
▁haplotype	-11.2211
▁addiction	-11.2213
▁phospholipase	-11.2213
nm	-11.2214
▁presentations	-11.2215
effect	-11.2215
▁margins	-11.2216
▁rodent	-11.2217
set	-11.2219
cl	-11.222
NI	-11.2223
ular	-11.2224
▁Class	-11.2224
▁creation	-11.223
▁phospholipids	-11.2231
▁salvage	-11.2232
91	-11.2233
▁trajectories	-11.2233
▁disabilities	-11.2233
EE	-11.2233
▁immunoreactive	-11.2235
▁0.01),	-11.2235
▁favor	-11.2238
▁fused	-11.2241
▁brought	-11.2243
▁Saccharomyces	-11.225
▁segmental	-11.2251
3;	-11.2253
▁prepare	-11.2254
ax	-11.2255
▁Internet	-11.226
▁viewed	-11.2261
▁4.2	-11.2263
▁detector	-11.2264
▁ecosystem	-11.2266
▁Approximately	-11.2266
▁impedance	-11.2269
1.3	-11.2269
▁synovial	-11.2269
▁na	-11.2271
▁solar	-11.2273
coupled	-11.2275
▁maize	-11.2279
GG	-11.2284
▁computerized	-11.2285
▁hope	-11.2286
sub	-11.2286
▁fractional	-11.2286
TH	-11.2288
1.1	-11.2293
▁wear	-11.2297
▁get	-11.2298
mp	-11.2301
▁lymphomas	-11.2302
▁Score	-11.2303
pr	-11.2304
▁endometriosis	-11.2306
▁ultrastructural	-11.2306
cyclophosphamide	-11.2309
/10	-11.231
▁neoplasm	-11.2311
▁allergen	-11.2312
▁cosmetic	-11.2312
▁Liver	-11.2319
▁Medicare	-11.2322
volume	-11.2323
▁semen	-11.2324
▁cloning	-11.2329
▁tunnel	-11.233
▁investigators	-11.2334
▁Experiments	-11.234
▁escape	-11.2342
▁front	-11.2343
▁downregulation	-11.2344
▁engage	-11.2347
▁Diagnostic	-11.2352
▁downregulated	-11.2352
▁14%	-11.2353
▁lives	-11.2359
▁thrombus	-11.2359
▁revealing	-11.2361
thrombocytopenia	-11.2367
▁OC	-11.2368
▁biomechanical	-11.2369
▁intron	-11.2372
▁rodents	-11.2375
▁7,	-11.2378
▁0.07	-11.2381
▁cone	-11.2384
▁sequelae	-11.2386
▁exploratory	-11.2387
only	-11.2387
▁robotic	-11.2388
▁differently	-11.2388
▁Before	-11.2392
▁cytoskeleton	-11.2395
▁reagents	-11.2397
▁cap	-11.2397
▁mesh	-11.2398
▁monotherapy	-11.2403
▁hamster	-11.2404
▁boy	-11.2404
▁organizational	-11.2404
▁RE	-11.2404
▁bones	-11.2408
ons	-11.2409
▁desirable	-11.2412
▁mixing	-11.2413
Re	-11.2417
▁monthly	-11.2419
▁substitutions	-11.2419
ising	-11.2421
ov	-11.2421
▁proteases	-11.2422
▁dissemination	-11.2422
▁radioactivity	-11.2423
▁fibre	-11.2424
▁conjugate	-11.2424
▁thereafter	-11.2425
▁disrupted	-11.2425
▁SW	-11.2426
▁DSM	-11.2429
▁move	-11.2429
▁senescence	-11.2429
▁disseminated	-11.243
▁Brain	-11.2432
▁adapt	-11.2432
▁adoption	-11.2433
▁extending	-11.2433
3.1	-11.2434
▁lag	-11.2437
hazard	-11.244
▁percentages	-11.2441
▁contrary	-11.2442
▁expensive	-11.2446
▁Accordingly	-11.2451
▁sharing	-11.2452
clinical	-11.2452
▁aberrations	-11.2455
▁sustainable	-11.2456
▁Adult	-11.2458
▁Global	-11.2458
ealand	-11.2459
▁highlighting	-11.2461
loaded	-11.2463
▁Glu	-11.2465
▁ultrasonic	-11.2466
▁sac	-11.2467
▁compact	-11.247
▁CCR	-11.2472
Met	-11.2472
▁geometric	-11.2473
▁Ig	-11.2475
▁stones	-11.2476
▁OCT	-11.2479
▁penicillin	-11.2481
▁uterus	-11.2483
vis	-11.2483
▁faces	-11.2485
6),	-11.2489
▁transforming	-11.2491
▁supplement	-11.2493
▁medicinal	-11.2493
▁forearm	-11.2493
▁gradual	-11.2495
▁lavage	-11.2496
▁Fas	-11.2497
▁quasi	-11.2498
▁Knowledge	-11.25
▁hygiene	-11.2503
▁tailored	-11.2507
▁articular	-11.2509
▁graded	-11.2511
▁chiral	-11.2512
▁PRL	-11.2514
▁spatially	-11.2517
▁Indeed	-11.252
▁therapeutics	-11.2523
▁efficacious	-11.2523
▁teams	-11.2524
AIDS	-11.2526
▁glucagon	-11.2528
▁Golgi	-11.2533
VO	-11.2534
▁successive	-11.2535
▁alkyl	-11.2535
limiting	-11.2536
▁oocyte	-11.2539
▁hands	-11.2541
▁originating	-11.2543
▁spot	-11.2545
▁representations	-11.2546
not	-11.2547
▁twin	-11.2549
▁volatile	-11.2549
▁patency	-11.255
▁paid	-11.2556
▁Go	-11.2556
▁follicle	-11.2556
▁helix	-11.2557
vi	-11.2557
7),	-11.256
▁Spanish	-11.2561
FL	-11.2562
lan	-11.2562
tropic	-11.2568
yn	-11.2569
▁citrate	-11.2573
▁rod	-11.2574
Ch	-11.2576
administered	-11.2577
0).	-11.2577
▁tryptophan	-11.2579
▁bundle	-11.2582
sized	-11.2583
▁absorbed	-11.2586
▁interactive	-11.2587
▁detrimental	-11.2587
▁Whether	-11.2588
mes	-11.2589
▁TiO	-11.2593
label	-11.2593
▁functionality	-11.2594
5),	-11.2596
▁4.1	-11.2598
▁abdomen	-11.2598
2.6	-11.2599
neurotransmitter	-11.2599
▁cationic	-11.2603
fa	-11.2604
▁parenteral	-11.2605
▁HI	-11.2606
▁road	-11.2608
▁conducting	-11.261
▁regime	-11.2615
total	-11.2616
▁arrangement	-11.2616
(50)	-11.2617
▁avian	-11.2619
▁shifted	-11.2619
port	-11.2623
▁integrin	-11.2624
▁immunized	-11.2625
par	-11.2625
▁91	-11.2626
▁EA	-11.2628
▁confirmation	-11.2628
▁chickens	-11.2635
rt	-11.2636
▁cadmium	-11.2639
▁Fifteen	-11.2643
▁exploring	-11.2643
▁vocal	-11.2645
▁span	-11.2646
otic	-11.2649
▁France	-11.2653
▁mind	-11.2653
▁resolve	-11.2654
▁calves	-11.2656
▁insects	-11.2657
▁ultraviolet	-11.2657
▁cutoff	-11.266
▁advice	-11.266
▁Americans	-11.2662
▁relies	-11.2663
surgical	-11.2667
▁proinflammatory	-11.267
▁spreading	-11.2671
ulin	-11.2673
▁workplace	-11.2674
▁OH	-11.2676
▁corpus	-11.268
▁labelled	-11.2681
▁exerted	-11.2681
mode	-11.2682
▁striking	-11.2683
3%)	-11.2684
▁scaling	-11.2687
▁3'-	-11.2693
▁notion	-11.2698
▁11%	-11.2698
▁replace	-11.27
metry	-11.27
ELISA	-11.2701
▁particulate	-11.2702
▁dB	-11.2703
soluble	-11.2705
▁fifth	-11.2708
▁definitions	-11.2709
▁endpoints	-11.2709
born	-11.271
channel	-11.2712
▁suicidal	-11.2712
▁FL	-11.2712
▁contemporary	-11.2715
▁overexpressed	-11.2716
▁grades	-11.2717
▁convenient	-11.2717
▁About	-11.2719
▁go	-11.2722
▁33%	-11.2723
▁helps	-11.2724
▁loads	-11.2726
▁tubes	-11.2728
▁Para	-11.273
▁ethyl	-11.273
▁EM	-11.2731
▁typing	-11.2734
▁origins	-11.2734
▁format	-11.2735
zo	-11.2737
oral	-11.2737
nuclear	-11.2739
▁hydrogel	-11.2741
infection	-11.2742
▁inhaled	-11.2743
▁MSCs	-11.2745
▁caffeine	-11.2745
▁cryo	-11.2748
▁IA	-11.2753
▁falciparum	-11.2753
center	-11.2755
▁mAb	-11.2757
▁harvested	-11.2759
▁intensities	-11.276
▁breakdown	-11.276
▁catheterization	-11.276
▁nodal	-11.2762
▁discomfort	-11.2763
▁operational	-11.2767
▁chitosan	-11.277
▁Pa	-11.2772
▁clients	-11.2776
▁satisfied	-11.2778
CAM	-11.2778
▁poisoning	-11.2786
▁adolescence	-11.2787
▁terminals	-11.2787
▁visualized	-11.2788
▁interplay	-11.2788
▁interventional	-11.279
both	-11.2793
▁integrate	-11.2794
▁elbow	-11.2794
▁immobilization	-11.2798
▁serological	-11.2798
metric	-11.2799
▁solely	-11.2802
hi	-11.2806
▁bilirubin	-11.2806
▁solvents	-11.2806
strand	-11.2807
4;	-11.2813
▁lysosomal	-11.2813
▁sole	-11.2814
▁postsynaptic	-11.2817
▁autoantibodies	-11.2819
▁originally	-11.282
▁cooling	-11.2822
▁utilize	-11.2822
▁Am	-11.2824
aemia	-11.2824
▁ALS	-11.2825
2.2	-11.2828
▁dominated	-11.2828
▁messenger	-11.2829
▁employees	-11.2835
▁illnesses	-11.2835
▁gels	-11.2836
▁tea	-11.2839
92	-11.2839
TX	-11.2839
▁Korea	-11.2841
▁circuits	-11.2841
▁16%	-11.2842
ual	-11.2844
▁assumptions	-11.2844
VS	-11.2845
ber	-11.2847
▁entities	-11.2847
▁gallbladder	-11.2847
cy	-11.285
▁interfering	-11.285
▁rationale	-11.285
▁Follow	-11.2851
▁Cardiac	-11.2854
▁diameters	-11.2856
▁strengths	-11.2856
VEGF	-11.2859
SOD	-11.2865
▁ML	-11.2866
▁substituted	-11.2867
▁phenyl	-11.2867
▁osmotic	-11.2868
▁Res	-11.287
UV	-11.2871
approximately	-11.2876
▁brown	-11.2877
▁entirely	-11.2878
▁medicines	-11.2883
-24	-11.2885
aria	-11.2886
▁generic	-11.2889
▁Sa	-11.2893
):	-11.2893
▁indomethacin	-11.2894
▁iliac	-11.2894
methoxy	-11.2895
3.6	-11.29
▁0%	-11.2901
▁proof	-11.2903
MMP	-11.2906
▁Complete	-11.291
car	-11.2911
▁ICD	-11.2911
ric	-11.2913
▁ME	-11.2915
▁hydroxyl	-11.2916
▁doctor	-11.2917
VT	-11.2919
▁enamel	-11.2922
▁vast	-11.2922
▁Rats	-11.2923
ung	-11.2924
▁module	-11.2927
▁drought	-11.2928
▁lectin	-11.2928
▁preserve	-11.293
bin	-11.2931
▁altering	-11.2932
▁couples	-11.2935
▁reacted	-11.2935
▁documentation	-11.294
▁imply	-11.2941
▁check	-11.2944
▁incremental	-11.2945
▁suspicion	-11.2945
▁Another	-11.2946
▁yellow	-11.2949
▁multidrug	-11.2954
▁130	-11.2954
▁IOP	-11.2955
▁atmospheric	-11.2955
▁morning	-11.2956
▁regularly	-11.2959
ck	-11.2961
▁decompression	-11.2963
▁ends	-11.297
▁compromised	-11.2972
▁Upon	-11.2974
Delta	-11.2975
▁reagent	-11.2976
▁strict	-11.298
▁seconds	-11.2982
▁pollutants	-11.2984
▁audit	-11.2985
▁meso	-11.2985
▁humoral	-11.2986
▁OP	-11.2989
▁deal	-11.2991
▁avoiding	-11.2994
les	-11.2998
▁consumers	-11.2999
▁infused	-11.2999
translational	-11.3
-/-	-11.3001
▁apart	-11.3002
▁CRF	-11.3003
▁Rh	-11.3004
▁thorough	-11.3004
▁HeLa	-11.3006
cost	-11.3007
▁captured	-11.3009
1.4	-11.302
▁seek	-11.3021
▁bridge	-11.3022
▁compromise	-11.3022
KO	-11.3025
▁menstrual	-11.3025
▁puncture	-11.3025
▁projects	-11.3028
▁primer	-11.303
▁deleterious	-11.3034
▁incorporate	-11.3035
▁What	-11.3036
▁105	-11.3036
▁Renal	-11.3039
▁esters	-11.3042
▁colour	-11.3042
▁linking	-11.3043
▁venom	-11.3044
▁synthetase	-11.3044
▁45%	-11.3044
▁fabrication	-11.3045
▁balanced	-11.3045
2]	-11.3049
▁scarce	-11.305
▁17%	-11.3052
▁crystalline	-11.3056
ice	-11.3059
motor	-11.306
▁GTP	-11.3064
▁lamina	-11.3064
▁art	-11.3065
▁proximity	-11.3066
0.9	-11.3067
7.5	-11.3069
▁Monte	-11.3069
▁ductal	-11.3069
▁judged	-11.3071
▁underlie	-11.3076
▁Positive	-11.3077
▁thiol	-11.3077
▁6.5	-11.3079
▁Car	-11.3079
▁transcriptome	-11.3079
▁corticosteroid	-11.308
▁polyclonal	-11.308
▁dead	-11.3081
▁irregular	-11.3081
SG	-11.309
▁priming	-11.3091
▁cerebrovascular	-11.3093
▁comorbid	-11.3094
▁exons	-11.3095
PEG	-11.3098
▁constitutes	-11.3099
▁DL	-11.3103
<0.01).	-11.3104
▁my	-11.3105
▁compensation	-11.3105
4/	-11.3115
▁Rho	-11.3116
▁Diabetes	-11.312
8%)	-11.312
▁EMG	-11.3124
aceae	-11.3126
▁adsorbed	-11.3128
▁anesthetized	-11.3129
▁regurgitation	-11.3131
▁cytogenetic	-11.3131
▁electrolyte	-11.3131
▁alternatives	-11.3134
▁instances	-11.3137
▁Plasmodium	-11.3145
3.7	-11.3147
▁reflection	-11.3151
▁imbalance	-11.3152
▁cations	-11.3154
mann	-11.3158
DT	-11.3159
▁enlargement	-11.3159
▁tracer	-11.316
-25	-11.3163
▁fitted	-11.3164
▁unlike	-11.3168
▁selecting	-11.3169
▁GO	-11.3172
▁Ha	-11.3173
▁1�	-11.3173
▁specialists	-11.3173
Mo	-11.3173
9-	-11.3173
uria	-11.3174
▁modeled	-11.3174
arm	-11.3176
▁PK	-11.3178
▁Pr	-11.3181
▁surgeries	-11.3185
▁dilation	-11.3185
▁somewhat	-11.3185
aza	-11.3188
▁eradication	-11.3188
▁rearrangement	-11.3192
minute	-11.3193
HB	-11.3195
meter	-11.3195
▁cesarean	-11.3195
▁importantly	-11.3197
ong	-11.3198
▁survive	-11.3198
face	-11.3198
▁updated	-11.3199
0.8	-11.3203
▁herpes	-11.3204
▁glutamine	-11.3204
▁regenerative	-11.3207
▁births	-11.3209
▁simply	-11.321
▁acupuncture	-11.321
PN	-11.3211
▁ordered	-11.3216
ert	-11.3216
LPS	-11.3217
▁amongst	-11.3221
▁accumulate	-11.3227
▁prototype	-11.3228
▁PCI	-11.3228
9),	-11.3229
▁caudal	-11.3229
▁residence	-11.3232
tissue	-11.3232
▁Magnetic	-11.3233
▁phenolic	-11.3238
third	-11.324
▁machinery	-11.324
▁FP	-11.324
▁homes	-11.3248
08	-11.3248
▁stroma	-11.3249
dimethyl	-11.325
▁hydrophilic	-11.325
▁aldosterone	-11.3251
▁read	-11.3251
▁18%	-11.3254
▁stressors	-11.3261
▁000	-11.3267
▁acetyl	-11.3267
DL	-11.3267
Gly	-11.3268
▁skill	-11.3269
▁NPC	-11.3271
py	-11.3272
▁explores	-11.3274
work	-11.3275
▁attended	-11.3277
▁permits	-11.3279
▁precisely	-11.3279
▁refractive	-11.3283
▁(5)	-11.3283
▁isotope	-11.3283
▁HB	-11.3283
▁MO	-11.3285
▁granule	-11.3287
▁SCI	-11.3287
▁granular	-11.3289
▁implies	-11.329
▁Italian	-11.329
▁lambda	-11.3292
vascular	-11.3294
mus	-11.3296
▁fungus	-11.3297
▁omega	-11.33
substituted	-11.33
back	-11.3301
SCC	-11.3301
▁Network	-11.3301
otomy	-11.3301
▁pi	-11.3302
▁chronically	-11.3303
▁choices	-11.3303
▁1988	-11.3304
▁EB	-11.3304
▁intrauterine	-11.3305
▁antisense	-11.3309
value	-11.3314
Si	-11.3317
▁keratinocytes	-11.3318
▁repression	-11.332
▁blocker	-11.3321
ze	-11.3323
▁4.3	-11.3323
+/	-11.3326
▁Case	-11.3326
▁exerts	-11.3327
▁pretreated	-11.3327
2.7	-11.3328
▁Laboratory	-11.333
virus	-11.3332
▁engaged	-11.3332
▁platinum	-11.3333
ions	-11.3333
▁transcriptase	-11.3334
▁inversion	-11.3336
HDL	-11.3337
▁CEA	-11.334
▁permit	-11.334
▁approval	-11.3341
▁stochastic	-11.3341
▁unnecessary	-11.3341
▁physicochemical	-11.3341
▁trade	-11.3344
ver	-11.3346
▁paclitaxel	-11.3346
▁digestive	-11.3347
▁reservoir	-11.3348
-5-	-11.3348
▁collaborative	-11.3349
▁trajectory	-11.3349
▁microbiome	-11.3349
1.0	-11.3351
CAT	-11.3352
av	-11.3354
▁chapter	-11.3356
▁possesses	-11.3356
▁physically	-11.3359
▁plots	-11.336
▁atopic	-11.3363
af	-11.3367
▁killer	-11.3368
▁ACL	-11.3374
▁extinction	-11.3378
▁proteinuria	-11.338
▁excited	-11.3381
▁toxins	-11.3383
▁arsenic	-11.3393
Ab	-11.3394
ECs	-11.3396
6;	-11.3401
▁sagittal	-11.3404
▁political	-11.3405
ometry	-11.3407
▁postulated	-11.3409
▁realistic	-11.3409
▁rotational	-11.3409
▁nanoparticle	-11.341
▁deviations	-11.341
HV	-11.3416
▁negligible	-11.3416
▁Sch	-11.342
▁4.6	-11.3423
▁supplements	-11.3424
class	-11.3425
▁manifested	-11.3426
▁flight	-11.3429
▁Do	-11.3431
atus	-11.3432
BV	-11.3432
rp	-11.3438
▁160	-11.3443
▁vaccinated	-11.3444
▁saturated	-11.3444
▁grading	-11.3445
▁neutralizing	-11.345
▁Review	-11.3458
▁FS	-11.3458
▁modules	-11.3458
let	-11.3465
▁Ras	-11.3466
▁alive	-11.3467
▁salts	-11.3467
▁differentiating	-11.3467
ni	-11.3468
▁battery	-11.3475
▁9%	-11.3478
targeted	-11.348
▁.001).	-11.3483
▁intercellular	-11.3487
▁anticoagulation	-11.349
▁psychosis	-11.3493
▁travel	-11.3497
nO	-11.3498
▁rising	-11.3498
si	-11.3507
▁CFU	-11.3509
00	-11.3509
gp	-11.351
▁immunoassay	-11.351
▁patches	-11.3512
10)	-11.3512
▁integrating	-11.3513
▁recover	-11.3514
bu	-11.3515
▁office	-11.3519
▁delays	-11.3519
▁Cys	-11.3519
▁Addition	-11.3523
▁progenitors	-11.3523
▁gains	-11.3523
ba	-11.3523
▁triggers	-11.3524
sociodemographic	-11.3524
vitro	-11.3525
▁interpret	-11.3529
LH	-11.3531
▁PDGF	-11.3533
=4	-11.3533
▁65%	-11.3535
ect	-11.3536
▁Consistent	-11.3537
▁allo	-11.3538
▁military	-11.3538
▁serotype	-11.3539
▁im	-11.354
▁Background	-11.3542
▁hydrochloride	-11.3542
▁recurrences	-11.3542
▁familiar	-11.3547
▁detachment	-11.3548
vivo	-11.355
▁HE	-11.3552
▁18-	-11.3553
▁deposited	-11.3555
▁hematoma	-11.3556
▁DD	-11.3556
▁brains	-11.3556
▁vasopressin	-11.3557
▁Small	-11.3559
1�	-11.356
▁SHR	-11.356
▁ascending	-11.3561
▁Registry	-11.3564
▁postural	-11.3566
▁hysterectomy	-11.3568
▁Clinic	-11.3568
▁par	-11.3569
mar	-11.3573
76	-11.3573
▁discussions	-11.3575
▁genotyping	-11.3576
▁electrophoretic	-11.3577
▁oncogenic	-11.3579
▁pulsed	-11.3585
LL	-11.3586
cyclic	-11.3587
0.4	-11.3589
▁Collectively	-11.3591
cut	-11.3592
▁cue	-11.3592
pathy	-11.3595
ole	-11.3595
▁explicit	-11.3601
▁CCK	-11.3604
▁bromide	-11.3608
▁laparotomy	-11.3608
▁evolving	-11.361
▁correspond	-11.3612
▁silicon	-11.362
▁chimeric	-11.3621
▁properly	-11.3622
▁trust	-11.3625
syn	-11.3626
▁pesticides	-11.3632
▁pose	-11.3638
Ala	-11.364
▁boundaries	-11.364
ening	-11.3641
▁(+/-	-11.3642
LN	-11.3642
▁break	-11.3642
ms	-11.3644
▁airways	-11.3644
▁waiting	-11.3646
ethylene	-11.3647
▁accessory	-11.3648
rank	-11.3648
▁subtle	-11.3648
▁excised	-11.3652
▁lattice	-11.3653
▁MIC	-11.3654
▁pyruvate	-11.3654
▁spots	-11.3657
lateral	-11.3658
▁antioxidants	-11.3661
ious	-11.3662
▁Factors	-11.3665
▁ab	-11.3666
▁Fourteen	-11.3666
▁clamp	-11.3667
6.5	-11.3669
▁leak	-11.3672
▁6.0	-11.3672
▁la	-11.3673
▁MN	-11.3677
economic	-11.3679
▁ethnicity	-11.3681
▁district	-11.3685
miR	-11.3685
▁necessarily	-11.3685
▁Spain	-11.3686
▁cyto	-11.3687
▁apolipoprotein	-11.3689
ogenesis	-11.369
▁sh	-11.3692
▁paraffin	-11.3693
▁die	-11.3696
▁girl	-11.3696
▁filters	-11.3697
▁Inc	-11.37
▁Tissue	-11.3701
▁BDNF	-11.3701
▁3.9	-11.3702
(-1),	-11.3702
▁SL	-11.3702
▁mal	-11.3705
sen	-11.3707
▁mtDNA	-11.3709
▁necessity	-11.3712
▁dislocation	-11.3715
▁ob	-11.3717
SN	-11.3719
▁aggression	-11.372
▁depended	-11.372
▁ice	-11.3723
▁CG	-11.3723
ible	-11.3723
▁alternate	-11.3724
▁Conclusion	-11.3726
▁1989	-11.3727
▁generates	-11.3728
ster	-11.3728
SB	-11.3729
▁biosynthetic	-11.3735
▁mosquito	-11.3737
▁addresses	-11.3738
▁bilayer	-11.374
functional	-11.3741
▁dengue	-11.3743
▁breaks	-11.3743
pic	-11.3744
▁worsening	-11.3745
▁England	-11.3746
]).	-11.3746
nes	-11.3749
▁Prior	-11.375
▁neuroprotective	-11.3751
▁epinephrine	-11.3751
��	-11.3751
▁app	-11.3751
▁checkpoint	-11.3754
Glu	-11.376
▁fuel	-11.3764
intensity	-11.3765
seq	-11.3766
▁Body	-11.3769
▁calls	-11.3773
▁somatostatin	-11.3776
▁0.99	-11.3776
Es	-11.3779
BB	-11.3779
▁conflicting	-11.3779
GL	-11.378
▁globally	-11.3782
▁7.0	-11.3782
second	-11.3788
▁track	-11.3789
▁wood	-11.379
▁adenovirus	-11.3791
▁exploit	-11.3795
▁develops	-11.3799
▁vasculature	-11.38
▁Act	-11.3801
▁Outcomes	-11.3802
▁tightly	-11.3806
▁9-	-11.3807
▁assembled	-11.3809
VD	-11.381
▁solve	-11.3812
PAGE	-11.3812
eri	-11.3816
▁soon	-11.3817
▁flu	-11.3821
▁sphincter	-11.3822
▁linearly	-11.3822
▁combine	-11.3822
▁epidermis	-11.3823
▁calf	-11.3824
▁missed	-11.3825
▁stakeholders	-11.3826
▁platforms	-11.3826
▁Ar	-11.3826
FR	-11.3827
graphy	-11.3829
▁covariates	-11.383
▁nitrite	-11.3831
▁security	-11.3831
ping	-11.3831
▁stepwise	-11.3832
▁luciferase	-11.3835
ever	-11.3836
Ns	-11.3837
▁illustrates	-11.3837
▁react	-11.3838
▁Met	-11.3838
reperfusion	-11.384
▁intellectual	-11.3842
▁ease	-11.3843
ley	-11.3843
▁backbone	-11.3843
▁dilated	-11.3843
LO	-11.3845
▁confer	-11.3846
▁whereby	-11.3849
▁conscious	-11.3849
Ph	-11.385
lipid	-11.3851
1%)	-11.3851
7%)	-11.3851
▁glycoproteins	-11.3853
▁inactivated	-11.3854
▁FEV	-11.3855
▁chemokine	-11.3858
▁lasting	-11.386
va	-11.3866
-67	-11.3866
graphic	-11.3869
▁Hsp	-11.3872
▁stretch	-11.3876
graph	-11.3876
▁orthodontic	-11.3877
loop	-11.3878
▁aggregate	-11.3879
▁acquire	-11.3888
▁striatal	-11.3889
▁4.8	-11.3892
ick	-11.3892
▁MF	-11.3893
standard	-11.3893
▁hydroxy	-11.3894
▁fire	-11.3897
med	-11.3897
EV	-11.39
▁RI	-11.39
▁islets	-11.39
▁latest	-11.3903
3�	-11.3903
▁enhancer	-11.3904
▁Initial	-11.3904
];	-11.3904
-3,	-11.3905
dy	-11.3908
▁APC	-11.3914
▁funding	-11.3915
▁segregation	-11.3915
▁today	-11.392
▁tropical	-11.392
▁monomer	-11.3921
▁methodologies	-11.3922
▁microglia	-11.3922
▁hold	-11.3923
▁morphologic	-11.3924
CNS	-11.3926
▁MRSA	-11.3927
▁ferritin	-11.3931
▁polyps	-11.3933
articular	-11.3933
▁10(6)	-11.3934
▁polarity	-11.3934
HO	-11.3935
qui	-11.3935
hand	-11.3936
▁SPECT	-11.3938
▁dedicated	-11.394
▁comprises	-11.3946
▁clock	-11.3951
▁natriuretic	-11.3951
▁truncated	-11.3951
▁duplication	-11.3953
▁specified	-11.3953
▁plateau	-11.3955
▁commitment	-11.3955
▁Previously	-11.3956
▁emphasized	-11.3957
suppression	-11.3958
▁stimulatory	-11.3959
▁choline	-11.3964
▁Leu	-11.3964
▁corresponded	-11.3968
5.0	-11.3968
▁Factor	-11.3969
0.6	-11.3969
▁conjugates	-11.3969
▁exponential	-11.3974
▁persist	-11.3974
▁axillary	-11.3984
▁velocities	-11.3986
▁FC	-11.3986
▁encephalopathy	-11.3988
▁titer	-11.3989
▁traditionally	-11.3989
▁Men	-11.399
▁NAD	-11.3991
▁blind	-11.3992
▁vertebrates	-11.3992
selectin	-11.3992
▁belong	-11.3993
▁Survival	-11.3994
▁curvature	-11.3994
▁toxicities	-11.3996
▁leadership	-11.3998
▁Stage	-11.4001
▁malnutrition	-11.4002
50%	-11.4005
▁ascertain	-11.4006
▁microwave	-11.4009
▁totally	-11.4014
▁EMBASE	-11.4018
▁noradrenaline	-11.4021
▁Taiwan	-11.4022
▁mandible	-11.4022
▁surrogate	-11.4023
▁polymeric	-11.4024
▁angular	-11.4025
acetic	-11.4025
▁responsibility	-11.4026
▁whilst	-11.4026
▁microsomal	-11.4026
▁nude	-11.4027
▁neuroimaging	-11.403
▁Large	-11.403
ei	-11.4033
▁osteotomy	-11.4034
▁blockers	-11.404
▁propofol	-11.4041
▁notably	-11.4045
▁PAH	-11.4045
▁ascites	-11.4045
▁ANOVA	-11.4046
▁swine	-11.4046
▁21%	-11.4046
▁cooperation	-11.4047
▁teachers	-11.4047
▁contraceptive	-11.405
▁diagnostics	-11.405
▁ether	-11.4051
4.3	-11.4052
▁polypeptides	-11.4052
▁Mutations	-11.4056
▁fruits	-11.4056
▁scheduled	-11.4056
▁failures	-11.4062
IGF	-11.4064
▁answer	-11.4064
operated	-11.4064
▁concordance	-11.4065
▁problematic	-11.4066
Ser	-11.4068
▁LP	-11.4069
▁bony	-11.4069
▁tablets	-11.4072
▁Major	-11.4076
▁waist	-11.4077
▁Ta	-11.4082
releasing	-11.4083
▁consist	-11.4084
▁resultant	-11.4085
lasting	-11.4087
phosphorylation	-11.4088
▁photon	-11.4089
▁7.4	-11.4089
▁spaces	-11.4095
▁22%	-11.4095
▁victims	-11.4095
▁antenatal	-11.4097
▁planar	-11.4098
▁normalization	-11.4102
▁occasionally	-11.4103
DH	-11.4104
▁expanding	-11.4104
▁competing	-11.4105
▁tubules	-11.4106
▁CN	-11.4109
▁overload	-11.411
▁deficiencies	-11.411
▁hypothesize	-11.4112
▁juice	-11.4113
▁OF	-11.4115
diabetic	-11.4116
▁(22	-11.4116
▁100,000	-11.4116
▁normotensive	-11.4117
▁technological	-11.4117
OCT	-11.4119
ru	-11.4125
▁babies	-11.4129
▁parenchyma	-11.413
minotransferase	-11.413
▁supernatant	-11.4131
▁dentin	-11.4135
4�	-11.4136
▁shapes	-11.4137
▁revised	-11.4137
7;	-11.4137
OD	-11.414
▁0.75	-11.414
▁mismatch	-11.4141
lysis	-11.4143
▁appropriately	-11.4144
▁generations	-11.4144
▁glioblastoma	-11.4144
▁lipoproteins	-11.4151
propyl	-11.4156
▁removing	-11.4157
▁heterologous	-11.416
▁Standard	-11.416
▁inability	-11.4166
▁leucine	-11.4167
▁Pediatric	-11.4168
▁amputation	-11.417
▁Up	-11.4171
established	-11.4172
▁presumed	-11.4172
ON	-11.4173
deoxy	-11.4174
▁Analyses	-11.4175
▁Wnt	-11.4175
(2)-	-11.4176
3.8	-11.418
▁extremities	-11.418
▁septum	-11.418
1.2	-11.4182
FE	-11.4184
▁Sixteen	-11.4184
▁photosynthetic	-11.4185
▁divergent	-11.4185
▁interpersonal	-11.4185
ato	-11.4185
▁scientists	-11.4187
▁monkey	-11.4187
inter	-11.4187
▁radioactive	-11.4187
▁Brazilian	-11.419
▁covalent	-11.4194
▁yielding	-11.4196
▁journals	-11.4197
9%)	-11.4199
lig	-11.42
Ac	-11.4202
genetic	-11.4202
▁erythematosus	-11.4204
▁Baseline	-11.4205
▁sigma	-11.4206
▁amplitudes	-11.4208
▁neoadjuvant	-11.4208
▁dystrophy	-11.4208
mid	-11.4209
▁moral	-11.421
▁Local	-11.4211
▁positron	-11.4213
MSCs	-11.4213
▁ubiquitous	-11.4216
▁selenium	-11.4216
lu	-11.4223
centered	-11.4226
▁solitary	-11.4228
part	-11.4229
ble	-11.423
temporal	-11.4231
▁mandatory	-11.4232
▁uni	-11.4233
▁configurations	-11.4234
▁NGF	-11.4235
▁Po	-11.4236
evoked	-11.4236
▁encouraging	-11.4236
▁LR	-11.4237
▁encourage	-11.4238
▁smear	-11.4239
▁Caucasian	-11.424
▁expertise	-11.4241
▁pass	-11.4242
▁1987	-11.4248
▁phagocytosis	-11.4253
▁hyperglycemia	-11.4253
▁Notch	-11.4253
▁Mental	-11.4254
▁fractionation	-11.4255
▁proto	-11.4255
▁outflow	-11.4257
▁ulcerative	-11.4257
average	-11.426
▁lenses	-11.4262
▁accident	-11.4268
▁Electro	-11.427
▁microsatellite	-11.4272
▁1:1	-11.4273
▁Or	-11.4273
▁initiating	-11.4274
▁subclinical	-11.4278
FDG	-11.428
▁1:	-11.4281
ries	-11.4283
▁sides	-11.4283
▁thirty	-11.4285
▁stool	-11.4288
▁amine	-11.4288
▁Surprisingly	-11.4289
▁des	-11.429
▁0.15	-11.4291
▁tolerability	-11.4293
NM	-11.4296
▁xenograft	-11.4301
▁modulates	-11.4302
IgG	-11.4304
▁ecosystems	-11.4304
▁elegans	-11.4305
▁rearrangements	-11.4305
disciplinary	-11.4308
▁bottom	-11.4312
limited	-11.4313
IB	-11.4313
400	-11.4314
▁camera	-11.4316
activation	-11.4319
radioimmunoassay	-11.4319
▁(60	-11.4326
▁Carlo	-11.4327
ou	-11.4328
▁lymphocytic	-11.4329
▁enlarged	-11.433
▁pharmacologic	-11.4333
▁thickening	-11.4333
▁Samples	-11.4334
▁NOS	-11.4335
▁contextual	-11.4335
▁administrative	-11.4337
▁Genome	-11.4337
▁livers	-11.4344
▁FF	-11.4346
▁antiserum	-11.4347
▁borderline	-11.4351
▁dysregulation	-11.4354
traumatic	-11.4356
ala	-11.4357
gi	-11.4358
▁urethral	-11.4361
lar	-11.4362
▁epsilon	-11.4364
▁managers	-11.4364
▁sediments	-11.4365
▁psychometric	-11.4366
▁nov	-11.4366
▁q	-11.4371
▁(23	-11.4372
8.8%	-11.4372
▁How	-11.4374
▁Logistic	-11.4374
▁organelles	-11.4376
terminus	-11.4377
▁-2	-11.4377
▁operator	-11.4379
2.4	-11.4381
case	-11.4383
▁RCC	-11.4388
▁cardiomyocytes	-11.439
▁dia	-11.4393
▁Child	-11.4394
ura	-11.4395
▁geriatric	-11.4396
▁Fc	-11.44
▁methotrexate	-11.4402
▁hexa	-11.4402
▁subpopulations	-11.4402
IG	-11.4402
▁microsomes	-11.4403
▁4.4	-11.4405
4.4	-11.4406
▁propranolol	-11.4406
▁reserve	-11.4406
metal	-11.4408
▁0.0001)	-11.4409
▁texture	-11.441
▁cholecystectomy	-11.4411
MAP	-11.4411
catalyzed	-11.4416
sus	-11.4417
▁gingival	-11.4418
▁Notably	-11.4419
HPLC	-11.4419
▁beads	-11.4423
▁forensic	-11.4423
▁Conclusions	-11.4424
▁catalysts	-11.4425
rid	-11.4426
9;	-11.4429
▁tick	-11.4429
▁impacted	-11.4435
gov	-11.4439
▁haplotypes	-11.4439
WS	-11.4443
▁composites	-11.4445
ICU	-11.4445
des	-11.4447
▁macroscopic	-11.4451
▁malformation	-11.4452
▁horn	-11.4455
▁Demographic	-11.4456
▁Netherlands	-11.446
▁phyto	-11.4461
▁AMI	-11.4463
▁outpatients	-11.4465
▁warfarin	-11.4466
▁vibration	-11.447
▁Mar	-11.4471
ART	-11.4472
▁Individual	-11.4473
ERK	-11.4476
oxa	-11.4476
▁anthropometric	-11.4476
▁oriented	-11.4477
org	-11.4479
▁creatine	-11.4479
ka	-11.4479
▁expiratory	-11.448
▁Family	-11.448
▁clustered	-11.4481
▁PN	-11.4482
▁alters	-11.4483
▁Meanwhile	-11.4485
▁sand	-11.4485
▁exclude	-11.4488
▁fitting	-11.4489
▁deduced	-11.4489
▁look	-11.449
molecule	-11.449
▁surviving	-11.449
ACE	-11.4492
(5)	-11.4494
4.6	-11.4497
ADP	-11.4497
HE	-11.4498
▁parasitic	-11.4498
ris	-11.4499
▁epidemiologic	-11.45
▁histopathology	-11.4501
▁55%	-11.4502
▁106	-11.4503
▁RBC	-11.4504
▁vapor	-11.4504
rat	-11.4507
▁introducing	-11.4514
▁collective	-11.4514
▁biphasic	-11.4514
▁farm	-11.452
▁Visual	-11.4521
surface	-11.4521
▁(21	-11.4523
gated	-11.4525
-29	-11.4526
▁batch	-11.4527
▁IT	-11.4528
therapeutic	-11.453
CMV	-11.4531
-50	-11.4531
cus	-11.4533
ke	-11.4534
▁palate	-11.4535
▁programmed	-11.4539
▁24%	-11.454
▁Measurements	-11.454
nal	-11.4541
statin	-11.4541
▁Prevention	-11.4543
▁constitutively	-11.4544
Phe	-11.4544
▁anticipated	-11.4545
▁sputum	-11.4547
▁Embase	-11.4547
▁stream	-11.4547
▁crops	-11.4548
▁microtubules	-11.4551
ging	-11.4555
▁kcal	-11.4556
▁terminus	-11.4559
▁Thirteen	-11.4559
▁preceded	-11.4561
alkyl	-11.4562
▁hypothyroidism	-11.4563
▁qualitatively	-11.4564
TV	-11.4565
▁fMRI	-11.4567
▁vancomycin	-11.4567
▁neuroblastoma	-11.4568
▁nodule	-11.4568
▁antipsychotic	-11.4569
▁habitats	-11.4572
top	-11.4573
▁cannabis	-11.4576
▁resilience	-11.4576
▁expectancy	-11.4576
▁tomato	-11.4577
▁anticoagulant	-11.4577
▁cities	-11.4577
mRNA	-11.4578
3.9	-11.4579
▁myocytes	-11.4581
▁Xenopus	-11.4584
▁cultivation	-11.4584
▁Committee	-11.4588
▁Grade	-11.459
▁existed	-11.4591
▁accessibility	-11.4593
GD	-11.4595
▁Sweden	-11.4596
▁metallic	-11.4602
8;	-11.4603
▁5.3	-11.4606
▁undergraduate	-11.461
▁27%	-11.4611
▁transplants	-11.4612
▁helical	-11.4614
▁proteasome	-11.4614
neu	-11.4615
▁alcoholic	-11.4616
▁Medicaid	-11.4617
▁progressed	-11.4618
our	-11.4618
▁tibia	-11.4619
▁("	-11.4619
▁morphologically	-11.4621
▁23%	-11.4622
▁OT	-11.4625
▁0.09	-11.4626
mit	-11.4631
▁scintigraphy	-11.4631
▁dodecyl	-11.4633
VE	-11.4634
▁emotions	-11.4638
8.9%	-11.464
▁Normal	-11.4642
head	-11.4642
▁hypothermia	-11.4642
▁walk	-11.4643
▁blinded	-11.4644
▁arrhythmia	-11.4645
▁DCs	-11.4645
▁Aspergillus	-11.4647
▁periodontitis	-11.4647
▁methionine	-11.4647
ull	-11.4651
-22	-11.4651
▁stopped	-11.4651
which	-11.4658
▁taxonomic	-11.4658
▁Mice	-11.4659
▁0.5%	-11.466
▁ethylene	-11.466
ee	-11.4662
▁patent	-11.4662
TOF	-11.4664
▁hepatocyte	-11.4665
▁van	-11.4666
HPV	-11.4667
▁VT	-11.4667
▁retain	-11.4669
▁pharmacists	-11.4675
▁foundation	-11.4677
▁bring	-11.4677
▁acidosis	-11.4677
▁BW	-11.4679
American	-11.4679
▁maximize	-11.4679
ency	-11.468
▁indeed	-11.4681
▁102	-11.4682
resistance	-11.4683
▁observers	-11.4688
▁disappearance	-11.4689
ym	-11.469
oxide	-11.469
▁compensatory	-11.4693
-23	-11.4693
▁IGFBP	-11.4698
Leu	-11.4699
▁ischaemic	-11.4702
▁sheath	-11.4702
▁Da	-11.4703
▁circulatory	-11.4703
▁repertoire	-11.4705
MIC	-11.4708
▁duplex	-11.4708
▁Iran	-11.4708
release	-11.4709
my	-11.4709
Ts	-11.4711
▁28%	-11.4714
▁Though	-11.4714
SW	-11.4715
▁foam	-11.4718
ham	-11.4719
▁ageing	-11.472
▁VAS	-11.4722
▁hydration	-11.4722
amp	-11.4722
▁microspheres	-11.4726
▁discrepancy	-11.4726
▁achievement	-11.4727
▁paralysis	-11.4727
(-1).	-11.4728
4.5	-11.4729
oside	-11.4732
eno	-11.4734
▁DI	-11.4734
▁School	-11.4735
▁reinforcement	-11.4739
▁ALL	-11.4739
angle	-11.4739
▁outline	-11.474
▁classify	-11.475
▁investigates	-11.4751
▁1985	-11.4752
▁Down	-11.4753
▁cultivars	-11.4755
▁game	-11.4756
su	-11.4756
▁Library	-11.4756
space	-11.4757
such	-11.476
▁signatures	-11.4761
2.0	-11.4762
0.7	-11.4763
▁Unfortunately	-11.4764
ses	-11.4765
4.7	-11.4768
▁immunostaining	-11.4769
▁conditional	-11.4771
▁sedentary	-11.4773
▁caution	-11.4773
organ	-11.4775
▁OSA	-11.4777
▁obstetric	-11.4778
▁Tyr	-11.4779
hy	-11.4779
▁proteomic	-11.4781
▁Growth	-11.4781
▁herbal	-11.4785
▁RC	-11.4785
▁Lung	-11.4786
analyses	-11.4786
▁sulphate	-11.4788
▁sec	-11.4789
ay	-11.4793
▁Management	-11.4794
▁Outcome	-11.4797
5.5	-11.4798
▁infusions	-11.4798
▁nephrectomy	-11.4798
val	-11.4799
▁preeclampsia	-11.48
▁Tc	-11.48
lac	-11.4802
▁torque	-11.4803
▁translated	-11.4803
▁angiographic	-11.4804
▁4.7	-11.4808
▁necrotic	-11.481
▁formulated	-11.4814
king	-11.4814
▁arousal	-11.4814
4.8	-11.4816
tes	-11.4819
▁Average	-11.482
▁custom	-11.482
▁Numerous	-11.4824
ier	-11.4826
5;	-11.4828
▁tremor	-11.4828
ep	-11.4829
▁corticosterone	-11.4829
▁adjunct	-11.483
▁stain	-11.4831
▁IE	-11.4832
hu	-11.4836
▁stores	-11.4837
▁capacities	-11.4841
din	-11.4844
▁hepato	-11.4845
genesis	-11.4845
▁collateral	-11.4848
bed	-11.4849
▁hemo	-11.4849
▁chondrocytes	-11.4849
▁Gal	-11.485
tis	-11.4851
▁pyramidal	-11.4852
pl	-11.4853
▁tele	-11.4853
▁Diagnosis	-11.4854
▁Community	-11.4854
AV	-11.4857
▁style	-11.486
lum	-11.4862
met	-11.4863
5.5%	-11.4863
▁intravascular	-11.4864
cyst	-11.4869
pathological	-11.487
▁Form	-11.4873
▁attentional	-11.4874
▁donation	-11.4875
▁proteome	-11.4879
▁tetracycline	-11.4884
▁initiatives	-11.4887
▁Ka	-11.4887
▁name	-11.4888
▁biofilms	-11.4888
▁polysaccharide	-11.4889
▁RCTs	-11.4889
▁cleaved	-11.489
rum	-11.489
▁LN	-11.4892
▁mechanics	-11.4892
▁Dr	-11.4895
oriented	-11.4897
CAD	-11.4897
▁SG	-11.4899
▁1,000	-11.4901
▁potentiation	-11.4901
GFP	-11.4902
▁leaving	-11.4904
▁103	-11.4905
▁ortho	-11.4908
▁elusive	-11.491
▁Next	-11.4911
2+-	-11.4914
▁CTL	-11.4914
BG	-11.4914
▁broadly	-11.4916
▁fill	-11.4918
▁freezing	-11.4918
▁libraries	-11.4918
membrane	-11.4918
▁siblings	-11.492
▁osteosarcoma	-11.4923
▁Val	-11.4923
ug	-11.4923
▁Preoperative	-11.4924
▁opposed	-11.4927
▁angio	-11.4927
plastic	-11.4931
▁exercises	-11.4935
0),	-11.4939
▁heavily	-11.494
▁u	-11.4944
")	-11.4949
▁adducts	-11.4951
549	-11.4951
▁thermodynamic	-11.4952
▁inheritance	-11.4953
▁catalysis	-11.4954
▁epileptic	-11.4955
ek	-11.4955
enzyme	-11.4956
▁river	-11.4958
▁germination	-11.4961
▁neutropenia	-11.4961
▁vegetables	-11.4964
▁informative	-11.4965
male	-11.4966
▁accidents	-11.4967
air	-11.4967
▁eu	-11.4972
toxin	-11.4973
▁microbiological	-11.4974
▁contaminants	-11.4975
▁modifying	-11.4978
▁Severe	-11.4979
▁indexes	-11.4981
▁keep	-11.4981
RB	-11.4982
pp	-11.4983
▁characterizing	-11.4984
▁104	-11.4984
▁interfaces	-11.4984
pressure	-11.4984
▁sparse	-11.4987
▁adopt	-11.4988
para	-11.4988
▁FDG	-11.4988
lytic	-11.499
▁allelic	-11.4991
▁kit	-11.4992
cu	-11.4993
▁grew	-11.4997
▁analogous	-11.4997
▁fibro	-11.4997
AO	-11.4999
▁vena	-11.5
cellular	-11.5002
▁chick	-11.5008
well	-11.501
phenol	-11.501
▁automatically	-11.5015
existing	-11.5015
og	-11.5016
▁manufacturing	-11.5016
130	-11.5018
▁instrumental	-11.5019
du	-11.5019
▁CpG	-11.5022
polymerase	-11.5022
▁preferential	-11.5024
▁career	-11.5025
rh	-11.5026
▁endocarditis	-11.5026
▁replicate	-11.5026
world	-11.5028
▁aryl	-11.5029
tomy	-11.503
▁endothelin	-11.5032
▁19%	-11.5035
▁homogeneity	-11.5035
▁realized	-11.5036
▁5.2	-11.5036
▁theoretically	-11.5036
▁Service	-11.5039
▁medulla	-11.504
apoptotic	-11.5041
▁table	-11.5041
score	-11.5043
▁River	-11.5049
▁encephalitis	-11.505
ators	-11.505
▁package	-11.5052
▁docking	-11.5052
▁simplified	-11.5052
▁transgene	-11.5053
▁pocket	-11.5054
pass	-11.5055
endo	-11.5056
▁Emergency	-11.5057
▁consumer	-11.5059
▁transit	-11.5059
▁mediastinal	-11.506
▁helped	-11.5062
▁Bax	-11.5063
▁RB	-11.5064
▁intelligence	-11.5066
Barr	-11.5066
mia	-11.5068
▁polyethylene	-11.5068
▁GST	-11.507
▁lab	-11.5071
▁trap	-11.5071
▁begin	-11.5072
▁works	-11.5074
▁histories	-11.5074
▁TD	-11.5079
▁offering	-11.5082
▁skeleton	-11.5082
intervention	-11.5083
▁radiologic	-11.5084
▁FR	-11.5084
▁Endo	-11.5085
ides	-11.5087
▁penta	-11.509
▁Mexico	-11.5092
▁senior	-11.5096
▁artifacts	-11.5097
ids	-11.5098
▁corresponds	-11.5102
▁pools	-11.5103
▁loops	-11.5104
▁rh	-11.5104
▁transiently	-11.5106
▁EE	-11.5106
▁came	-11.5106
▁personalized	-11.5112
▁aerosol	-11.5113
▁Histological	-11.5115
▁JNK	-11.5116
▁counting	-11.5117
▁valves	-11.5117
▁gelatin	-11.512
▁accompanying	-11.5122
▁anomaly	-11.5122
▁coat	-11.5125
▁procedural	-11.5125
ulated	-11.5127
▁sensation	-11.5128
▁helper	-11.5128
▁Instead	-11.513
▁cholangio	-11.5132
▁ver	-11.5133
date	-11.5134
IE	-11.5135
▁Pulmonary	-11.5136
▁FI	-11.5136
serine	-11.5137
▁Anxiety	-11.5138
▁basement	-11.5139
▁proliferating	-11.5141
▁2�	-11.5141
▁Col	-11.5144
▁modulus	-11.5144
▁City	-11.5145
▁AG	-11.5145
▁presynaptic	-11.5146
keto	-11.5149
▁Rating	-11.515
▁micelles	-11.5152
5,000	-11.5152
▁favourable	-11.5154
▁1986	-11.5155
▁Improvement	-11.5158
▁haemorrhage	-11.5158
FD	-11.5158
▁perturbation	-11.5159
fos	-11.5159
peak	-11.5161
▁Insulin	-11.5162
▁Project	-11.5162
▁carboxyl	-11.5165
▁stereo	-11.5165
▁update	-11.5165
some	-11.5166
▁AKI	-11.5167
▁silicone	-11.5167
▁Cx	-11.517
▁haemoglobin	-11.5172
▁opioids	-11.5175
cross	-11.5175
▁manifest	-11.5176
▁workload	-11.5176
5.6	-11.5177
▁glycemic	-11.5178
▁radiography	-11.5179
▁indoor	-11.5181
▁echocardiograph	-11.5182
exposure	-11.5182
▁Ne	-11.5185
cer	-11.5188
=0.02	-11.5188
▁weaning	-11.5189
rine	-11.5192
▁Sensitivity	-11.5193
▁bending	-11.5196
▁Public	-11.5198
▁approximate	-11.5201
▁ECM	-11.5203
ern	-11.5203
▁raises	-11.5205
▁formalin	-11.5206
pine	-11.5206
▁searches	-11.5207
▁caregiver	-11.5208
▁geo	-11.5208
▁rhinitis	-11.5211
▁arachidonic	-11.5211
azine	-11.5212
management	-11.5213
▁splice	-11.5214
▁comprise	-11.5216
▁deeper	-11.5218
sy	-11.5218
▁contractility	-11.522
▁EV	-11.522
▁warm	-11.522
pin	-11.5221
▁Ho	-11.5222
Ni	-11.5224
▁GBM	-11.5228
▁thalamus	-11.5229
fixed	-11.5232
dihydro	-11.5235
▁36%	-11.5235
cur	-11.5236
6�	-11.5236
▁LE	-11.5237
▁0.02)	-11.5237
▁acceptability	-11.5238
dependently	-11.5238
▁instance	-11.5239
▁GPs	-11.5242
▁accelerate	-11.5242
▁AV	-11.5245
UA	-11.5246
▁Cal	-11.5249
▁households	-11.5251
▁agencies	-11.5255
▁narrative	-11.5256
aryl	-11.5257
ometer	-11.5259
tain	-11.526
▁adipocytes	-11.5262
fil	-11.5265
expressed	-11.5266
▁closer	-11.5269
▁Screening	-11.5269
8�	-11.5274
carbon	-11.5274
▁entropy	-11.5277
▁collecting	-11.5286
▁prostheses	-11.5286
centric	-11.5288
▁blast	-11.5289
▁reciprocal	-11.5292
9.4%	-11.5292
wise	-11.5293
▁pedicle	-11.5295
▁excitability	-11.5295
▁house	-11.5297
▁approximation	-11.5297
▁catalyzed	-11.5298
▁measurable	-11.5299
▁distinguishing	-11.5299
▁fly	-11.5301
▁acceptor	-11.5304
▁histidine	-11.5305
▁schemes	-11.5305
▁germline	-11.5306
▁Ce	-11.5307
▁Systematic	-11.5309
▁PLA	-11.531
mono	-11.5311
▁adenine	-11.5314
▁1/2	-11.5314
▁documents	-11.5315
xi	-11.5316
▁dealing	-11.5317
▁stenting	-11.5317
▁800	-11.5318
▁protecting	-11.5319
COVID	-11.5321
▁hematological	-11.5322
▁performances	-11.5323
▁lipo	-11.5324
▁colonoscopy	-11.5327
ALL	-11.5329
▁ultimate	-11.5331
▁proposes	-11.5332
ulation	-11.5333
▁mitigate	-11.5335
▁attained	-11.5338
▁26%	-11.534
▁endocytosis	-11.5341
noise	-11.5341
adrenoceptor	-11.5342
▁nocturnal	-11.5344
temperature	-11.5348
▁caring	-11.5351
▁Hispanic	-11.5351
▁GFP	-11.5352
BO	-11.5354
▁Lo	-11.5357
peri	-11.5358
▁seedlings	-11.5363
inus	-11.5366
▁originated	-11.5367
MN	-11.537
▁coil	-11.5371
EX	-11.5372
▁dominance	-11.5373
▁Mediterranean	-11.5374
UT	-11.5375
VR	-11.5376
▁impair	-11.5376
box	-11.5377
▁transported	-11.5381
sch	-11.5381
ations	-11.5381
▁Trials	-11.5382
6.8%	-11.5383
subunit	-11.5383
viral	-11.5391
kb	-11.5392
types	-11.5397
▁pelvis	-11.5397
corrected	-11.5397
▁swimming	-11.5399
▁fructose	-11.54
4.0	-11.5401
2.5%	-11.5402
TEM	-11.5403
=2	-11.5405
▁characters	-11.5405
▁statin	-11.5405
▁bath	-11.5407
▁reality	-11.5407
▁IVF	-11.5409
▁gastro	-11.5409
▁genotyped	-11.5414
▁combines	-11.5421
▁Sequence	-11.5421
▁MTT	-11.5421
▁intakes	-11.5422
6.7	-11.5422
8.7%	-11.5423
▁robustness	-11.5425
are	-11.5427
▁lidocaine	-11.543
▁0.08	-11.543
▁illumination	-11.5433
▁metformin	-11.5433
4.2	-11.5433
nus	-11.5436
▁overt	-11.5437
▁phenol	-11.5438
▁anaemia	-11.5438
▁labour	-11.5439
▁tears	-11.544
▁nitro	-11.5443
▁atmosphere	-11.5444
▁moisture	-11.5447
▁Activation	-11.5448
▁aetiology	-11.5448
▁exacerbation	-11.5451
▁101	-11.5451
▁individualized	-11.5452
▁anisotropy	-11.5453
▁vegetation	-11.5453
▁additionally	-11.5455
▁alleviate	-11.5457
▁antidepressants	-11.546
▁VTE	-11.5462
▁mirror	-11.5463
▁pen	-11.5466
▁laparoscopy	-11.5466
▁Individuals	-11.5466
▁desire	-11.5466
▁Ge	-11.5466
▁PAI	-11.5467
▁filament	-11.547
Hb	-11.5471
▁5.8	-11.5477
▁83%	-11.5477
▁bar	-11.5477
▁monolayers	-11.5477
▁ataxia	-11.548
▁cooperative	-11.5483
▁32%	-11.5483
▁uric	-11.5483
▁Km	-11.5486
▁farms	-11.5487
▁prescriptions	-11.5487
▁irrigation	-11.5489
7.8%	-11.5491
▁gonadotropin	-11.5492
rit	-11.5493
▁CXCR	-11.5496
sum	-11.5499
▁Lower	-11.5499
▁hypertrophic	-11.55
comp	-11.5504
9.2%	-11.5505
ros	-11.5505
ibility	-11.5505
▁38%	-11.5506
ost	-11.5507
▁medullary	-11.5508
che	-11.5508
▁enteric	-11.5508
ROC	-11.5509
activating	-11.5509
▁psychotic	-11.551
▁province	-11.551
▁NB	-11.5513
2(	-11.5513
▁disk	-11.5516
▁ha	-11.5519
▁hybrids	-11.5522
DV	-11.5523
tor	-11.5524
▁IF	-11.5524
▁67%	-11.5524
▁editing	-11.5529
▁44%	-11.553
reactivity	-11.5534
▁.05).	-11.5535
▁ischaemia	-11.5535
OM	-11.554
▁undetectable	-11.554
-1.0	-11.5541
eo	-11.5542
▁weaker	-11.5542
DG	-11.5543
▁Regarding	-11.5544
▁telomerase	-11.5544
▁5)	-11.5545
▁lactic	-11.5545
PLA	-11.5547
Vs	-11.5547
net	-11.5549
CRC	-11.555
▁Helicobacter	-11.5553
▁oxytocin	-11.5553
▁outlined	-11.5554
▁108	-11.5554
▁polarized	-11.5557
plasty	-11.5559
▁proline	-11.5561
▁collapse	-11.5562
▁sorting	-11.5565
gl	-11.5571
9.6%	-11.5572
▁pathogenicity	-11.5572
oung	-11.5573
7.2%	-11.5574
▁silico	-11.5575
▁fluorescein	-11.5576
▁PCOS	-11.5577
▁microRNA	-11.5578
▁adiponectin	-11.5581
▁Sh	-11.5581
▁explaining	-11.5583
▁coordinate	-11.5584
▁inexpensive	-11.5585
▁nested	-11.5587
cul	-11.5589
▁simplex	-11.5591
TN	-11.5593
▁exclusive	-11.5594
▁satellite	-11.5596
▁febrile	-11.5596
▁0.10	-11.5597
iness	-11.5601
col	-11.5602
▁triggering	-11.5604
proliferative	-11.5607
Fs	-11.5608
▁subtilis	-11.5608
▁prey	-11.5609
▁disadvantages	-11.5612
▁bicarbonate	-11.5613
▁exploited	-11.5614
▁ACS	-11.5614
▁midline	-11.5617
▁BCG	-11.5617
▁Identification	-11.5617
Th	-11.5619
▁litter	-11.5622
component	-11.5622
▁train	-11.5622
▁Effects	-11.5624
▁specialty	-11.5626
▁Dutch	-11.5627
ute	-11.5628
▁HDAC	-11.5628
▁cornea	-11.5629
▁granulocyte	-11.5631
Os	-11.5631
▁neuropathic	-11.5632
▁freeze	-11.5632
▁attracted	-11.5633
4.1	-11.5634
4]	-11.5634
▁nose	-11.5634
▁(26	-11.5641
right	-11.5641
▁dispersed	-11.5642
dia	-11.5642
▁CAP	-11.5642
▁suggestions	-11.5643
▁allergens	-11.5645
▁innervation	-11.5645
trophic	-11.5647
▁serotypes	-11.5648
ga	-11.5648
epi	-11.5648
2.8	-11.5649
▁agree	-11.5649
▁Imaging	-11.565
9.5	-11.5652
▁Objective	-11.5652
▁ethics	-11.5655
▁FE	-11.5655
renal	-11.5656
▁dimethyl	-11.5657
assembly	-11.566
▁suppressing	-11.566
▁San	-11.5662
▁orthopedic	-11.5664
▁2017.	-11.5667
5.8	-11.5671
sec	-11.5673
▁Combined	-11.5678
▁AL	-11.5678
▁delivering	-11.568
ming	-11.568
▁(28	-11.568
▁Medline	-11.5681
child	-11.5684
▁.05)	-11.5685
▁radiologists	-11.5687
▁ileum	-11.5687
▁infancy	-11.5687
▁mucin	-11.5687
▁crest	-11.569
Gs	-11.5694
lip	-11.5695
▁Cognitive	-11.5696
▁intoxication	-11.5696
▁hematologic	-11.57
ock	-11.57
▁Red	-11.5702
▁leave	-11.5706
▁Flow	-11.5712
▁searching	-11.5713
▁cured	-11.5713
esteem	-11.5715
▁superfamily	-11.5715
133	-11.5721
▁LM	-11.5721
▁bulb	-11.5723
▁thinking	-11.5724
▁recommendation	-11.5724
▁Subsequent	-11.5729
▁titration	-11.573
6.2	-11.5732
cytes	-11.5734
▁peritonitis	-11.5738
▁dysphagia	-11.5738
▁hypoglycemia	-11.5738
▁morphogenesis	-11.5743
▁twins	-11.5743
▁repeatedly	-11.5744
cytochemical	-11.5744
▁arises	-11.5746
▁plot	-11.5747
3.8%	-11.5749
▁discontinued	-11.5753
▁navigation	-11.5757
▁ovulation	-11.5757
▁31,	-11.5759
▁droplets	-11.5761
gr	-11.5765
4.6%	-11.5765
gon	-11.5765
▁versatile	-11.5766
▁serving	-11.5767
▁AB	-11.577
▁Pearson	-11.5773
▁treadmill	-11.5776
▁sterile	-11.5777
▁portions	-11.5778
9.3%	-11.5778
▁desorption	-11.5779
▁associate	-11.5782
▁4.9	-11.5782
▁Mi	-11.5782
▁2016.	-11.5783
7.9%	-11.5786
EEG	-11.5786
▁sport	-11.5786
1.3%	-11.5786
segment	-11.5789
▁music	-11.579
▁Animals	-11.579
8.4%	-11.579
▁charts	-11.5792
▁replicated	-11.5795
▁internalization	-11.5795
8.1%	-11.5796
ense	-11.5801
7.6%	-11.5802
▁leukaemia	-11.5804
▁capital	-11.5804
▁Centre	-11.5805
▁MCP	-11.5805
▁LF	-11.5806
▁ON	-11.5809
▁island	-11.5809
6.0	-11.581
valent	-11.5811
exchange	-11.5812
▁periphery	-11.5813
▁VIP	-11.5815
ACS	-11.5817
▁suboptimal	-11.5819
▁tamoxifen	-11.582
▁reactor	-11.5821
▁1-2	-11.5822
▁norms	-11.5823
▁centrifugation	-11.5832
ack	-11.5833
▁scalp	-11.5833
▁isometric	-11.5836
▁Eighteen	-11.5837
▁choose	-11.5837
▁dyes	-11.5838
▁aspartate	-11.5838
uric	-11.5839
▁pertussis	-11.584
▁proteolysis	-11.5841
▁subarachnoid	-11.5842
▁wire	-11.5844
▁thymic	-11.5848
▁sacrificed	-11.5848
▁CAM	-11.585
▁(0.2	-11.5851
▁sarcoidosis	-11.5856
vo	-11.5856
▁Key	-11.5857
▁0�	-11.5858
ult	-11.5859
▁suppresses	-11.586
VP	-11.5861
▁98%	-11.5862
▁glycosylation	-11.5862
▁tonic	-11.5862
▁Once	-11.5863
ven	-11.5863
▁muscarinic	-11.5863
▁labelling	-11.5864
▁vacuum	-11.5864
▁nationwide	-11.5865
▁inguinal	-11.5865
▁prolapse	-11.5866
▁proteomics	-11.5867
▁42%	-11.5869
▁Maternal	-11.587
▁exo	-11.5871
▁pay	-11.5871
▁waters	-11.5871
▁housing	-11.5875
7�	-11.5875
▁BL	-11.5875
▁plain	-11.5879
▁acutely	-11.5882
▁possessed	-11.5882
▁96%	-11.5884
4.9	-11.5885
▁pacemaker	-11.589
▁testes	-11.589
▁transferrin	-11.589
▁Relative	-11.5894
▁Mortality	-11.5898
▁dependency	-11.5898
▁freedom	-11.5899
▁assignment	-11.5899
▁Electron	-11.59
▁potentiated	-11.5901
4.7%	-11.5901
▁freely	-11.5901
0%	-11.5902
▁supine	-11.5903
bl	-11.5903
▁hole	-11.5904
▁excluding	-11.5907
ena	-11.5908
vol	-11.5908
(3	-11.5911
▁3�	-11.5911
▁figures	-11.5914
▁comfort	-11.5916
-450	-11.5917
3]	-11.5918
▁cava	-11.5921
▁Potential	-11.5922
▁Photo	-11.5923
fe	-11.5925
▁CBF	-11.5927
HM	-11.5927
▁recycling	-11.5927
▁eosinophils	-11.593
AMP	-11.593
aspartate	-11.593
▁depleted	-11.593
▁Female	-11.5933
▁analytic	-11.5934
ari	-11.5934
▁diaphragm	-11.5934
▁93%	-11.5937
ale	-11.5937
▁5.6	-11.5937
graft	-11.5937
1.9	-11.5942
▁everyday	-11.5942
▁hemodynamics	-11.5946
▁interfacial	-11.5947
▁nodular	-11.5947
▁37%	-11.5948
▁raising	-11.5949
developmental	-11.5952
▁utero	-11.5956
▁consciousness	-11.5956
▁LDH	-11.5959
▁driver	-11.5959
▁faced	-11.5959
▁endurance	-11.596
▁progeny	-11.596
▁mask	-11.5961
▁relapsed	-11.5962
▁suited	-11.5963
▁88%	-11.5966
▁asthmatic	-11.5967
▁cast	-11.597
▁92%	-11.597
atum	-11.5973
▁PMN	-11.5975
▁clean	-11.5976
▁niche	-11.5976
8.5%	-11.5979
▁graph	-11.5979
▁Sc	-11.598
transcriptional	-11.598
▁parenting	-11.5981
▁FH	-11.5983
4.5%	-11.5987
▁board	-11.5987
▁export	-11.599
▁methane	-11.599
▁seminal	-11.5994
▁Water	-11.5995
rk	-11.5998
tan	-11.5999
▁29%	-11.6
Di	-11.6
▁http	-11.6001
▁percentile	-11.6002
▁welfare	-11.6003
etalloproteinase	-11.6003
▁2015.	-11.6006
▁regulations	-11.6007
erg	-11.6008
cyclo	-11.6014
▁stated	-11.6014
▁rights	-11.6015
insulin	-11.6016
▁religious	-11.6016
▁AE	-11.6019
▁Part	-11.6019
▁residency	-11.6022
▁distinction	-11.6023
▁Level	-11.6023
NG	-11.6027
▁cotton	-11.6027
▁tensile	-11.6027
VAS	-11.6028
▁sustain	-11.6029
▁Nursing	-11.6032
▁disposition	-11.6033
▁lay	-11.6034
▁HepG	-11.6034
▁readmission	-11.6035
▁columns	-11.6037
ola	-11.6039
▁Swedish	-11.6042
▁emerge	-11.6043
ami	-11.6044
▁dyspnea	-11.6046
ign	-11.6047
olytic	-11.6047
▁extensor	-11.6051
▁Classification	-11.6051
▁compositions	-11.6053
▁ciprofloxacin	-11.6056
▁dispersal	-11.6056
4.4%	-11.6059
▁coherent	-11.6061
▁coastal	-11.6063
▁carbonyl	-11.6064
pyridine	-11.6066
til	-11.6071
▁sister	-11.6072
3.2	-11.6072
▁phorbol	-11.6081
▁RD	-11.6081
logic	-11.6082
▁disrupt	-11.6083
labelled	-11.6083
▁rDNA	-11.6084
kappa	-11.6085
▁sun	-11.6085
▁congestive	-11.6085
der	-11.6086
DO	-11.6086
▁charges	-11.6088
▁transducer	-11.6088
▁shortened	-11.6089
▁conception	-11.6089
▁flies	-11.6089
▁hydrogels	-11.609
bromo	-11.609
toxicity	-11.6095
uff	-11.6096
▁carries	-11.61
▁(0.3	-11.6101
▁fl	-11.6105
▁Real	-11.6105
▁RPE	-11.6107
▁SK	-11.6108
tron	-11.611
▁rectum	-11.6111
opathy	-11.6111
▁hydroxylase	-11.6115
▁altitude	-11.6118
▁disordered	-11.612
▁FN	-11.6122
▁GD	-11.6123
▁efficiencies	-11.6124
▁protects	-11.6126
▁draw	-11.6127
▁oxy	-11.613
▁gathered	-11.613
▁FDA	-11.613
8.2%	-11.6131
9�	-11.6131
RK	-11.6133
▁cervix	-11.6134
▁lists	-11.6136
sed	-11.6137
DCs	-11.6138
tocompatibility	-11.6138
▁cytoskeletal	-11.6138
▁confounders	-11.6139
▁hCG	-11.6139
▁sugars	-11.6139
▁reactivation	-11.6141
▁cathepsin	-11.6142
culture	-11.6145
▁quick	-11.6147
▁newer	-11.615
10,	-11.6152
omb	-11.6154
▁displaced	-11.6155
9.7%	-11.6157
▁1.00	-11.616
6.6	-11.616
ja	-11.616
electron	-11.6161
▁reoperation	-11.6163
▁screws	-11.6164
▁rhythms	-11.6167
▁affinities	-11.6168
protective	-11.6169
▁NG	-11.617
▁calculating	-11.6172
▁unfavorable	-11.6172
▁radiology	-11.6173
▁43%	-11.6173
▁oils	-11.6174
▁immunologic	-11.6175
▁setup	-11.6176
▁5.4	-11.6176
hydr	-11.6176
▁8,	-11.6177
▁vasculitis	-11.6177
Ig	-11.6181
▁GL	-11.6186
▁Su	-11.6187
▁positioned	-11.6188
▁gentamicin	-11.6191
▁silent	-11.6192
cAMP	-11.6194
▁End	-11.6196
=0.03	-11.6196
▁horse	-11.6197
▁Pretreatment	-11.6198
eal	-11.6199
▁mineralization	-11.62
▁sensitized	-11.6201
topic	-11.6201
▁ph	-11.6202
▁wing	-11.6204
▁telomere	-11.6205
▁microfluidic	-11.6207
▁nickel	-11.6207
▁mucus	-11.6207
▁Abeta	-11.6211
▁instrumentation	-11.6212
omycin	-11.6215
LG	-11.6216
▁spores	-11.6216
▁Levels	-11.622
wa	-11.6221
▁earliest	-11.6221
+,	-11.6223
ended	-11.6223
tine	-11.6225
▁ducts	-11.6226
TO	-11.6226
▁osteogenic	-11.6227
▁practitioner	-11.6227
▁31%	-11.6232
▁disturbed	-11.6232
▁posture	-11.6234
▁diarrhoea	-11.6234
▁detergent	-11.6234
▁amniotic	-11.6234
lt	-11.6235
▁Be	-11.6235
▁endometrium	-11.6236
pha	-11.6237
▁primates	-11.6237
▁Pd	-11.624
2.2%	-11.624
▁capillaries	-11.6241
▁colloidal	-11.6245
▁clarified	-11.6246
▁twelve	-11.6246
6.8	-11.6246
▁BE	-11.6246
liquid	-11.6247
▁dielectric	-11.6247
▁max	-11.625
aldehyde	-11.6251
▁RAS	-11.6254
▁spray	-11.6254
▁nail	-11.6254
apo	-11.6255
▁mitosis	-11.6256
morph	-11.6258
za	-11.6263
row	-11.6264
▁messages	-11.6264
dr	-11.6265
▁8.5	-11.6266
pers	-11.6267
▁HTLV	-11.6268
0%)	-11.6269
dihydroxy	-11.627
▁prerequisite	-11.6271
5.4	-11.6271
7.8	-11.6273
▁99%	-11.6274
▁amorphous	-11.6275
▁inpatients	-11.6277
▁FM	-11.628
▁smears	-11.6282
▁cGMP	-11.6283
▁poultry	-11.6285
▁inference	-11.6287
▁6.2	-11.6288
▁substitute	-11.6289
▁Therapy	-11.629
▁Breast	-11.629
▁branching	-11.629
▁feelings	-11.6293
▁0.98	-11.6295
2.4%	-11.63
▁Groups	-11.6301
▁contour	-11.6305
▁adherent	-11.6311
▁Register	-11.6315
▁mosquitoes	-11.6317
▁Structural	-11.632
▁ozone	-11.632
▁94%	-11.632
▁arteriovenous	-11.6322
▁131	-11.6322
▁employ	-11.6324
▁lo	-11.6324
▁coded	-11.6325
CVD	-11.6326
▁aesthetic	-11.6326
ometric	-11.6328
▁British	-11.6329
▁2-3	-11.6332
5.7	-11.6333
▁tomographic	-11.6335
▁broth	-11.6337
▁NAFLD	-11.6339
▁atrium	-11.6339
hes	-11.634
era	-11.634
▁blunt	-11.634
▁poses	-11.634
▁Hypo	-11.634
110	-11.6341
▁(35	-11.6341
▁capsid	-11.6343
NV	-11.6343
▁insomnia	-11.6343
▁115	-11.6343
<0.01)	-11.6344
▁pneumococcal	-11.6345
▁ICP	-11.6347
ai	-11.6348
▁adaptations	-11.6348
▁conformations	-11.6353
clamp	-11.6353
▁erosion	-11.6354
▁Education	-11.6354
immune	-11.6356
▁belongs	-11.6358
▁Syndrome	-11.6359
▁tuning	-11.636
▁Leishmania	-11.6362
2.9%	-11.6364
▁Rapid	-11.6366
▁brachial	-11.6368
▁GFR	-11.6369
▁Ga	-11.637
6.7%	-11.6373
▁pups	-11.6374
▁sciatic	-11.6374
catenin	-11.6374
▁condensation	-11.6376
▁5.1	-11.6377
▁Vitamin	-11.638
transplant	-11.638
▁prime	-11.6382
▁RSV	-11.6383
▁RNase	-11.6384
▁compares	-11.6384
▁hydrocarbons	-11.6385
▁passed	-11.6385
▁86%	-11.6385
enriched	-11.6386
▁EDTA	-11.6388
▁km	-11.6388
▁multiplex	-11.6388
▁Stress	-11.6389
▁isomers	-11.6392
▁Chem	-11.6392
bra	-11.6392
▁humidity	-11.6395
6.5%	-11.6398
▁paternal	-11.6399
▁gliomas	-11.6405
▁PDE	-11.6405
inducing	-11.6406
▁undergoes	-11.6412
▁107	-11.6415
▁Iso	-11.6417
▁lysozyme	-11.6419
▁extends	-11.6419
acyl	-11.6422
▁sedimentation	-11.6422
▁Special	-11.6424
▁distortion	-11.6424
undifferentiated	-11.643
▁convenience	-11.6434
▁thromboembolism	-11.6434
▁ovaries	-11.6434
sk	-11.6435
ani	-11.6436
▁ND	-11.6438
arterial	-11.6438
▁marital	-11.6439
3.1%	-11.6441
oplasty	-11.6443
und	-11.6447
ast	-11.6449
He	-11.645
▁transferase	-11.645
▁CDK	-11.645
▁microbes	-11.6452
▁KO	-11.6452
ifying	-11.6452
logical	-11.6454
▁intramuscular	-11.6455
rest	-11.6456
3.5	-11.6458
retest	-11.646
ventricular	-11.6462
phen	-11.6463
▁97%	-11.6463
▁profession	-11.6464
▁rheumatic	-11.6466
degree	-11.6467
▁straight	-11.6469
▁keratin	-11.6469
etic	-11.647
▁laminin	-11.6471
1.5%	-11.6473
▁ward	-11.6473
▁freshwater	-11.6475
▁vibrational	-11.6479
▁homolog	-11.6479
▁cup	-11.648
benzyl	-11.6481
<0.001),	-11.6482
▁109	-11.6482
▁implying	-11.6484
▁continuum	-11.6484
▁obviously	-11.6486
▁diploid	-11.6487
▁convergence	-11.6489
transplantation	-11.649
▁inferred	-11.649
▁carbohydrates	-11.6491
▁virulent	-11.6494
que	-11.6494
▁aligned	-11.6495
Pa	-11.6496
▁verapamil	-11.6497
az	-11.6497
inducible	-11.6497
▁displaying	-11.6498
▁uncontrolled	-11.6499
▁People	-11.65
fluorouracil	-11.65
sta	-11.65
▁oncogene	-11.6501
▁PPI	-11.6501
▁steel	-11.6505
▁continuity	-11.651
▁orthopaedic	-11.651
▁occipital	-11.651
enol	-11.6512
▁123	-11.6512
▁13-	-11.6514
▁0.12	-11.6514
▁groundwater	-11.6515
onic	-11.6516
▁mix	-11.6517
▁starvation	-11.6519
▁opportunistic	-11.652
▁suspensions	-11.6521
SK	-11.6523
ocytes	-11.6524
Ad	-11.6527
▁NCT	-11.6529
▁Mann	-11.6529
▁chlorophyll	-11.653
▁exit	-11.6534
SU	-11.6536
▁Latin	-11.6537
plane	-11.6537
int	-11.6538
OF	-11.6539
▁genomics	-11.6539
▁ketamine	-11.6542
++	-11.6543
▁WM	-11.6544
▁encounter	-11.6545
▁suitability	-11.6545
qua	-11.6545
▁MSC	-11.6545
ren	-11.6546
ius	-11.6547
▁nanotubes	-11.6549
▁washing	-11.655
▁multifactorial	-11.655
▁notable	-11.655
▁PCA	-11.6551
▁leukemic	-11.6551
9.5%	-11.6553
▁neovascular	-11.6553
RN	-11.6553
▁135	-11.6554
▁declines	-11.6555
▁frailty	-11.6555
cre	-11.6555
▁pesticide	-11.6556
▁trabecular	-11.6558
▁lifespan	-11.6561
3.9%	-11.6562
Formula	-11.6563
▁VIII	-11.6563
han	-11.6564
▁diseased	-11.6565
▁cow	-11.6565
▁fossa	-11.6565
▁aiming	-11.6565
▁feces	-11.6565
NN	-11.6565
▁infrastructure	-11.6566
180	-11.6567
▁Em	-11.657
person	-11.6571
-0.6	-11.6571
-1),	-11.6572
▁stressed	-11.6574
▁import	-11.6575
tous	-11.6575
▁Vascular	-11.6581
mon	-11.6581
▁permitted	-11.6582
RL	-11.6588
▁ideas	-11.6588
▁explains	-11.6589
fen	-11.659
terdisciplinary	-11.6591
▁rigorous	-11.6591
▁advancement	-11.6592
ida	-11.6595
▁Activity	-11.6596
▁operate	-11.6597
▁physiologically	-11.6601
▁discrepancies	-11.6601
▁Kingdom	-11.6601
7.6	-11.6604
▁2018.	-11.6605
▁uniformly	-11.6606
6.3	-11.6608
▁cultivated	-11.6608
▁TIMP	-11.661
▁eco	-11.661
▁easier	-11.6611
patients	-11.6611
▁Not	-11.6613
6.4	-11.6614
0.05).	-11.6614
severe	-11.6615
▁osteoclast	-11.6615
▁consolidation	-11.6616
▁AAA	-11.6616
▁analytes	-11.662
▁suspended	-11.6621
3.0	-11.6623
▁MDS	-11.6624
versus	-11.6626
▁GT	-11.6626
▁Cy	-11.6627
▁56%	-11.663
▁penile	-11.6632
▁iNOS	-11.6632
▁Application	-11.6632
▁stably	-11.6633
▁5.7	-11.6635
clo	-11.6635
▁electrons	-11.6638
9.1%	-11.6639
▁choroidal	-11.6639
standing	-11.6641
▁tilt	-11.6641
eus	-11.6644
thal	-11.6644
app	-11.6646
▁Whole	-11.6648
▁sal	-11.6649
▁osteoblasts	-11.665
ualitative	-11.6652
stimulation	-11.6653
▁increment	-11.6653
KD	-11.6653
self	-11.6654
▁ingredients	-11.6654
most	-11.6655
▁veterinary	-11.6657
sin	-11.6659
diol	-11.6662
▁NADH	-11.6664
▁jaw	-11.6664
▁El	-11.6665
▁thigh	-11.6666
▁occasions	-11.6667
▁ensuring	-11.6667
cyto	-11.6668
8.6%	-11.667
▁trigeminal	-11.6672
▁cyclooxygenase	-11.6672
▁neurones	-11.6674
6.2%	-11.6674
10-	-11.6675
training	-11.6677
abdominal	-11.6681
▁mTOR	-11.6682
▁ligase	-11.6683
▁determines	-11.6684
benzene	-11.6687
▁microns	-11.6687
▁somatosensory	-11.6688
tel	-11.6688
▁strictly	-11.6689
GN	-11.669
▁extracorporeal	-11.6693
▁playing	-11.6694
▁volumetric	-11.6694
▁cutting	-11.6694
50)	-11.6694
Ga	-11.6698
▁neurotrophic	-11.6699
▁moieties	-11.6703
▁naloxone	-11.6704
ding	-11.6705
hydro	-11.6705
▁NAC	-11.6706
▁HBsAg	-11.6706
▁independence	-11.6706
house	-11.6708
▁measles	-11.6708
▁von	-11.671
▁0.95	-11.6711
radi	-11.6711
▁ROC	-11.6711
5.3	-11.6712
▁files	-11.6714
rio	-11.6715
▁lacks	-11.6717
▁Vi	-11.6717
aging	-11.6718
▁Lactobacillus	-11.6719
▁mutational	-11.672
WM	-11.6721
▁cofactor	-11.6722
cultural	-11.6723
▁mammography	-11.6724
mTc	-11.6724
iform	-11.6724
NL	-11.6725
▁annually	-11.6726
▁240	-11.6726
▁restrictions	-11.6726
▁fair	-11.6728
▁perturbations	-11.6728
▁cigarettes	-11.6733
▁7.2	-11.6734
▁prostatectomy	-11.6734
▁anions	-11.6737
▁grass	-11.6737
▁111	-11.6738
▁maturity	-11.6739
▁Mr	-11.674
▁curcumin	-11.6744
▁MDD	-11.6744
▁pitch	-11.6746
▁ureter	-11.6746
administration	-11.675
▁Lewis	-11.6751
scopy	-11.6751
▁missense	-11.6755
▁Nano	-11.6756
▁expect	-11.6756
▁HM	-11.6757
▁ACh	-11.6758
0.5%	-11.6761
azo	-11.6761
▁neglect	-11.6762
▁packing	-11.6763
relative	-11.6764
Asp	-11.6766
▁frames	-11.6767
▁2014.	-11.6768
▁fifty	-11.677
▁sonography	-11.677
8.5	-11.6776
0;	-11.6779
EG	-11.678
▁quenching	-11.6781
ographic	-11.6782
wi	-11.6783
ory	-11.6783
cap	-11.6784
▁explanations	-11.6788
7.0	-11.6789
▁stabilize	-11.679
ably	-11.6792
▁2020.	-11.6793
▁symmetric	-11.6794
2.6%	-11.6796
embedded	-11.6796
UP	-11.6801
▁combat	-11.6804
8.3%	-11.6806
▁adjust	-11.6807
▁Sea	-11.6808
rel	-11.6808
▁slice	-11.6808
▁enrollment	-11.6811
▁antisera	-11.6812
▁acetic	-11.6814
▁Med	-11.6816
AOR	-11.6819
logists	-11.682
▁Asp	-11.6821
7.1%	-11.6821
▁thrombotic	-11.6825
▁conjugation	-11.6827
▁Linear	-11.6828
-6,	-11.683
▁ro	-11.6832
RO	-11.6835
▁Sleep	-11.6838
▁encapsulated	-11.6838
▁lacked	-11.6838
kin	-11.6841
▁emphasizes	-11.6845
▁mutual	-11.6848
▁Alcohol	-11.6848
core	-11.685
BH	-11.685
▁lympho	-11.6851
▁6�	-11.6851
▁scanner	-11.6852
▁dimers	-11.6852
▁predisposing	-11.6854
hal	-11.6855
▁gastrectomy	-11.6859
▁dropped	-11.6859
VL	-11.6859
▁11-	-11.686
▁34%	-11.6863
-(2-	-11.6864
▁OM	-11.6866
ves	-11.6867
▁dendrites	-11.6869
▁noticed	-11.6876
▁nucleoside	-11.6876
1.2%	-11.688
▁BRAF	-11.688
▁0.02).	-11.6881
▁Eu	-11.6881
ple	-11.6882
▁longevity	-11.6885
▁literacy	-11.6885
▁adversely	-11.6885
OG	-11.6888
▁amide	-11.6889
VC	-11.689
▁war	-11.6891
ini	-11.6892
ral	-11.6893
▁feet	-11.6894
pur	-11.6895
▁quantitation	-11.6895
▁checklist	-11.6895
▁descriptions	-11.6896
▁adenylate	-11.6896
▁synchronous	-11.6897
▁DT	-11.6897
▁Fisher	-11.69
▁uncomplicated	-11.6901
▁psychopathology	-11.6901
-80	-11.6901
ICC	-11.6902
▁touch	-11.6905
▁reconstituted	-11.6905
▁Unit	-11.6906
AH	-11.6906
▁postprandial	-11.6907
▁huge	-11.6907
7.4	-11.6907
▁Hodgkin	-11.6908
▁polyacrylamide	-11.6908
▁effluent	-11.6909
ski	-11.691
▁multimodal	-11.6911
▁therapists	-11.6912
▁aluminum	-11.6914
NMR	-11.6914
tur	-11.6917
▁reviewers	-11.6919
▁cor	-11.6919
▁ureteral	-11.6919
▁CCL	-11.6921
▁Population	-11.6922
5.9	-11.6922
0.2	-11.6923
hole	-11.6924
DN	-11.6925
▁attenuate	-11.6925
▁vagal	-11.6926
▁Province	-11.6927
▁cavities	-11.6927
using	-11.6927
▁48%	-11.6929
▁ticks	-11.6932
▁lived	-11.6932
▁regimes	-11.6933
562	-11.6937
▁thaliana	-11.6937
phy	-11.6938
Lys	-11.6938
▁leaders	-11.6939
▁refined	-11.6941
▁monomers	-11.6942
Gal	-11.6943
▁bioinformatics	-11.6943
▁ulceration	-11.6945
▁grid	-11.6947
▁HIF	-11.6947
▁1-3	-11.6948
▁0.85	-11.6949
1.8%	-11.6956
▁spiral	-11.6957
▁Seventeen	-11.6959
▁tracts	-11.696
photon	-11.696
▁client	-11.696
▁inositol	-11.696
7.7	-11.6961
▁extrinsic	-11.6962
▁prolongation	-11.6965
section	-11.6966
(0)	-11.6966
phi	-11.6968
▁ecology	-11.6969
=0.04	-11.6972
▁116	-11.6974
restricted	-11.6974
lex	-11.6975
▁BT	-11.6976
▁releasing	-11.6976
▁worked	-11.6977
▁GLUT	-11.6977
4.1%	-11.6977
tum	-11.6979
▁Performance	-11.698
▁anomalous	-11.698
▁unexplained	-11.698
parathyroidism	-11.698
rr	-11.698
+-	-11.698
nar	-11.6981
ria	-11.6982
▁Preliminary	-11.6985
prop	-11.6988
2.1%	-11.6992
▁Er	-11.6994
5.6%	-11.6995
▁duodenum	-11.6995
▁coronal	-11.6996
▁10(-6)	-11.6997
▁autonomy	-11.7001
▁varieties	-11.7001
▁flexor	-11.7001
▁molars	-11.7002
▁sorption	-11.7005
ylation	-11.7005
▁writing	-11.7006
▁cyclosporine	-11.701
▁shaped	-11.7012
▁homocysteine	-11.7013
dominant	-11.7013
▁glucocorticoids	-11.7014
▁consuming	-11.7018
▁papillomavirus	-11.7019
biocompatibility	-11.7022
▁strengthen	-11.7023
▁63%	-11.7023
▁8.0	-11.7024
▁flavonoids	-11.7024
1]	-11.7025
▁VL	-11.7026
▁CAT	-11.7027
polar	-11.7028
▁trachea	-11.7029
▁medically	-11.7031
▁knees	-11.7032
▁discharges	-11.7038
▁1970	-11.7038
=5	-11.704
gal	-11.7043
▁Binding	-11.7043
▁covalently	-11.7044
NOS	-11.7044
flu	-11.7044
▁ventilatory	-11.705
▁Epi	-11.705
▁NIH	-11.7051
▁fundus	-11.7057
▁naive	-11.7058
RH	-11.7062
▁concentrate	-11.7062
▁statins	-11.7063
▁belief	-11.7064
▁anionic	-11.7064
▁groove	-11.7065
▁sheet	-11.7065
▁acetylation	-11.7065
▁CRISPR	-11.7066
8.0	-11.7067
OB	-11.7067
NSCLC	-11.7067
▁angiogenic	-11.7069
▁14-	-11.707
▁ears	-11.707
12)	-11.7071
▁entering	-11.7071
▁84%	-11.7072
Akt	-11.7072
▁canonical	-11.7073
▁mining	-11.7075
ean	-11.7075
▁68%	-11.7077
MAPK	-11.7079
▁calmodulin	-11.708
▁trainees	-11.7081
▁antiplatelet	-11.7082
▁intramolecular	-11.7082
▁91%	-11.7084
▁kill	-11.7085
Val	-11.7086
▁delirium	-11.7086
▁Computed	-11.7086
▁homogenates	-11.7087
▁microRNAs	-11.7088
▁legs	-11.7089
▁puberty	-11.7091
▁glycolysis	-11.7091
▁82%	-11.7093
▁penetrating	-11.7093
▁holds	-11.7093
▁16-	-11.7094
last	-11.7095
▁Possible	-11.7097
▁gases	-11.7098
▁Peri	-11.7098
▁hyperactivity	-11.7099
species	-11.7101
▁Physicians	-11.7103
▁posttraumatic	-11.7106
▁postmortem	-11.711
5.8%	-11.7112
cept	-11.7112
hip	-11.7112
RG	-11.7113
140	-11.7113
▁secrete	-11.7114
▁regards	-11.7115
pir	-11.7118
pol	-11.7118
5.2%	-11.7119
4.2%	-11.7123
▁locomotion	-11.7123
▁thymidine	-11.7128
▁immunoblotting	-11.7129
▁residential	-11.7129
cytochemistry	-11.7129
▁thio	-11.7129
▁CsA	-11.7131
▁58%	-11.7133
▁nifedipine	-11.7134
tle	-11.7135
scan	-11.7136
▁tubule	-11.7138
▁subcutaneously	-11.7139
▁predisposition	-11.7139
HBV	-11.7141
▁Gly	-11.7141
▁Systemic	-11.7142
berg	-11.7143
▁filtering	-11.7143
8.6	-11.7144
▁restenosis	-11.7145
▁keeping	-11.7146
▁feel	-11.7146
▁dextran	-11.7146
▁sophisticated	-11.715
▁troponin	-11.715
STAT	-11.715
▁0.14	-11.7151
▁CABG	-11.7152
▁implicit	-11.7156
▁supervision	-11.7156
▁underscore	-11.7157
grams	-11.7162
▁neighboring	-11.7163
▁ADC	-11.7164
nu	-11.7165
▁rotavirus	-11.7166
▁78%	-11.7168
▁Chemical	-11.7169
shell	-11.7169
▁quantifying	-11.7171
9.8%	-11.7171
▁wind	-11.7173
vir	-11.7175
▁suppressive	-11.7178
Hodgkin	-11.718
▁6.8	-11.718
▁peers	-11.718
▁reform	-11.7183
infrared	-11.7185
▁versions	-11.7187
▁offset	-11.7188
hyper	-11.7189
▁inverted	-11.7191
br	-11.7191
area	-11.7192
▁neutralization	-11.7192
▁76%	-11.7196
▁Loss	-11.7197
▁emergent	-11.7199
coagul	-11.72
ez	-11.7201
▁Mono	-11.7201
▁stressful	-11.7203
▁lac	-11.7203
▁62%	-11.7204
▁willingness	-11.7205
ker	-11.7205
-90	-11.7206
gas	-11.7209
▁intolerance	-11.7212
▁PAF	-11.7214
▁compensate	-11.7215
▁71%	-11.7217
▁52%	-11.7217
7.3	-11.7218
meth	-11.7219
▁ORF	-11.7219
▁beats	-11.7219
▁PTEN	-11.722
▁constipation	-11.722
▁nanostructures	-11.7221
▁journal	-11.7222
▁refer	-11.7223
▁assume	-11.7226
▁biases	-11.7226
▁KD	-11.7227
▁big	-11.7227
polymer	-11.7228
ey	-11.723
▁amines	-11.723
▁Han	-11.7236
▁minimizing	-11.7237
▁optimizing	-11.7237
▁rapamycin	-11.7237
▁effectors	-11.7241
▁purity	-11.7243
▁Overexpression	-11.7243
▁Wa	-11.7245
▁note	-11.7247
▁Third	-11.7247
▁equine	-11.7249
▁ulnar	-11.7249
�1	-11.7251
▁myelo	-11.7251
<0.05	-11.7254
6.6%	-11.7254
▁bundles	-11.7254
lis	-11.7257
▁facilitation	-11.7258
▁scoliosis	-11.7258
-34	-11.7259
▁visualize	-11.7259
/20	-11.7259
▁programming	-11.726
▁CHF	-11.7264
▁inspection	-11.7264
▁facing	-11.7266
1-3	-11.7267
6.9	-11.7269
▁firm	-11.7271
▁CAR	-11.7272
▁57%	-11.7273
▁alloy	-11.7283
▁considers	-11.7283
itation	-11.7284
▁cytomegalovirus	-11.7286
ulo	-11.7286
▁0.000	-11.7286
▁immunogenicity	-11.7287
▁Free	-11.7288
▁JAK	-11.729
▁My	-11.729
▁unprecedented	-11.7291
▁baby	-11.7291
histochemically	-11.7291
▁couple	-11.7293
6.9%	-11.7293
MH	-11.7295
Mg	-11.7296
▁probabilities	-11.7296
▁Response	-11.7302
▁Significantly	-11.7304
▁mosaic	-11.7307
ux	-11.7307
▁atropine	-11.7307
▁0.96	-11.7308
▁tracing	-11.731
▁nasopharyngeal	-11.7313
▁benzene	-11.7314
▁transfusions	-11.7314
▁uro	-11.7318
▁Stroke	-11.7318
3.4	-11.7319
▁wedge	-11.7324
▁solved	-11.7325
▁89%	-11.7326
▁Support	-11.7329
▁bacteremia	-11.7329
▁phone	-11.7331
▁price	-11.7334
▁daytime	-11.7334
plate	-11.7334
▁exceed	-11.7335
traperitoneally	-11.7335
▁menopause	-11.7337
▁10�	-11.7337
▁RH	-11.734
▁DN	-11.734
▁burnout	-11.7341
▁outgrowth	-11.7342
▁rough	-11.7343
-200	-11.7344
▁scavenging	-11.7344
7.1	-11.7346
▁46%	-11.7346
▁SU	-11.7347
(2),	-11.7349
MHC	-11.7349
▁port	-11.7349
▁inspiratory	-11.735
▁Peripheral	-11.7351
▁biogenesis	-11.7353
ending	-11.7354
▁41%	-11.7354
▁0.97	-11.7355
▁87%	-11.7356
FH	-11.7356
▁(27	-11.7356
▁occult	-11.7357
▁bilaterally	-11.7359
▁prompted	-11.7359
▁Rac	-11.7361
▁PCa	-11.7362
▁seasons	-11.7363
▁lies	-11.7365
▁evolve	-11.7369
▁dried	-11.7369
▁harvest	-11.737
▁supernatants	-11.737
▁2019.	-11.7372
AML	-11.7373
▁photosynthesis	-11.7373
▁nematode	-11.7374
▁HG	-11.7374
▁cope	-11.7375
TGF	-11.7378
▁64%	-11.7383
▁Infection	-11.7383
▁mar	-11.7385
▁carp	-11.7385
▁master	-11.7386
▁spacer	-11.7387
3.3%	-11.7388
▁53%	-11.7389
▁6.3	-11.7391
▁IB	-11.7392
▁unsuccessful	-11.7395
ethanolamine	-11.7399
▁SBP	-11.74
▁Skin	-11.74
▁consequent	-11.7401
▁forty	-11.7404
immuno	-11.7405
105	-11.7407
▁subpopulation	-11.7408
▁goats	-11.7409
▁frameworks	-11.7409
SNPs	-11.7409
▁harboring	-11.7411
▁(20%)	-11.7411
wk	-11.7413
▁0.94	-11.7413
▁arranged	-11.7417
▁symptomatology	-11.7417
▁delineate	-11.7418
▁sounds	-11.742
▁emptying	-11.7422
▁74%	-11.7423
▁hypothetical	-11.7423
▁salinity	-11.7423
▁SPSS	-11.7424
▁doing	-11.7427
contrast	-11.7427
transfer	-11.7428
atic	-11.7428
Cas	-11.7428
2.9	-11.7429
17)	-11.7429
iz	-11.7429
▁imposed	-11.743
▁ancient	-11.743
▁EL	-11.7431
reaction	-11.7431
▁swallowing	-11.7432
ind	-11.7434
▁excreted	-11.7434
▁pars	-11.7436
▁faecal	-11.7437
antigen	-11.7437
▁(1.5	-11.7437
▁manganese	-11.7439
resolved	-11.7443
▁ASA	-11.7444
▁primitive	-11.7445
enyl	-11.7446
FV	-11.7446
ones	-11.7447
strain	-11.7447
tolerant	-11.745
▁electromagnetic	-11.7451
▁clade	-11.7452
▁Student	-11.7453
family	-11.7454
▁robot	-11.7455
▁oedema	-11.7456
▁repressor	-11.7458
phospho	-11.7459
▁parenchymal	-11.7459
▁emulsion	-11.7461
▁competent	-11.7462
▁granulosa	-11.7462
▁CDC	-11.7462
▁54%	-11.7462
▁invited	-11.7462
5.9%	-11.7464
KS	-11.7465
▁anastomotic	-11.7466
unt	-11.7472
▁fairly	-11.7472
▁0.11	-11.7472
▁carcinogenic	-11.7472
▁references	-11.7473
▁places	-11.7475
dys	-11.7476
Ti	-11.7479
▁audio	-11.7479
▁5�	-11.7479
▁fibrils	-11.7482
▁handle	-11.7483
Li	-11.7483
▁neutron	-11.7484
▁Mini	-11.7487
▁iodide	-11.7487
▁hemolytic	-11.749
▁multifunctional	-11.7491
▁112	-11.7494
ligand	-11.7494
▁MAC	-11.7496
cor	-11.7496
spin	-11.7496
▁MTX	-11.7498
▁PMA	-11.75
▁carbonate	-11.75
▁tap	-11.7501
▁Dietary	-11.7501
3.5%	-11.7501
▁vir	-11.7503
▁73%	-11.7504
▁tablet	-11.7504
▁ciliary	-11.7505
▁Danish	-11.7506
oxidation	-11.7508
▁0.16	-11.7509
fin	-11.7509
▁scattered	-11.751
ara	-11.7511
blood	-11.7511
▁visually	-11.7512
▁message	-11.7513
▁eukaryotes	-11.7514
▁hamsters	-11.7515
▁Hu	-11.7515
▁trapping	-11.7516
This	-11.7521
▁Nigeria	-11.7522
▁Mal	-11.7522
distinguishable	-11.7523
▁CHO	-11.7523
▁Complex	-11.7523
BSA	-11.7523
ule	-11.7523
▁cage	-11.7526
axis	-11.7527
▁bactericidal	-11.7534
▁spatiotemporal	-11.7534
▁pharmacodynamic	-11.7535
▁attendance	-11.7536
▁elemental	-11.7537
EGFR	-11.7539
ks	-11.7539
▁IN	-11.7539
▁Phylogenetic	-11.7539
1.9%	-11.754
BN	-11.7542
▁multifocal	-11.7546
▁modulators	-11.7551
rot	-11.7552
▁savings	-11.7555
▁retinoic	-11.7555
▁pores	-11.7555
▁melanogaster	-11.7556
▁sick	-11.7557
atom	-11.756
▁TI	-11.7561
▁nosocomial	-11.7562
▁Prevalence	-11.7562
ki	-11.7566
▁Syn	-11.7566
▁cr	-11.7566
▁66%	-11.7567
sample	-11.7567
▁Implications	-11.7567
▁128	-11.7568
inc	-11.7569
crystal	-11.7572
▁chemokines	-11.7573
thymidine	-11.7573
▁chloroplast	-11.7574
▁lambs	-11.7574
▁AN	-11.7577
▁beams	-11.7577
▁costly	-11.7578
▁Clostridium	-11.7579
▁controversy	-11.7579
▁tried	-11.758
▁Students	-11.758
▁Correlation	-11.7582
▁morphometric	-11.7584
▁decarboxylase	-11.7584
▁ACC	-11.7585
▁vegetable	-11.7586
800	-11.7587
ld	-11.7588
DB	-11.759
▁lymphoblastic	-11.759
rn	-11.7591
Tyr	-11.7591
immunomodulatory	-11.7592
▁VC	-11.7594
▁foster	-11.7595
▁ABC	-11.7596
doped	-11.7596
▁su	-11.7598
▁Nurses	-11.7601
▁workforce	-11.7602
0.6%	-11.7604
▁warrant	-11.7604
▁17-	-11.7604
▁CRT	-11.7604
▁0.13	-11.7605
half	-11.7605
▁Gr	-11.7606
▁PFS	-11.7606
▁47%	-11.7606
HG	-11.7607
▁0.1%	-11.7608
▁catalyzes	-11.7608
▁10(-5)	-11.7608
▁copolymer	-11.7617
▁em	-11.7617
▁77%	-11.7618
▁companies	-11.7618
▁sentinel	-11.7618
▁livestock	-11.7618
▁Lu	-11.7622
▁circ	-11.7626
▁DHA	-11.7626
▁disclosed	-11.7632
▁favour	-11.7634
fla	-11.7635
treat	-11.7636
▁mechanically	-11.7638
▁fluoro	-11.7638
▁beef	-11.7642
▁sciences	-11.7643
▁ventilator	-11.7643
▁spectrometer	-11.7646
0.1	-11.7647
pA	-11.7649
operation	-11.765
▁partitioning	-11.7653
6.1	-11.7653
acquired	-11.7654
▁infective	-11.7654
▁adrenergic	-11.7655
atory	-11.7657
▁transportation	-11.7657
▁preserving	-11.7657
spectrum	-11.7659
▁ch	-11.7659
▁repaired	-11.7659
▁ribosome	-11.766
generated	-11.7661
run	-11.7661
ectin	-11.7663
▁cruciate	-11.7663
3.7%	-11.7663
▁apex	-11.7665
▁Pan	-11.7665
▁BR	-11.7665
▁pluripotent	-11.7666
▁partition	-11.7667
social	-11.7668
▁biodiversity	-11.7669
helix	-11.767
▁mega	-11.7672
plasma	-11.7672
▁-3	-11.7675
regulatory	-11.7675
▁specificities	-11.7677
▁parotid	-11.7678
▁deleted	-11.7679
ue	-11.768
▁ghrelin	-11.768
▁(50%)	-11.7681
genome	-11.7683
▁(32	-11.7684
▁Longitudinal	-11.7686
▁ileal	-11.7686
operatively	-11.769
▁interested	-11.7693
ger	-11.7695
▁monomeric	-11.7695
ces	-11.7697
▁2013.	-11.77
▁paucity	-11.7703
▁catecholamine	-11.7705
cyt	-11.7706
Sp	-11.7707
▁arc	-11.7708
▁Practice	-11.7709
▁monocytogenes	-11.7709
▁abiotic	-11.7709
loss	-11.7711
▁6.7	-11.7711
▁acne	-11.7711
▁moved	-11.7711
▁turned	-11.7712
▁0.78	-11.7713
▁erythroid	-11.7713
▁adduct	-11.7714
▁Rb	-11.7714
▁devastating	-11.7714
▁grains	-11.7715
▁brush	-11.7715
▁fails	-11.7717
processing	-11.7718
▁2012.	-11.7718
mycin	-11.7718
WD	-11.7718
▁guiding	-11.772
▁EN	-11.7722
▁spanning	-11.7723
nor	-11.7724
5.7%	-11.7725
▁plausible	-11.7726
▁72%	-11.7727
▁buccal	-11.7728
6.3%	-11.773
▁colleagues	-11.7731
▁guanine	-11.7732
diastolic	-11.7733
▁dihydro	-11.7735
▁ruptured	-11.7736
▁MCI	-11.7741
▁orthogonal	-11.7741
vasoconstriction	-11.7741
▁predominance	-11.7743
▁LI	-11.7744
Mn	-11.7744
sia	-11.7744
8.8	-11.7747
▁lasted	-11.7748
▁resembling	-11.7754
▁exceeding	-11.7756
▁observer	-11.7758
▁prion	-11.776
▁VE	-11.7761
▁PDT	-11.7762
▁burns	-11.7762
▁osteoblast	-11.7763
▁Therapeutic	-11.7766
seeking	-11.7767
▁helping	-11.7769
converting	-11.7769
ians	-11.7772
ado	-11.7774
▁discriminant	-11.7775
feeding	-11.7776
▁alternating	-11.7777
▁episodic	-11.7777
▁Par	-11.778
eta	-11.7781
▁soy	-11.7781
8.3	-11.7783
▁normative	-11.7783
▁cal	-11.7786
ich	-11.7789
▁Almost	-11.7789
▁recognised	-11.7789
▁transitional	-11.779
▁Good	-11.779
MU	-11.7794
▁comprehension	-11.7794
ste	-11.7795
▁viewing	-11.7795
▁karyotype	-11.7798
▁Pacific	-11.7798
▁2010.	-11.7798
Au	-11.78
▁occupied	-11.7801
▁That	-11.7801
▁(1.0	-11.7802
▁GE	-11.7803
▁Conventional	-11.7803
▁equi	-11.7804
▁(29	-11.7804
▁forebrain	-11.7806
▁PAR	-11.7808
▁intent	-11.7811
▁arrival	-11.7812
▁Complications	-11.7812
FB	-11.7815
liter	-11.7816
▁arthroscopic	-11.7816
▁kerato	-11.7816
▁NI	-11.7816
-45	-11.7817
▁imperative	-11.7817
▁60-	-11.7818
�%)	-11.7819
▁durations	-11.7819
glycoprotein	-11.782
▁CML	-11.7821
▁bifurcation	-11.7823
▁pericardial	-11.7823
-99	-11.7824
▁strips	-11.7825
▁CIN	-11.7826
3.6%	-11.7826
lines	-11.7827
▁EU	-11.7828
▁Adverse	-11.7829
calc	-11.7829
7.2	-11.7831
▁OCD	-11.7833
▁fluxes	-11.7834
▁cingulate	-11.7835
▁constituted	-11.7836
nate	-11.7836
▁BPD	-11.7836
▁productive	-11.7837
▁manipulated	-11.784
▁Univariate	-11.784
▁cirrhotic	-11.7841
▁MH	-11.7845
▁oligodendrocyte	-11.7846
▁biophysical	-11.7847
▁sickle	-11.7847
don	-11.7848
▁ALT	-11.7851
▁dehydration	-11.7852
8(+)	-11.7853
▁Common	-11.7853
▁cobalt	-11.7854
▁elevations	-11.7854
ya	-11.7855
▁safer	-11.7855
▁hydrocephalus	-11.7858
▁grey	-11.7858
▁hips	-11.786
▁1984	-11.7861
▁Coronary	-11.7863
▁choosing	-11.7864
▁Left	-11.7869
▁besides	-11.787
▁radiofrequency	-11.787
▁TEM	-11.787
▁BCR	-11.7871
ologic	-11.7873
pen	-11.7873
▁abstinence	-11.7875
▁methicillin	-11.7875
▁cortico	-11.7877
▁adjustments	-11.7879
▁(2-	-11.7879
▁IOL	-11.7881
size	-11.7881
▁knock	-11.7881
GSH	-11.7884
▁Neo	-11.7884
▁Trial	-11.7885
fo	-11.7885
▁vitreous	-11.7887
AST	-11.7887
▁Services	-11.7887
▁grafted	-11.7888
nia	-11.7888
UR	-11.789
▁oligosaccharide	-11.7891
ester	-11.7892
och	-11.7894
▁neurotoxicity	-11.7894
▁pipeline	-11.7894
ili	-11.7895
▁deployment	-11.7895
7.9	-11.7895
myo	-11.7897
▁supplied	-11.7898
▁topology	-11.7899
▁VS	-11.7899
▁pharmacology	-11.7899
van	-11.7901
▁dosages	-11.7901
▁nigra	-11.7902
▁War	-11.7902
MSC	-11.7903
▁Obesity	-11.7904
▁eastern	-11.7905
▁stand	-11.7908
promoting	-11.7908
▁packed	-11.7908
▁primate	-11.7908
▁reconstructions	-11.7908
7.4%	-11.791
▁--	-11.7911
▁GLP	-11.7913
aortic	-11.7917
▁6.4	-11.7919
▁stabilizing	-11.7919
omy	-11.792
carb	-11.792
▁Altogether	-11.7921
▁proteinase	-11.7924
pyr	-11.7925
▁shedding	-11.7927
▁Urinary	-11.7933
▁answered	-11.7934
▁warming	-11.7936
▁0.92	-11.7937
▁118	-11.7937
▁plantar	-11.7937
▁condom	-11.7937
ABC	-11.794
▁perceive	-11.794
▁DF	-11.794
▁topological	-11.7941
▁6)	-11.7941
▁collections	-11.7942
▁lobes	-11.7943
▁der	-11.7943
▁adenocarcinomas	-11.7944
▁Ontario	-11.7945
▁interneurons	-11.7945
UTR	-11.7947
▁subscales	-11.7947
▁algae	-11.7948
▁(31	-11.7948
▁Healthcare	-11.795
▁elsewhere	-11.795
6]	-11.7951
▁flanking	-11.7952
uring	-11.7953
▁mimics	-11.7953
▁concurrently	-11.7954
tocopherol	-11.7956
▁inward	-11.7959
▁KCl	-11.796
▁coming	-11.796
SLE	-11.7964
lowering	-11.7965
ik	-11.7965
▁melting	-11.7966
▁CXCL	-11.7966
▁elution	-11.7968
▁Gu	-11.7968
scope	-11.7969
▁linker	-11.797
▁trophic	-11.797
▁converting	-11.7972
▁opinions	-11.7972
-33	-11.7973
▁biotin	-11.7973
▁Platelet	-11.7974
▁dentists	-11.7975
▁le	-11.7975
▁meals	-11.7975
cutaneous	-11.7975
▁VR	-11.7976
▁instructions	-11.7977
ev	-11.7978
▁odor	-11.7978
▁12.5	-11.7979
▁appendicitis	-11.798
cortical	-11.798
▁gating	-11.7984
dt	-11.7985
▁tinnitus	-11.7985
▁Eastern	-11.7986
▁localize	-11.7986
▁thalamic	-11.799
▁terrestrial	-11.799
▁FD	-11.7991
TBI	-11.7992
1.6%	-11.7993
sorb	-11.7995
▁stretching	-11.7995
▁allosteric	-11.7997
-19)	-11.7999
▁richness	-11.7999
4.8%	-11.8
unit	-11.8001
▁underestimated	-11.8001
▁39%	-11.8001
2.3%	-11.8003
▁deformities	-11.8003
▁GABAergic	-11.8003
▁dimensional	-11.8003
▁AVP	-11.8004
▁topography	-11.8004
tech	-11.8005
▁dynamical	-11.8008
▁dying	-11.8009
▁psychotherapy	-11.8009
▁conferred	-11.8009
▁170	-11.801
▁Thr	-11.8012
demographic	-11.8013
▁acetabular	-11.8014
▁114	-11.8018
▁purine	-11.8019
▁serous	-11.8022
▁advantageous	-11.8023
▁discover	-11.8026
▁lot	-11.8034
axial	-11.8035
▁potato	-11.8036
▁orbit	-11.8037
▁recognizing	-11.8044
7.3%	-11.8045
▁etiological	-11.8047
▁wine	-11.8051
▁thousand	-11.8055
▁(10%)	-11.8058
▁reasoning	-11.8058
NAME	-11.8058
▁0.90	-11.8059
▁0.005)	-11.8062
▁difficile	-11.8062
▁legislation	-11.8062
Cys	-11.8062
8.7	-11.8063
▁0.83	-11.8063
▁originate	-11.8064
▁digit	-11.8065
▁indole	-11.8065
Tx	-11.8066
4.3%	-11.8067
▁afferents	-11.8069
▁dissected	-11.807
▁0.17	-11.807
meric	-11.807
▁MU	-11.8072
▁os	-11.8072
-26	-11.8073
lia	-11.8073
▁vulgaris	-11.8073
▁ewes	-11.8074
▁galactose	-11.8075
�=�0	-11.8075
▁south	-11.8076
-35	-11.8076
bar	-11.8077
▁Op	-11.8078
/2	-11.8079
▁crown	-11.8079
▁thematic	-11.8079
▁probing	-11.8079
▁priorities	-11.8084
▁sensorimotor	-11.8085
▁capsaicin	-11.8085
▁sa	-11.8086
▁occupation	-11.8086
▁81%	-11.8087
▁flora	-11.8089
HLA	-11.8091
▁Comparative	-11.8091
▁Elevated	-11.8091
9.6	-11.8092
▁iterative	-11.8093
▁.01)	-11.8093
lectrocardiogram	-11.8095
▁Open	-11.8097
▁diurnal	-11.8097
▁129	-11.8097
▁Auto	-11.81
▁j	-11.8104
ets	-11.8105
▁gaze	-11.8106
dh	-11.8109
▁Tr	-11.8109
▁Cases	-11.811
▁refinement	-11.811
dic	-11.8111
▁hydrocarbon	-11.8112
▁0.93	-11.8112
VF	-11.8116
▁drawing	-11.8117
-28	-11.8119
globin	-11.8119
▁hallmark	-11.8121
▁antagonism	-11.8121
hosphodiesterase	-11.8121
▁consultations	-11.8123
rays	-11.8123
14)	-11.8126
▁gondii	-11.8127
jo	-11.8127
RCC	-11.8127
▁APP	-11.8128
▁projected	-11.813
fl	-11.8131
▁pin	-11.8133
▁rotator	-11.8133
▁union	-11.8133
▁0.87	-11.8133
▁50-	-11.8134
UD	-11.8134
▁resections	-11.8135
▁branched	-11.8135
▁BS	-11.8136
700	-11.8136
▁standardization	-11.8136
tract	-11.8137
▁bevacizumab	-11.8139
6.1%	-11.8139
uri	-11.814
▁Pol	-11.814
1+	-11.8141
▁uninfected	-11.8141
▁lose	-11.8141
▁sero	-11.8143
▁piglets	-11.8144
▁sensitivities	-11.8144
▁simulator	-11.8144
▁disciplines	-11.8145
▁psychiatry	-11.8145
▁pull	-11.8146
phys	-11.8147
▁statements	-11.8148
▁0.84	-11.8148
2+,	-11.8149
▁constrained	-11.8149
▁LG	-11.815
▁defence	-11.815
system	-11.8153
▁HU	-11.8154
cing	-11.8154
EGF	-11.8155
angiotensin	-11.8155
▁relates	-11.8156
▁Respiratory	-11.8156
▁detoxification	-11.8156
▁grip	-11.8161
▁lu	-11.8162
fish	-11.8163
▁encouraged	-11.8164
%)	-11.8165
▁crossing	-11.8167
▁oblique	-11.8168
▁Natural	-11.8168
▁straightforward	-11.8168
▁modulator	-11.8169
▁favored	-11.817
▁MET	-11.8172
▁Poisson	-11.8174
▁Detection	-11.818
▁neurogenesis	-11.8181
▁Saudi	-11.8182
▁vesicular	-11.8182
▁exosomes	-11.8182
1(	-11.8183
▁Mexican	-11.8186
▁autoimmunity	-11.8186
Pt	-11.8187
▁Mass	-11.8189
▁perfect	-11.8191
▁cited	-11.8192
▁determinations	-11.8195
ering	-11.8195
troph	-11.8196
3.2%	-11.8196
1.7%	-11.8196
▁latencies	-11.8198
▁advent	-11.8198
▁dentate	-11.8199
ach	-11.8201
▁FB	-11.8201
▁worker	-11.8202
▁EMT	-11.8204
▁Safety	-11.8204
pel	-11.8204
▁(45	-11.8207
ned	-11.8209
len	-11.8209
▁clot	-11.821
▁facile	-11.821
▁biased	-11.8213
neuro	-11.8215
▁Environmental	-11.8216
ny	-11.8218
arian	-11.8219
▁Du	-11.8219
▁0.80	-11.822
moderate	-11.822
▁impossible	-11.8222
▁droplet	-11.8223
▁methylated	-11.8223
▁TPA	-11.8224
▁veterans	-11.8225
number	-11.8227
cat	-11.8228
▁healed	-11.823
trioventricular	-11.8234
▁embryogenesis	-11.8234
▁xenografts	-11.8235
▁ICAM	-11.8237
▁DO	-11.8238
complex	-11.8238
▁possessing	-11.8238
diphenyl	-11.8238
▁6.1	-11.824
▁reorganization	-11.8241
▁amyloidosis	-11.8241
-1.5	-11.8243
▁solving	-11.8243
cine	-11.8247
WA	-11.8247
IO	-11.8248
▁covers	-11.825
course	-11.825
▁warning	-11.8253
▁wavelengths	-11.8257
▁5.9	-11.8258
health	-11.8262
▁pr	-11.8262
116	-11.8265
wt	-11.8266
▁6.6	-11.8267
harm	-11.8268
▁Less	-11.827
▁functionalized	-11.827
methionine	-11.827
str	-11.8272
▁PCP	-11.8272
KI	-11.8273
▁anorexia	-11.8276
▁subcortical	-11.8278
▁Ra	-11.8278
▁61%	-11.8281
▁fentanyl	-11.8282
▁ICC	-11.8282
▁ophthalmic	-11.8282
▁Norway	-11.8282
▁Cre	-11.8282
▁solute	-11.8286
mat	-11.8286
▁Man	-11.8288
▁Cardiovascular	-11.8288
7.7%	-11.8288
▁intrahepatic	-11.8289
▁mimicking	-11.8293
▁permeation	-11.8294
▁carboxy	-11.8295
reg	-11.8298
▁intracerebral	-11.8301
▁Diseases	-11.8302
▁farmers	-11.8303
8.4	-11.8303
▁isoproterenol	-11.8304
▁7.3	-11.8306
▁latex	-11.8306
▁schedules	-11.8312
9.0	-11.8313
chlor	-11.8314
▁shortly	-11.8315
omas	-11.8316
eurodegeneration	-11.8319
▁listed	-11.832
▁throughput	-11.832
ship	-11.8321
▁Ap	-11.8321
▁Bu	-11.8322
▁0.89	-11.8324
5.1	-11.8325
▁(0.6	-11.8325
▁126	-11.8326
dynamic	-11.8331
▁mA	-11.8331
▁schizophrenic	-11.8331
▁VII	-11.8332
leg	-11.8332
▁predictable	-11.8335
olo	-11.8335
lat	-11.834
cation	-11.8342
▁vol	-11.8345
▁north	-11.8348
▁etiologies	-11.8349
▁Bacterial	-11.835
▁claim	-11.8352
101	-11.8354
▁readers	-11.8354
▁gall	-11.8356
vin	-11.8357
▁SAH	-11.8358
▁Surveillance	-11.8361
▁hematocrit	-11.8361
▁ABA	-11.8363
▁vehicles	-11.8366
▁neglected	-11.8366
▁hyperthermia	-11.8367
▁Republic	-11.8367
▁infectivity	-11.8367
1.1%	-11.8368
▁harmonic	-11.8369
▁adjunctive	-11.8372
▁plasmon	-11.8372
0.9%	-11.8373
▁eliminating	-11.8373
▁infer	-11.8377
cro	-11.838
▁operon	-11.838
▁SAM	-11.8381
ah	-11.8382
▁TN	-11.8383
▁Nutrition	-11.8384
▁degrade	-11.8385
▁constituent	-11.8386
WI	-11.8388
GF	-11.8389
▁fu	-11.8389
-70	-11.839
▁debridement	-11.8391
▁2011.	-11.8392
▁Gaussian	-11.8393
▁luteal	-11.8393
▁reconstructive	-11.8398
▁GVHD	-11.8398
▁ensemble	-11.8399
▁CPR	-11.8399
▁0.86	-11.84
▁BSA	-11.8403
▁Trp	-11.8403
▁0.88	-11.8403
▁gastritis	-11.8403
omic	-11.8406
▁twofold	-11.8407
▁glyco	-11.8407
)].	-11.8407
▁uncover	-11.8408
action	-11.8409
gan	-11.8409
▁PRO	-11.8412
▁79%	-11.8413
▁WS	-11.8413
▁flows	-11.8413
hybrid	-11.8415
▁Region	-11.8415
▁counselling	-11.8416
BMD	-11.8416
▁30,	-11.8417
▁predispose	-11.8417
▁imp	-11.8417
Hz	-11.8422
▁federal	-11.8422
13)	-11.8423
▁0.20	-11.8424
▁FISH	-11.8426
gest	-11.8426
▁advancing	-11.8426
▁psychology	-11.8428
▁PARP	-11.843
▁0.18	-11.843
▁incidental	-11.8432
▁directional	-11.8435
123	-11.8436
▁BK	-11.8436
▁epithelia	-11.8437
▁0.82	-11.8437
cil	-11.8439
▁gemcitabine	-11.844
▁devoid	-11.8441
▁belonged	-11.8441
▁neuropeptide	-11.8444
▁Surface	-11.8446
sex	-11.8446
▁innovation	-11.8448
▁neighborhood	-11.8448
▁amylase	-11.8448
▁coatings	-11.8449
▁Src	-11.8452
▁cur	-11.8452
smokers	-11.8456
▁analgesics	-11.8456
▁10(-4)	-11.8459
▁VF	-11.846
▁SMA	-11.8463
cholesterolemia	-11.8463
▁rash	-11.8465
pot	-11.8465
first	-11.8465
mers	-11.8466
▁tubulin	-11.847
neuropsychiatric	-11.8471
study	-11.8472
▁op	-11.8472
mel	-11.8473
bone	-11.8473
▁appraisal	-11.8475
▁thrombo	-11.8476
▁Dental	-11.8477
▁consecutively	-11.8478
▁evaluates	-11.8482
▁yolk	-11.8483
▁Nineteen	-11.8483
▁Partial	-11.8483
▁distraction	-11.8484
▁sheets	-11.8485
transformed	-11.8485
▁transmitter	-11.8489
▁GG	-11.8489
vers	-11.8492
▁RNAi	-11.8493
▁lignin	-11.8495
▁Until	-11.8495
more	-11.8497
▁pineal	-11.8497
rap	-11.8497
▁exacerbations	-11.8498
ago	-11.8498
▁insensitive	-11.8501
▁sitting	-11.8501
1.4%	-11.8502
▁collagenase	-11.8502
▁col	-11.8502
cent	-11.8502
▁lactose	-11.8504
▁sequentially	-11.8506
▁stereotactic	-11.8507
▁unless	-11.8509
▁overexpressing	-11.8512
miss	-11.8513
▁Descriptive	-11.8514
fr	-11.8514
ocyte	-11.8514
echo	-11.8515
cardiographic	-11.8519
(�)	-11.8519
TK	-11.8521
▁ascertained	-11.8521
ases	-11.8523
▁technically	-11.8524
model	-11.8525
▁eosinophil	-11.8525
▁uveitis	-11.8532
-43	-11.8533
▁instruction	-11.8535
▁labels	-11.8536
▁approached	-11.8536
▁prednisone	-11.8537
cene	-11.8539
▁nanoscale	-11.8543
▁(80	-11.8543
▁(36	-11.8544
OE	-11.8547
▁utilizes	-11.8549
▁thousands	-11.8551
att	-11.8552
cip	-11.8552
▁Plant	-11.8554
5.2	-11.8556
▁thromboembolic	-11.8557
-0.3	-11.8557
▁stock	-11.8558
▁torsion	-11.8558
▁69%	-11.8558
encoded	-11.8559
▁laws	-11.8559
▁infra	-11.8564
lysine	-11.8567
▁patterning	-11.8568
▁jaundice	-11.8569
▁syphilis	-11.8569
▁Epstein	-11.8569
▁(25%)	-11.8571
stress	-11.8571
▁AMD	-11.8572
0.8%	-11.8572
CAP	-11.8574
▁RM	-11.8574
Ar	-11.8576
www	-11.8577
CAR	-11.8581
▁Successful	-11.8582
▁deliveries	-11.8582
▁publicly	-11.8584
▁pole	-11.8589
▁islands	-11.859
▁feeling	-11.8592
▁WB	-11.8594
omerulonephritis	-11.8594
▁infrequent	-11.8594
medical	-11.8596
alis	-11.8596
▁Ala	-11.8596
quinone	-11.8599
▁bright	-11.86
▁drift	-11.86
ALS	-11.8601
▁0.35	-11.8601
▁casein	-11.8602
nano	-11.8603
▁abstract	-11.8603
▁pointed	-11.8604
▁HCl	-11.8606
▁Purkinje	-11.8606
▁vicinity	-11.8606
▁otitis	-11.8606
/5	-11.8607
implant	-11.8607
▁diabetics	-11.8609
retin	-11.861
▁indigenous	-11.8613
PCI	-11.8615
▁benzo	-11.8615
▁3-4	-11.8617
lk	-11.8619
▁TKA	-11.8619
▁0.002)	-11.8622
▁capsules	-11.8624
8.9	-11.8625
▁Tg	-11.8625
▁ingested	-11.8625
▁confusion	-11.8625
▁Measurement	-11.8628
HER	-11.8629
ION	-11.8629
▁register	-11.863
▁tacrolimus	-11.8631
▁ball	-11.8633
▁nucleation	-11.8636
▁constriction	-11.8637
▁0.91	-11.8638
▁surprisingly	-11.8641
omics	-11.8641
▁resemble	-11.8642
Ma	-11.8642
▁methylene	-11.8643
▁mutagenic	-11.8644
▁County	-11.8645
pathogenic	-11.8645
estradiol	-11.8645
▁HRV	-11.8645
fu	-11.8647
sil	-11.8648
5.0%	-11.8649
pig	-11.8649
▁eligibility	-11.865
▁Ly	-11.8653
▁dipole	-11.8655
FG	-11.8655
▁bridging	-11.8657
▁10,000	-11.8658
▁(2.5	-11.8658
TiO	-11.866
=0.01	-11.866
▁imaged	-11.866
▁computation	-11.8662
tone	-11.8662
Whitney	-11.8663
lay	-11.8663
▁diazepam	-11.8663
▁sulfide	-11.8663
rom	-11.8665
▁IBS	-11.8667
▁calcitonin	-11.8669
3.4%	-11.8671
▁SES	-11.8671
▁rib	-11.8671
▁implication	-11.8672
▁tensor	-11.8672
dimer	-11.8672
▁restraint	-11.8673
▁BF	-11.8673
▁30�	-11.8675
▁nationally	-11.8676
bit	-11.8678
▁(+	-11.868
▁lysosomes	-11.8681
Con	-11.8681
▁Klebsiella	-11.8681
▁Reduction	-11.8682
▁40-	-11.8683
PCA	-11.8684
▁neurogenic	-11.8685
ela	-11.8685
▁BCL	-11.8685
Cd	-11.8688
▁Maximum	-11.8688
WHO	-11.8691
▁fathers	-11.8691
left	-11.8692
tu	-11.8693
▁Nuclear	-11.8694
▁begins	-11.8694
▁nephro	-11.8695
0.1%	-11.8697
▁hepatoma	-11.8697
▁Dynamic	-11.87
▁sustainability	-11.8701
▁bo	-11.8701
▁.01	-11.8702
▁KRAS	-11.8703
▁integrative	-11.8706
▁assuming	-11.8706
▁Regression	-11.8707
▁TRH	-11.8707
eth	-11.8708
▁Rab	-11.8709
▁cleaning	-11.8709
▁enormous	-11.8713
female	-11.8716
▁Thailand	-11.8719
▁entero	-11.8722
▁augment	-11.8723
flight	-11.8723
▁strategic	-11.8724
5.3%	-11.8724
derm	-11.8725
▁outdoor	-11.8726
▁sutures	-11.8727
▁annotation	-11.8729
▁195	-11.873
9.9	-11.8731
▁comes	-11.8731
▁1.01	-11.8732
[...]
